<unk>	0
<s>	0
</s>	0
,	-2.80578
▁de	-3.14856
▁	-3.32184
'	-3.3548
▁et	-3.5475
▁la	-3.62584
▁des	-3.84663
▁l	-3.97456
▁les	-3.99271
▁à	-4.09435
▁d	-4.1686
2	-4.21079
1	-4.22509
▁le	-4.22896
0	-4.23894
.	-4.24894
▁du	-4.26186
▁en	-4.59833
/	-4.60276
5	-4.67178
s	-4.83821
9	-4.86482
-	-4.91732
▁pour	-4.96238
▁que	-5.05625
3	-5.09412
▁;	-5.1018
6	-5.14787
4	-5.18922
▁sur	-5.21125
▁aux	-5.28908
▁au	-5.32002
7	-5.32302
▁par	-5.39668
8	-5.43117
▁Unies	-5.47946
▁Nations	-5.51312
ans	-5.53184
▁qui	-5.63041
▁développement	-5.75875
▁États	-5.78905
▁qu	-5.81492
▁(	-5.97309
)	-5.98356
e	-5.99455
▁pays	-6.00512
▁sa	-6.02402
▁résolution	-6.04699
▁dan	-6.07467
▁avec	-6.14986
▁droits	-6.15719
▁général	-6.17437
▁un	-6.18058
▁décembre	-6.21077
▁Secrétaire	-6.24712
▁ou	-6.25148
▁session	-6.28474
▁une	-6.28641
▁rapport	-6.30093
Organisation	-6.34635
A	-6.35222
▁tous	-6.36079
▁a	-6.36667
▁leur	-6.42696
▁Commission	-6.4418
▁internationale	-6.44929
▁ce	-6.4723
homme	-6.48989
▁ainsi	-6.50914
▁ses	-6.51551
il	-6.51739
.,	-6.55123
▁notamment	-6.56043
▁s	-6.59226
ant	-6.61316
▁international	-6.63946
▁République	-6.67333
▁:	-6.67447
▁y	-6.67896
▁droit	-6.68064
▁mesures	-6.70384
▁leurs	-6.71754
▁également	-6.71922
▁A	-6.72025
▁Convention	-6.72387
▁coopération	-6.75242
▁sont	-6.76737
▁Comité	-6.79959
▁est	-6.8116
▁particulier	-6.81337
▁mise	-6.8257
▁non	-6.85335
▁autres	-6.86315
▁entre	-6.86332
▁contre	-6.8653
▁Prie	-6.87493
▁toutes	-6.89605
▁organisations	-6.89722
▁se	-6.90275
ment	-6.90481
▁S	-6.91
▁son	-6.91575
),	-6.92632
▁plus	-6.96498
un	-6.96518
▁activités	-6.9665
▁sécurité	-6.97194
▁économique	-6.97577
▁ces	-6.98357
;	-6.989
▁Conférence	-6.9896
application	-6.99692
▁Rappelant	-7.01226
une	-7.02057
action	-7.04033
▁annexe	-7.05167
▁compte	-7.05986
▁question	-7.07282
▁Conseil	-7.07749
▁faire	-7.09481
▁compris	-7.09707
Voir	-7.10047
▁lui	-7.10397
▁été	-7.12024
▁organismes	-7.1454
▁paix	-7.15044
▁générale	-7.15241
▁Déclaration	-7.15327
▁Se	-7.16586
▁Membres	-7.16625
▁ont	-7.17176
▁sans	-7.18794
▁no	-7.19263
▁note	-7.20843
nt	-7.21175
Assemblée	-7.21364
▁«	-7.22213
▁efforts	-7.23298
▁continuer	-7.23602
▁résolutions	-7.2432
▁afin	-7.27689
▁ressources	-7.28709
▁femmes	-7.28729
▁programmes	-7.2919
▁Programme	-7.29341
▁cinquante	-7.29906
▁vue	-7.30053
er	-7.32735
▁renforcer	-7.33102
▁parties	-7.33182
▁sous	-7.34585
▁œuvre	-7.35427
▁projet	-7.36674
▁Demande	-7.39923
▁fait	-7.41646
▁internationales	-7.41803
▁c	-7.41939
▁pas	-7.42234
▁social	-7.42525
information	-7.42807
▁cadre	-7.44394
▁voix	-7.45322
▁institutions	-7.45626
▁comme	-7.46231
▁ne	-7.46648
▁protection	-7.49061
▁I	-7.49286
▁satisfaction	-7.50029
▁durable	-7.50131
▁personnes	-7.50238
▁promouvoir	-7.50324
▁prendre	-7.50566
▁paragraphe	-7.52565
▁être	-7.53799
▁spécial	-7.54054
▁mondial	-7.54149
▁personnel	-7.55423
▁Décide	-7.55897
▁mondiale	-7.56841
▁politiques	-7.57555
ils	-7.58199
▁concernant	-7.59453
es	-7.59785
▁travail	-7.6033
r	-7.60623
▁dont	-7.60639
▁séance	-7.61071
gouvernementales	-7.61327
▁RÉSOLUTION	-7.62084
▁plénière	-7.62526
cette	-7.63127
▁présente	-7.63264
▁cet	-7.63317
▁gouvernements	-7.63495
▁dispositions	-7.64394
▁Prend	-7.64531
a	-7.646
▁humanitaire	-7.64804
▁travaux	-7.6503
▁questions	-7.65422
autres	-7.6557
▁demande	-7.65837
elle	-7.66177
▁félicite	-7.66382
▁gestion	-7.66564
▁système	-7.66603
▁Adoptée	-7.68536
▁objectifs	-7.68549
▁enfants	-7.68586
upplément	-7.69875
▁matière	-7.70397
▁rôle	-7.70619
▁novembre	-7.71098
▁Souligne	-7.71417
▁visant	-7.71843
▁nucléaires	-7.71959
▁désarmement	-7.72785
▁services	-7.73261
▁communauté	-7.7614
▁avoir	-7.76507
▁situation	-7.76793
▁instamment	-7.77225
▁b	-7.7816
▁mettre	-7.78262
▁recommandation	-7.78918
▁domaine	-7.7898
▁tout	-7.80669
▁soient	-7.80837
▁prévention	-7.81247
et	-7.81335
▁recommandations	-7.82036
▁officiels	-7.82145
▁armes	-7.82377
▁démocratique	-7.82587
▁chap	-7.82636
▁Invite	-7.83164
▁niveau	-7.83331
▁soixante	-7.83362
▁Sud	-7.84462
▁réfugiés	-7.84534
▁territoire	-7.84767
importance	-7.86379
▁membres	-7.87922
éducation	-7.88092
▁égard	-7.88394
▁moyens	-7.88472
▁recommandé	-7.88472
▁organes	-7.88644
▁internationaux	-7.88741
▁cas	-7.89786
▁soit	-7.89793
aide	-7.90338
République	-7.90509
▁présenter	-7.91072
▁coordination	-7.91094
Le	-7.91126
▁base	-7.91266
▁auteurs	-7.91526
▁relatives	-7.91539
▁intitulée	-7.92734
▁discrimination	-7.92879
▁Réaffirme	-7.9462
▁promotion	-7.94769
▁nécessité	-7.94877
▁inter	-7.94973
▁II	-7.95147
▁régionales	-7.97264
▁vol	-7.97473
exercice	-7.97531
élimination	-7.97792
▁jour	-7.98357
▁progrès	-7.9851
▁programme	-7.99282
▁contributions	-7.99354
▁Notant	-7.99963
▁Note	-7.99966
▁Afrique	-8.00316
o	-8.00811
État	-8.01251
▁pauvreté	-8.01416
▁principes	-8.01505
▁C	-8.01521
examen	-8.01552
les	-8.01802
▁titre	-8.01997
▁importe	-8.03035
▁n	-8.03177
▁toute	-8.032
▁Fonds	-8.03522
▁Haut	-8.03723
ont	-8.03995
▁Saint	-8.04046
▁poursuivre	-8.04168
▁encore	-8.0452
▁national	-8.04838
assistance	-8.04869
▁septembre	-8.05836
▁nécessaires	-8.06219
▁suivants	-8.06431
▁niveaux	-8.07251
rendre	-8.07406
que	-8.0763
▁il	-8.07691
▁respect	-8.07734
▁commerce	-8.07781
▁prises	-8.07881
▁lutte	-8.08177
onformément	-8.09114
ent	-8.09352
▁ceux	-8.09406
▁laquelle	-8.09626
▁prie	-8.09652
▁technique	-8.099
▁acte	-8.0992
▁financement	-8.09988
▁juin	-8.1005
Résolution	-8.10081
▁Gouvernement	-8.10287
▁besoins	-8.10601
▁Encourage	-8.10728
▁formes	-8.10729
▁régional	-8.10947
▁société	-8.11153
▁rapports	-8.11356
▁assurer	-8.11578
▁Sommet	-8.11701
▁date	-8.12701
▁suite	-8.12779
▁Document	-8.12974
l	-8.13981
▁réalisation	-8.1427
▁processus	-8.1449
▁juillet	-8.14542
▁tenue	-8.14561
Afrique	-8.15055
▁Congo	-8.15668
▁nationales	-8.15978
▁Charte	-8.16324
▁possible	-8.16385
▁Pren	-8.17023
ordre	-8.17216
▁conformé	-8.17411
▁Réaffirmant	-8.17483
▁mandat	-8.17851
▁tenu	-8.18135
▁pleinement	-8.18256
▁D	-8.18494
▁renforcement	-8.18738
▁fonds	-8.18779
▁plan	-8.18889
▁peuples	-8.18983
▁chargé	-8.1913
▁décision	-8.19487
en	-8.1992
▁capacités	-8.20104
▁avait	-8.202
▁Groupe	-8.20255
▁participation	-8.20687
▁relatifs	-8.21229
Ibid	-8.21394
▁Les	-8.21568
▁elle	-8.2221
▁concerne	-8.2278
▁Millénaire	-8.23457
▁justice	-8.24174
▁F	-8.24414
▁place	-8.24567
assurer	-8.24767
▁outre	-8.2623
▁partie	-8.26432
appui	-8.26786
▁encourage	-8.27235
t	-8.27649
▁politique	-8.27716
article	-8.28062
▁fournir	-8.28429
▁région	-8.29552
exécution	-8.29598
examiner	-8.29703
▁formation	-8.29952
▁nouveau	-8.29996
▁violence	-8.3035
▁territoires	-8.3037
▁vente	-8.30387
▁financières	-8.30436
▁dollars	-8.30506
yant	-8.30655
▁ayant	-8.30706
égalité	-8.30792
▁Parties	-8.31519
▁État	-8.31558
▁veiller	-8.32189
▁doivent	-8.32574
▁économiques	-8.32843
▁Corée	-8.32954
▁doit	-8.32959
▁Traité	-8.33033
▁».	-8.33209
environnement	-8.33252
▁domaines	-8.33801
▁faveur	-8.33829
▁arabe	-8.34044
▁monde	-8.34044
▁compétents	-8.34076
▁conditions	-8.34092
▁O	-8.34298
▁Corr	-8.34609
▁Co	-8.34877
E	-8.34887
▁Engage	-8.34909
▁problèmes	-8.35345
▁»	-8.35424
armes	-8.35455
▁consultatif	-8.3561
▁moins	-8.36007
ième	-8.36035
ci	-8.36381
▁régionaux	-8.36485
▁fin	-8.36486
Amérique	-8.3669
▁catastrophes	-8.36847
▁réunions	-8.36964
▁création	-8.37512
▁Département	-8.37828
▁nombre	-8.38931
▁santé	-8.39554
Add	-8.39923
▁faciliter	-8.40579
tant	-8.40672
▁P	-8.41138
▁pertinentes	-8.41158
▁extraordinaire	-8.41201
▁félicitant	-8.41232
▁contrôle	-8.41288
▁décisions	-8.41363
▁numéro	-8.41541
▁informations	-8.41642
▁Dan	-8.41959
▁Secrétariat	-8.42122
▁prévenir	-8.42174
Unis	-8.42733
▁B	-8.42975
▁Plan	-8.43325
à	-8.4354
▁fins	-8.4357
:	-8.43801
▁conflits	-8.43814
▁budget	-8.4435
est	-8.44452
▁celles	-8.4446
Accord	-8.44947
▁pratiques	-8.44979
publication	-8.45378
▁terrorisme	-8.45409
▁sujet	-8.45437
▁civile	-8.4599
▁Guinée	-8.46121
urgence	-8.46269
inscrire	-8.46361
▁mer	-8.46384
▁instruments	-8.46624
elon	-8.46634
▁initiatives	-8.47042
▁crime	-8.47758
▁culture	-8.47794
▁Nord	-8.48069
▁même	-8.48113
▁avril	-8.4831
▁montant	-8.48382
▁Soulignant	-8.48529
▁Protocole	-8.48728
▁obligations	-8.48924
▁présenté	-8.49012
ce	-8.491
▁populaire	-8.49662
▁victimes	-8.49706
▁France	-8.49823
▁bien	-8.49844
▁nouvelles	-8.50114
▁maintien	-8.50128
▁groupes	-8.50198
vertu	-8.50327
y	-8.5042
Irlande	-8.50495
▁provisoire	-8.50769
▁manière	-8.50811
▁o	-8.5107
égard	-8.51126
▁point	-8.51183
▁mécanismes	-8.51197
▁relative	-8.51198
septième	-8.51248
▁suivi	-8.514
▁De	-8.51443
▁mieux	-8.51739
▁cours	-8.51866
▁lors	-8.52171
▁Italie	-8.522
▁deux	-8.52216
▁réunion	-8.52259
Uni	-8.52362
▁vingt	-8.52404
▁Portugal	-8.52454
▁Grande	-8.5269
Bret	-8.52786
▁Grèce	-8.52927
Autriche	-8.53028
▁octobre	-8.53191
agne	-8.5321
▁Royaume	-8.53288
Bas	-8.53313
▁actes	-8.53506
▁invite	-8.53683
▁sect	-8.53821
mi	-8.54132
▁spécialisées	-8.54861
▁Add	-8.54889
▁Espagne	-8.54989
▁secteur	-8.55409
▁Soudan	-8.55425
huitième	-8.55507
être	-8.55542
▁façon	-8.55556
▁contribuer	-8.55941
▁opérations	-8.56077
▁Allemagne	-8.56246
▁nationaux	-8.56264
Document	-8.56331
▁Nouvelle	-8.5647
▁Pays	-8.5677
ique	-8.56969
▁cha	-8.57723
emploi	-8.57748
▁relatif	-8.57953
▁pénale	-8.57965
troisième	-8.58015
▁examiné	-8.58078
▁Finlande	-8.58306
▁Suède	-8.58386
▁biennal	-8.58485
▁dialogue	-8.58542
▁Canada	-8.58638
▁Bangladesh	-8.59005
▁Isra	-8.59107
▁Belg	-8.59125
▁résultats	-8.59177
▁libertés	-8.59204
▁nécessaire	-8.59235
▁palestinien	-8.59527
mark	-8.5962
▁Irlande	-8.59762
▁effets	-8.60398
▁lieu	-8.60433
▁compétentes	-8.60584
▁Norvège	-8.60665
▁coopérer	-8.6091
▁stratégies	-8.61145
▁Luxembourg	-8.61162
▁tenir	-8.6129
▁préoccupée	-8.61428
▁peut	-8.61551
▁conférences	-8.61598
▁t	-8.62078
États	-8.62141
▁pris	-8.62156
▁août	-8.62264
▁participer	-8.6227
▁moyen	-8.62428
▁créer	-8.62589
▁accords	-8.6265
▁Égypte	-8.62984
neuvième	-8.63153
▁spéciale	-8.63169
▁Fédération	-8.63269
▁pêche	-8.63325
▁Cuba	-8.63373
S	-8.63524
▁Conscient	-8.63688
▁Chypre	-8.64022
▁Guatemala	-8.64559
▁sexes	-8.64658
▁population	-8.64714
▁Chili	-8.64827
▁faut	-8.65311
▁énoncés	-8.65545
▁Bureau	-8.65669
▁Recueil	-8.65726
▁fondamentales	-8.66131
▁vigueur	-8.66158
▁illicite	-8.66259
▁Russie	-8.66292
▁Malte	-8.66969
Nations	-8.66973
ation	-8.67253
▁Japon	-8.67283
▁adoptées	-8.67412
▁Traités	-8.67515
▁raciale	-8.67778
▁ex	-8.67849
acquitter	-8.68041
▁Croatie	-8.68207
▁Maroc	-8.68228
▁Roumanie	-8.6834
adoption	-8.68394
▁Pologne	-8.68483
▁aspects	-8.68504
▁souligne	-8.68603
▁affaires	-8.68611
Argentine	-8.68749
▁Rica	-8.6875
▁Le	-8.68867
▁Slovénie	-8.68893
▁islamique	-8.69038
▁recherche	-8.69125
▁permettre	-8.69183
▁liberté	-8.69256
▁Indonésie	-8.6951
▁sorte	-8.69557
accès	-8.70319
▁violations	-8.7041
▁El	-8.70429
▁yougoslave	-8.7043
▁réduire	-8.70434
▁mars	-8.70608
).,	-8.7072
▁G	-8.70808
Office	-8.70809
▁Malaisie	-8.7087
▁La	-8.70926
▁Macédoine	-8.70994
CONF	-8.71093
▁période	-8.71368
Algérie	-8.71431
▁unième	-8.71564
▁déployés	-8.71576
sixième	-8.71655
▁techniques	-8.71721
▁tchèque	-8.71846
▁Équateur	-8.71955
▁haut	-8.72099
Zélande	-8.72376
utilisation	-8.72588
▁nationale	-8.72703
▁améliorer	-8.72729
deuxième	-8.72862
▁Président	-8.73152
▁avancés	-8.73167
▁Sénégal	-8.73183
elles	-8.73403
▁protéger	-8.73434
▁Hongrie	-8.73435
▁conclusions	-8.73443
▁données	-8.73687
esprit	-8.73958
▁donner	-8.74223
▁Myanmar	-8.74303
▁Afghanistan	-8.74432
▁L	-8.74563
▁adoptée	-8.7478
▁Considérant	-8.74894
▁efficaces	-8.75077
▁Brésil	-8.75185
▁Nigéria	-8.75203
▁Australie	-8.75235
▁réduction	-8.7534
▁Ukraine	-8.75346
▁aider	-8.75431
▁appliquer	-8.75512
▁filles	-8.75641
▁règlement	-8.75771
sta	-8.75963
▁efficace	-8.75976
▁Bulgarie	-8.76075
▁Chine	-8.76084
élaboration	-8.76181
▁Slovaquie	-8.76224
▁Thaïlande	-8.76256
).	-8.76317
▁contribution	-8.76495
▁naturelles	-8.76619
alinéa	-8.76768
▁privé	-8.76908
▁arabes	-8.76959
tenant	-8.77383
▁suit	-8.77509
▁terme	-8.77716
▁commun	-8.77851
▁Salvador	-8.77878
▁telle	-8.77928
▁Jordanie	-8.78029
▁engagements	-8.78191
▁besoin	-8.7847
▁mesure	-8.78484
▁prise	-8.7852
▁final	-8.78616
▁Bosnie	-8.78943
▁Lituanie	-8.78945
▁sera	-8.78983
▁»,	-8.79021
▁grand	-8.79397
▁statut	-8.79426
▁Rapporteur	-8.7947
▁si	-8.7951
Herzégovine	-8.79517
▁publique	-8.7954
▁mai	-8.797
▁application	-8.79886
au	-8.79927
▁assistance	-8.79943
▁Palestine	-8.80027
▁Island	-8.80186
alimentation	-8.80299
▁Pérou	-8.805
▁première	-8.80539
▁Commissariat	-8.80711
▁dominicaine	-8.80807
évaluation	-8.8092
▁deuxième	-8.81035
ensemble	-8.81042
▁gouvernement	-8.81194
▁peuple	-8.81201
▁vie	-8.81247
▁diversité	-8.81285
▁Monaco	-8.81583
▁arrangements	-8.81867
▁soutien	-8.81895
▁normes	-8.81962
▁présent	-8.82243
prolifération	-8.82314
▁Mexique	-8.82642
▁certains	-8.82678
▁important	-8.82698
▁III	-8.82722
▁Centre	-8.8281
▁peuvent	-8.82851
▁transition	-8.82857
▁systèmes	-8.82924
▁technologies	-8.82933
▁Turquie	-8.82938
▁respecter	-8.82957
▁autre	-8.83004
Rapport	-8.83102
état	-8.83287
▁Kenya	-8.83348
▁Partie	-8.83515
▁Mali	-8.8397
▁administratives	-8.84189
▁Tunisie	-8.84465
▁migrants	-8.84789
▁juridique	-8.84989
▁soixant	-8.85363
efficacité	-8.85461
▁Colombie	-8.85743
▁africaine	-8.85784
▁Namibie	-8.85932
▁Bélarus	-8.8609
▁préoccupation	-8.86149
▁vote	-8.86315
▁tels	-8.86388
▁Pakistan	-8.8642
▁adopté	-8.86551
▁Tribunal	-8.86586
▁Lettonie	-8.86751
ierra	-8.8686
▁Leone	-8.86914
▁Moldova	-8.86916
▁gr	-8.86996
▁personne	-8.8702
aider	-8.87032
▁éliminer	-8.87056
▁zones	-8.87181
▁humanitaires	-8.87212
appliquer	-8.87389
▁face	-8.87621
▁Inde	-8.88175
▁Panama	-8.88287
▁celle	-8.88596
▁Estonie	-8.88618
▁Cameroun	-8.88759
kina	-8.88887
▁financière	-8.88914
▁Djibouti	-8.88929
▁quarante	-8.88939
▁Bur	-8.8908
▁plans	-8.89138
▁part	-8.89244
▁Arménie	-8.89459
▁Fas	-8.89921
▁Philippines	-8.89951
▁accomplis	-8.90089
▁Mission	-8.90121
▁aide	-8.9017
▁procédures	-8.90438
▁celui	-8.90643
▁drogues	-8.90669
▁donateurs	-8.91027
L	-8.91143
▁trafic	-8.91334
▁Accueill	-8.91583
▁représentants	-8.91686
▁appui	-8.91855
▁Madagascar	-8.92025
▁envisager	-8.92171
▁Éthiopie	-8.92179
▁racisme	-8.92212
▁régions	-8.9223
exploitation	-8.92257
▁favoriser	-8.92288
étudier	-8.92344
▁sociale	-8.92415
▁Uruguay	-8.92543
▁contexte	-8.92727
▁Haïti	-8.92745
▁Liechtenstein	-8.9308
▁collaboration	-8.93257
▁volontaires	-8.93262
▁Nicaragua	-8.93262
▁problème	-8.93362
intolérance	-8.93399
é	-8.93554
▁enregistré	-8.93594
▁traite	-8.9391
ôte	-8.93956
Ivoire	-8.941
▁Bolivie	-8.94149
▁conflit	-8.94309
▁Décennie	-8.94321
▁Venezuela	-8.94322
▁dette	-8.94663
ie	-8.94829
▁centrale	-8.94889
▁devrait	-8.95238
administration	-8.95498
▁concernés	-8.95511
▁Cambodge	-8.95583
▁jeunes	-8.95604
▁fondamentaux	-8.95763
▁depuis	-8.95804
▁populations	-8.95908
▁Koweït	-8.96128
▁Bénin	-8.96144
améliorer	-8.9626
▁Zambie	-8.96305
▁Mongolie	-8.96307
atar	-8.96634
orre	-8.96638
▁combattre	-8.96673
▁Azerbaïdjan	-8.96743
▁humains	-8.96799
▁And	-8.96855
▁après	-8.97239
▁chefs	-8.97351
▁science	-8.97399
agriculture	-8.97469
▁criminalité	-8.97593
▁co	-8.9761
▁budgétaires	-8.97613
C	-8.97762
▁torture	-8.98025
indépendance	-8.98103
▁premier	-8.98332
▁davantage	-8.98366
▁Liban	-8.98539
▁relations	-8.98693
▁corruption	-8.98901
▁Caraïbes	-8.98909
▁textes	-8.99079
▁qualité	-8.99114
▁É	-8.9918
▁effective	-8.99738
▁nucléaire	-8.99802
és	-8.99967
▁pêches	-9.00198
▁échéant	-9.0059
▁Kazakhstan	-9.01015
▁Tanzanie	-9.01163
▁saoudite	-9.01354
Union	-9.01722
▁Timor	-9.0176
Unie	-9.01788
▁Arab	-9.01996
origine	-9.02382
▁N	-9.02678
▁Rwanda	-9.02703
▁Géorgie	-9.02746
▁conséquences	-9.02841
Marin	-9.03053
▁réalisés	-9.03545
▁Honduras	-9.03682
▁biens	-9.03887
▁secours	-9.03894
▁devraient	-9.03936
▁occupé	-9.0396
▁Ghana	-9.04072
▁Maurice	-9.04216
▁documents	-9.0423
▁sociaux	-9.04273
▁réparties	-9.04344
▁efficacement	-9.04369
▁projets	-9.04379
▁effet	-9.04416
▁répondre	-9.04477
▁voir	-9.04509
▁armés	-9.04585
▁Fidji	-9.04601
interdiction	-9.04661
▁règles	-9.04808
▁Angola	-9.0495
▁janvier	-9.05073
énergie	-9.05318
▁texte	-9.05332
▁buts	-9.05482
▁interne	-9.05727
▁risques	-9.0574
▁financier	-9.061
▁négociations	-9.06195
▁Suisse	-9.06274
▁appropriées	-9.06305
▁Genève	-9.06316
▁graves	-9.06332
▁faits	-9.06347
▁lorsqu	-9.06499
▁Iran	-9.06576
▁responsabilité	-9.06736
▁principe	-9.06936
▁chargée	-9.07026
▁Darussalam	-9.07076
▁humaines	-9.07134
enfant	-9.07176
affectation	-9.07226
émen	-9.07416
▁missions	-9.07435
▁Constate	-9.07488
iya	-9.07493
espace	-9.07574
Albanie	-9.07681
▁aussi	-9.07696
▁démocratie	-9.07714
▁dépenses	-9.07734
▁ci	-9.0777
▁continue	-9.07859
▁VIH	-9.07878
▁libyenne	-9.07894
▁Commissaire	-9.08242
étant	-9.08276
▁relèvement	-9.08309
ait	-9.08499
▁croissance	-9.08508
▁engage	-9.08674
▁Togo	-9.08709
▁Cap	-9.08718
sida	-9.08779
▁soutenir	-9.08921
▁nouveaux	-9.08929
▁famille	-9.08981
▁légères	-9.09138
▁petits	-9.09412
▁Comores	-9.0975
▁Mozambique	-9.09751
▁Johannesburg	-9.09752
▁reconstruction	-9.09961
▁Paraguay	-9.10168
▁figurant	-9.1017
ons	-9.10291
▁agissant	-9.10585
II	-9.10589
▁issus	-9.10646
▁touchés	-9.10649
▁public	-9.10701
particulièrement	-9.10746
▁groupe	-9.10816
Vert	-9.10969
▁Somalie	-9.11009
man	-9.11054
▁e	-9.11117
▁sessions	-9.11189
▁Jamaïque	-9.11221
engagement	-9.1124
▁abstentions	-9.11357
▁unis	-9.11368
▁Cour	-9.11687
▁avant	-9.1175
▁Érythrée	-9.11858
▁propositions	-9.11963
Est	-9.12131
établissement	-9.12207
▁déjà	-9.12497
▁produits	-9.12662
▁Mauritanie	-9.12714
▁section	-9.12835
▁abstenus	-9.13364
▁apporter	-9.1351
▁déclaration	-9.13524
▁Constatant	-9.13582
objectif	-9.13583
▁mondialisation	-9.13587
▁xénophobie	-9.13794
▁stabilité	-9.13814
▁rapportant	-9.13885
Institut	-9.14123
▁temps	-9.1419
▁Bahr	-9.14195
▁p	-9.14442
▁syrienne	-9.14452
▁régionale	-9.14532
▁Viet	-9.14894
▁équitable	-9.14941
▁transfert	-9.14998
▁Nam	-9.15098
intégration	-9.15476
▁autochtones	-9.15588
▁bonne	-9.16023
▁sein	-9.16059
▁menées	-9.16263
▁postes	-9.16954
▁centres	-9.17145
▁f	-9.17395
▁lutter	-9.17555
Année	-9.17767
▁Rapport	-9.17885
rats	-9.17961
▁autorités	-9.17984
ougoslavie	-9.18192
▁Népal	-9.18458
intermédiaire	-9.18469
▁Ouganda	-9.18793
▁étant	-9.18836
▁secrétariat	-9.18839
▁conférence	-9.18842
▁juridiques	-9.19085
▁Pacte	-9.19095
▁garantir	-9.19101
▁Lanka	-9.19143
▁Zimbabwe	-9.19145
pendant	-9.19197
▁commis	-9.19215
▁intéressés	-9.19434
▁civils	-9.19533
▁catastrophe	-9.19752
▁poursuite	-9.19823
▁menace	-9.1995
▁drogue	-9.20255
▁stocks	-9.20716
▁Rappelle	-9.20763
experts	-9.20775
▁concernées	-9.2084
▁Burundi	-9.20995
▁M	-9.21008
▁continuent	-9.21105
aux	-9.21122
▁Suriname	-9.21229
▁prend	-9.21275
font	-9.21441
▁Lesotho	-9.21462
▁Singapour	-9.21464
▁convenus	-9.21856
ïn	-9.21921
▁déplacées	-9.21939
cinquième	-9.21953
ri	-9.22019
Agence	-9.22149
▁insulaires	-9.22889
dessus	-9.23083
▁décidé	-9.2317
▁méthodes	-9.23298
▁communication	-9.23337
▁Malawi	-9.23365
▁lequel	-9.23461
▁consultations	-9.23627
économie	-9.23635
programme	-9.24009
▁commercial	-9.24224
Nouvelle	-9.24298
▁traitements	-9.24315
Guinée	-9.24547
▁fond	-9.24917
▁fonctions	-9.2562
▁concrètes	-9.25651
▁Botswana	-9.25775
▁menée	-9.25837
▁Belize	-9.26018
▁destruction	-9.26058
▁culturels	-9.26376
▁ait	-9.26417
▁consultation	-9.26485
▁i	-9.26539
▁document	-9.26647
▁langues	-9.26752
▁Samoa	-9.26766
▁caractère	-9.26838
▁Brun	-9.26854
ement	-9.26966
objet	-9.27003
▁universelle	-9.27166
▁jouer	-9.27352
▁organisée	-9.2743
▁mener	-9.27488
▁vive	-9.27545
▁accès	-9.27603
▁voulues	-9.27606
éi	-9.27668
▁chapitre	-9.27753
étude	-9.2778
▁quatrième	-9.27871
▁rectificatif	-9.27987
asie	-9.2848
▁capacité	-9.28498
▁Nous	-9.28524
▁mines	-9.28541
▁Beijing	-9.28834
▁adoptés	-9.29034
▁diffusion	-9.29055
▁Sous	-9.29317
▁établissements	-9.29454
▁partenaires	-9.29533
▁Représentant	-9.29563
apporter	-9.29619
▁E	-9.29644
quatrième	-9.29822
▁Barbade	-9.29825
▁parvenir	-9.29844
▁lois	-9.2992
▁faisant	-9.30031
▁propres	-9.30349
▁Partenariat	-9.30539
▁femme	-9.30548
▁Serbie	-9.30557
nité	-9.30691
Tobago	-9.30754
près	-9.30759
▁Tri	-9.30799
▁fonctionnement	-9.30803
utodétermination	-9.30844
▁autonomes	-9.30917
▁armements	-9.31159
▁pratique	-9.31452
▁grandes	-9.31512
▁production	-9.31576
▁déclare	-9.31693
▁mandats	-9.31831
▁réaliser	-9.31835
▁religion	-9.3184
▁appuyer	-9.31864
▁traitement	-9.31967
▁réserve	-9.32024
▁service	-9.32086
▁seront	-9.32194
ew	-9.32216
▁priorités	-9.32275
▁scientifique	-9.32366
ork	-9.32574
▁fonctionnaires	-9.32745
▁associée	-9.32863
▁Grenade	-9.32946
▁conservation	-9.3314
nformément	-9.33332
▁Kirghizistan	-9.33404
▁pertinents	-9.33511
informations	-9.3385
▁volonté	-9.33931
organisation	-9.34529
on	-9.34603
envisager	-9.3469
▁vers	-9.34865
▁transparence	-9.35002
▁valeur	-9.35035
▁recours	-9.35184
▁puissance	-9.35342
▁Communauté	-9.3554
Lucie	-9.35768
▁Tadjikistan	-9.3581
▁Gabon	-9.35817
▁intérêt	-9.36075
▁particuliers	-9.36103
▁formulées	-9.36212
▁stratégie	-9.36426
cadre	-9.36505
▁rapidement	-9.36691
▁fédér	-9.36794
▁consolidation	-9.369
▁procédure	-9.36952
▁pleine	-9.37004
élaborer	-9.37036
▁entités	-9.3715
▁Vienne	-9.3749
▁intégralement	-9.37507
▁ministérielle	-9.37527
tion	-9.37602
▁Jérusalem	-9.37722
vant	-9.37865
▁possibilités	-9.3787
Orient	-9.37973
▁transit	-9.37988
▁grande	-9.38031
ément	-9.38037
▁éléments	-9.38118
▁trait	-9.38224
octroi	-9.38512
▁guerre	-9.3866
▁large	-9.38817
▁Swaziland	-9.38831
▁Micronésie	-9.38832
▁grave	-9.38966
▁prenant	-9.39151
▁fois	-9.39505
▁associé	-9.39566
▁mis	-9.3982
adopter	-9.40253
institutions	-9.40281
▁appel	-9.40308
▁examiner	-9.4051
▁Libéria	-9.40517
▁portant	-9.40659
▁soulignant	-9.41096
▁partenariats	-9.4125
▁Bhoutan	-9.41372
▁observations	-9.4145
▁priorité	-9.41457
▁connaître	-9.41472
▁meilleur	-9.416
▁Pa	-9.41601
▁sociales	-9.41815
Barbuda	-9.41906
▁nom	-9.42046
▁renseignements	-9.42267
▁eux	-9.4229
▁Pacifique	-9.42418
▁situations	-9.42471
▁Antigua	-9.42559
▁vues	-9.42699
▁respectifs	-9.42836
▁communications	-9.42837
▁long	-9.43415
▁plein	-9.43474
▁sources	-9.4348
▁verser	-9.43539
▁Niger	-9.43685
▁Salomon	-9.43688
▁vulnérables	-9.43736
enfants	-9.44182
▁trois	-9.44302
▁africains	-9.44455
▁considération	-9.4499
▁créé	-9.44997
▁Forum	-9.45076
▁financiers	-9.45113
▁mobiliser	-9.45172
▁rapide	-9.45206
▁traités	-9.45224
▁zone	-9.45275
▁ordinaire	-9.45429
▁régime	-9.45467
▁tel	-9.45546
pou	-9.45562
▁convention	-9.456
▁puisse	-9.45689
▁supplémentaires	-9.45719
▁milieu	-9.45777
▁globale	-9.45777
▁condition	-9.45938
Europe	-9.45984
▁permettant	-9.46072
▁puissent	-9.46141
▁convient	-9.46361
▁pourraient	-9.46376
▁concours	-9.4641
▁disposition	-9.46476
▁secteurs	-9.46476
▁Pour	-9.46504
▁navires	-9.46741
▁commissions	-9.47036
▁Nauru	-9.47262
▁succès	-9.47268
▁Bah	-9.47306
▁stupéfiants	-9.47339
▁développer	-9.47628
Part	-9.47717
▁intéressées	-9.47934
ambie	-9.47966
▁possibilité	-9.48032
▁handicapées	-9.48199
▁activement	-9.48217
▁administrante	-9.48338
▁ratifier	-9.48365
▁crimes	-9.48446
XXI	-9.48827
▁librement	-9.48829
▁article	-9.49207
▁entreprises	-9.49235
▁savoir	-9.49265
éliminer	-9.49348
▁troisième	-9.49579
III	-9.4965
▁Grenadines	-9.49724
▁effectivement	-9.49842
▁sûreté	-9.49967
▁Réunion	-9.50034
▁dû	-9.50069
attention	-9.50091
▁disponibles	-9.50116
▁commune	-9.50162
établir	-9.50287
▁conviendra	-9.50503
▁indispensable	-9.50518
rès	-9.50531
▁Iraq	-9.50685
amas	-9.50972
▁propos	-9.50979
amélioration	-9.50996
▁Convaincue	-9.51002
▁constituent	-9.51049
lon	-9.51219
▁mission	-9.51288
▁manifestations	-9.51389
▁spatiales	-9.51435
▁législation	-9.5147
▁responsabilités	-9.51551
Leste	-9.51571
eau	-9.51593
▁Marshall	-9.51607
▁incombe	-9.51838
▁mais	-9.52437
qu	-9.52603
▁intégrée	-9.52604
▁officielles	-9.52717
▁étroite	-9.52837
ici	-9.52932
▁eu	-9.52984
▁préparatoire	-9.5308
▁biologique	-9.53104
▁transnationale	-9.5339
▁février	-9.53526
▁lao	-9.53774
uissance	-9.54234
avoir	-9.54338
▁forme	-9.54348
I	-9.54544
▁directives	-9.54685
appuyer	-9.54723
▁illicites	-9.54746
▁devenir	-9.5478
▁pénal	-9.55023
▁difficultés	-9.55204
▁donnée	-9.55314
▁lesquelles	-9.55464
▁risque	-9.55582
▁hommes	-9.55643
▁site	-9.55729
▁années	-9.55865
échelle	-9.56091
▁coordonner	-9.56153
▁Nouveau	-9.56162
▁liés	-9.56323
ès	-9.56468
▁réforme	-9.56608
▁fonction	-9.56714
▁intégrale	-9.5674
▁pacifiques	-9.56788
▁civilisations	-9.56881
▁diverses	-9.56964
▁permanent	-9.56986
▁attention	-9.57005
▁sommet	-9.57089
▁propre	-9.57113
▁examen	-9.57223
entrée	-9.57494
▁consacrée	-9.5751
▁mécanisme	-9.5771
Afghanistan	-9.57719
régional	-9.57812
▁coloniaux	-9.57822
▁encourager	-9.5791
▁modalités	-9.58174
▁notant	-9.58464
▁meilleure	-9.58566
▁Ouzbékistan	-9.5861
▁loi	-9.58648
▁certaine	-9.58718
▁parti	-9.5874
▁communiquer	-9.58858
▁centrafricaine	-9.59178
▁Division	-9.5919
Comité	-9.59198
▁actuellement	-9.59239
▁accroître	-9.59341
▁intitulé	-9.59445
▁militaires	-9.59828
▁demandé	-9.60313
▁but	-9.60452
▁locales	-9.60464
▁Maldives	-9.60553
▁particulière	-9.60595
▁V	-9.6091
(	-9.61022
▁compréhension	-9.61264
obligation	-9.61453
▁jus	-9.61706
encourager	-9.62168
▁conform	-9.62231
▁subsidiaire	-9.62235
▁culturel	-9.62262
▁débat	-9.62357
▁atteindre	-9.62576
▁établi	-9.62646
IV	-9.62986
▁Caisse	-9.63007
▁Stratégie	-9.63011
▁aient	-9.63099
▁peines	-9.6332
▁planification	-9.63369
intérêt	-9.63382
▁causes	-9.63452
cent	-9.63547
▁Un	-9.63562
▁Approuve	-9.63722
oliv	-9.63743
hir	-9.63768
intention	-9.63781
unité	-9.63859
▁responsables	-9.63912
le	-9.6392
▁marchés	-9.64032
▁Tonga	-9.64077
arienne	-9.64086
▁retour	-9.64113
▁tendant	-9.6419
▁instrument	-9.64303
▁divers	-9.64394
▁procéder	-9.64411
▁dignité	-9.64442
▁sens	-9.64498
▁développés	-9.64841
▁compétence	-9.65118
▁prioritaire	-9.65118
efforts	-9.65123
▁maintenir	-9.65164
▁comptes	-9.65304
▁soins	-9.65436
▁pouvoir	-9.65467
▁Considère	-9.65527
▁connexes	-9.65568
▁Jama	-9.66068
▁constitue	-9.66126
té	-9.66244
▁cultures	-9.66247
▁Monterrey	-9.66258
▁composition	-9.6626
enseignement	-9.66286
▁organisées	-9.66369
▁délais	-9.66437
▁approuvé	-9.66442
▁signature	-9.66601
▁confiance	-9.66626
▁poissons	-9.66671
▁applicables	-9.66693
▁Résolutions	-9.66978
CN	-9.67371
▁définitif	-9.67396
▁durables	-9.674
▁dixième	-9.6744
▁démarche	-9.6774
▁approche	-9.67913
▁élaborer	-9.68055
▁Rome	-9.68111
▁gouvernance	-9.68111
▁cent	-9.68118
▁garanties	-9.68254
▁joue	-9.6876
▁physique	-9.68844
▁littoral	-9.68862
▁Moyen	-9.68888
accroître	-9.68983
▁Exprim	-9.69244
▁diffuser	-9.6926
▁trente	-9.69321
Vin	-9.69414
▁correspondant	-9.6944
▁échanges	-9.6959
▁Protocoles	-9.69674
mettant	-9.6984
▁crédit	-9.69971
▁antimines	-9.70002
▁médias	-9.70057
activité	-9.70152
▁paludisme	-9.70762
▁judiciaire	-9.70768
▁pauvres	-9.70807
▁vot	-9.70864
▁tolérance	-9.70878
▁dotés	-9.70899
▁ni	-9.70918
▁représentant	-9.71155
i	-9.71225
activités	-9.71253
▁R	-9.71295
île	-9.71354
▁six	-9.71386
▁elles	-9.71399
▁plusieurs	-9.71532
▁culturelle	-9.71972
▁accord	-9.71976
▁Ban	-9.72558
▁maritime	-9.72725
▁spéciales	-9.73023
▁minorités	-9.73112
▁auxquels	-9.73137
▁publics	-9.73345
▁g	-9.73701
▁conventions	-9.74097
attaquer	-9.7426
▁Europe	-9.74291
Article	-9.74697
▁incombent	-9.74799
▁solutions	-9.74993
▁Sa	-9.75005
an	-9.75052
occasion	-9.75162
▁atomique	-9.75171
▁multilatérales	-9.75186
▁pacifique	-9.75431
échange	-9.75513
▁voie	-9.75587
▁opérationnelles	-9.75652
eb	-9.75795
▁Vanuatu	-9.75879
▁figurent	-9.75931
▁migrations	-9.76007
▁préparatifs	-9.76287
▁défense	-9.76289
échelon	-9.76491
▁sociétés	-9.76607
▁raison	-9.76736
▁inhumains	-9.7677
▁réparti	-9.76834
uyan	-9.7685
▁suivant	-9.77036
▁réaffirme	-9.77086
▁certain	-9.77281
▁juridiction	-9.77849
▁fabrication	-9.77922
▁Processus	-9.77939
▁cruels	-9.77943
ité	-9.78016
Rev	-9.78021
▁sexuelle	-9.78076
année	-9.78084
Monténégro	-9.78134
▁conviction	-9.78394
régionaux	-9.78643
▁directeurs	-9.78704
▁Turkménistan	-9.7875
▁Exhort	-9.78772
▁liens	-9.78795
▁adhérer	-9.788
▁vo	-9.78808
▁différentes	-9.78826
▁acteurs	-9.78931
annexe	-9.79075
▁Durban	-9.79164
▁tirer	-9.79212
▁nationalité	-9.79213
AC	-9.79311
▁changements	-9.79439
▁Sachant	-9.79605
▁appropriés	-9.79621
▁humaine	-9.79635
▁consciente	-9.79683
▁liées	-9.79857
▁répression	-9.80005
▁nombreux	-9.80036
▁million	-9.80047
▁violation	-9.80074
intérieur	-9.80355
▁prévues	-9.80515
▁exécutif	-9.80578
▁dégradants	-9.80585
intégrer	-9.80681
Habitat	-9.80812
▁con	-9.81186
▁existants	-9.81333
▁limites	-9.81358
▁ii	-9.81427
▁global	-9.8155
▁avantages	-9.81622
▁multilatéral	-9.81828
▁aura	-9.81882
▁créés	-9.81969
▁utilisation	-9.82025
évolution	-9.82048
▁empêcher	-9.82077
▁afghan	-9.82085
▁Palaos	-9.8213
▁Dominique	-9.82132
▁recettes	-9.82132
▁circulation	-9.82133
▁Remerci	-9.82151
▁nouvelle	-9.8216
▁pourrait	-9.82198
▁brut	-9.82254
▁largement	-9.82255
▁nature	-9.82512
aires	-9.82555
▁exempte	-9.82561
▁océans	-9.82579
▁sexe	-9.8267
▁Tokélaou	-9.82741
enquête	-9.82904
▁action	-9.82945
▁IV	-9.82956
▁obstacles	-9.83193
▁Coopération	-9.83208
ns	-9.83251
▁local	-9.83305
▁désertification	-9.83436
▁transport	-9.83479
▁sanctions	-9.83483
n	-9.83608
▁suffisantes	-9.83718
▁Reconnaît	-9.83899
▁type	-9.83969
▁alimentaire	-9.83975
▁géographique	-9.83978
▁Gu	-9.84267
▁(«	-9.84318
ux	-9.84365
▁reste	-9.84408
▁charge	-9.84411
▁lorsque	-9.84451
▁annuel	-9.84625
▁commerciales	-9.8479
Asie	-9.84791
▁nous	-9.84854
▁ratification	-9.84864
▁essentiel	-9.84886
organisations	-9.84937
▁suivre	-9.8504
▁bureaux	-9.85189
▁réinsertion	-9.8519
Sud	-9.85296
intensifier	-9.85714
expérience	-9.85829
▁connaissances	-9.86034
Bissau	-9.86042
▁climat	-9.8606
▁porter	-9.86563
▁conforme	-9.86698
▁produit	-9.86956
▁régissant	-9.86979
atteindre	-9.87006
▁VII	-9.87015
▁marin	-9.87066
instruments	-9.87531
▁chef	-9.87557
▁stratégique	-9.87568
▁Statut	-9.87593
▁faite	-9.87654
ex	-9.8773
delà	-9.88305
rps	-9.88382
intégrité	-9.88618
▁énoncées	-9.88638
▁Jam	-9.89064
Autorité	-9.89205
ge	-9.89233
▁différents	-9.89304
▁état	-9.89391
▁publiques	-9.89545
▁conscience	-9.89726
▁financer	-9.8974
▁reprise	-9.89741
▁détention	-9.89747
ahir	-9.89833
▁aucune	-9.89922
▁installations	-9.90162
▁demandes	-9.90176
▁mot	-9.90201
▁préjudice	-9.90205
▁surtout	-9.90257
accorder	-9.90447
▁retard	-9.90448
▁étroitement	-9.90764
▁portée	-9.90936
▁En	-9.91034
▁articles	-9.9106
▁compétences	-9.91187
▁phase	-9.91316
▁force	-9.91394
après	-9.91418
▁lieux	-9.91431
▁préparation	-9.91602
▁forces	-9.91845
humanité	-9.91891
▁tiers	-9.92121
initiative	-9.92192
B	-9.92298
▁trouver	-9.923
▁adopter	-9.92311
▁Affirm	-9.9238
Rouge	-9.92511
▁utile	-9.92571
▁infractions	-9.9262
▁mixte	-9.92758
▁socioéconomique	-9.92896
▁»)	-9.92943
▁régler	-9.93027
▁climatiques	-9.93153
parts	-9.93158
▁environnement	-9.9335
▁intérêts	-9.93355
▁existe	-9.93505
▁déplacés	-9.93526
▁immédiatement	-9.93536
▁chacun	-9.93591
▁nations	-9.93696
▁maladies	-9.93744
▁établir	-9.93933
▁indiqué	-9.93993
▁préserver	-9.93995
▁demeure	-9.94084
▁recrutement	-9.94242
▁prenantes	-9.94263
P	-9.94272
▁quote	-9.9431
▁incidences	-9.94377
taux	-9.94478
▁déterminer	-9.94488
▁participent	-9.94506
▁Tuvalu	-9.94961
▁Reconnaissant	-9.94966
▁complète	-9.9501
▁ouvert	-9.95112
▁lesquels	-9.95277
re	-9.95355
▁répercussions	-9.9546
▁terrain	-9.95463
opinion	-9.95582
▁central	-9.95654
▁année	-9.95691
▁déclarations	-9.95703
▁délai	-9.95705
▁anniversaire	-9.95742
D	-9.96162
yan	-9.96454
▁menaces	-9.96567
▁partenariat	-9.96658
▁donné	-9.96679
▁limitation	-9.9668
▁surveillance	-9.96942
▁handicapés	-9.96988
▁Siège	-9.97103
▁établies	-9.97148
ches	-9.97319
▁prennent	-9.9759
actes	-9.97635
▁remédier	-9.97942
▁Recommande	-9.97948
▁prêter	-9.98094
▁existent	-9.98152
▁vulnérabilité	-9.98185
▁matériel	-9.98333
▁oriental	-9.98383
▁Congrès	-9.98445
▁rappelant	-9.9845
▁directement	-9.98469
régionales	-9.98472
▁conduite	-9.98729
▁décide	-9.9883
Président	-9.98921
appel	-9.98939
▁participants	-9.98954
T	-9.98976
visées	-9.99048
Action	-9.9913
▁solidarité	-9.99464
▁susceptible	-9.99464
▁viabilité	-9.99465
▁onzième	-9.99467
▁défis	-9.99477
▁entier	-9.995
▁responsable	-9.99715
▁protocoles	-9.99811
▁effectif	-9.99926
gées	-9.99932
▁touchant	-9.99981
▁intégrer	-10.001
▁bon	-10.0033
.;	-10.0042
adhésion	-10.0047
▁importants	-10.0049
▁spéciaux	-10.0049
▁jouent	-10.0062
augmentation	-10.0072
intervention	-10.0095
▁tenues	-10.0097
accord	-10.01
▁scientifiques	-10.01
accent	-10.0127
▁crise	-10.0128
▁Félicit	-10.0149
▁présentés	-10.0155
▁cinq	-10.0183
▁pollution	-10.0205
▁modification	-10.0206
▁proposition	-10.0233
▁ordre	-10.0237
▁chimiques	-10.0259
▁Système	-10.026
▁humain	-10.0275
▁existantes	-10.0279
▁différends	-10.0283
▁marines	-10.0329
▁déplacements	-10.0339
▁facultatif	-10.034
▁stratégiques	-10.0348
uestions	-10.0377
▁VI	-10.0385
▁importante	-10.0388
▁élevé	-10.0391
▁israéliennes	-10.0399
encontre	-10.0399
▁marins	-10.0406
▁récemment	-10.0418
▁décolonisation	-10.0418
▁soumettre	-10.0419
che	-10.0424
▁profit	-10.0436
▁technologie	-10.0448
▁aucun	-10.0454
▁signé	-10.0467
▁T	-10.0469
organiser	-10.0477
efforcer	-10.049
▁profonde	-10.0528
▁latine	-10.0537
Commissariat	-10.0538
▁Salu	-10.0546
▁net	-10.0548
même	-10.0571
▁visés	-10.0576
▁fondée	-10.0579
▁mouvement	-10.058
▁contribuent	-10.0588
▁partage	-10.0592
▁moment	-10.0613
Principe	-10.062
▁termes	-10.0639
employer	-10.0677
▁pavillon	-10.0689
▁permettent	-10.0692
▁Vic	-10.07
▁total	-10.0709
▁investissements	-10.0724
▁soutenue	-10.0728
XV	-10.0731
▁totale	-10.0738
instauration	-10.0741
▁définir	-10.0742
▁Tomé	-10.0744
▁tourisme	-10.0745
▁requis	-10.0747
▁civiles	-10.0755
▁inquiétude	-10.0761
▁voulu	-10.0774
▁quatre	-10.0783
▁somme	-10.0784
▁déclarée	-10.0791
▁mutuellement	-10.0804
▁réaffirmant	-10.0805
▁Pro	-10.0811
▁serait	-10.0821
▁prié	-10.0846
▁da	-10.0847
▁collaborer	-10.0847
▁collecte	-10.0855
▁classiques	-10.0859
▁tenus	-10.0885
▁complet	-10.0892
titude	-10.0897
▁démocratiques	-10.0909
▁faim	-10.0912
ou	-10.0913
▁rendu	-10.0915
accueil	-10.0935
▁redouble	-10.095
▁sensibilisation	-10.0969
▁Doha	-10.0973
▁matières	-10.0995
fondé	-10.0997
▁pensions	-10.1005
▁blanc	-10.1017
▁Tchad	-10.1025
▁spécifiques	-10.1033
▁appendice	-10.1069
agissant	-10.1069
▁résoudre	-10.1083
expression	-10.1095
▁annexes	-10.1121
▁extérieure	-10.1128
it	-10.113
▁patrimoine	-10.114
▁subsidiaires	-10.1151
ouvement	-10.1158
raient	-10.1172
▁multilatéraux	-10.1198
▁terroristes	-10.1202
▁visite	-10.1219
autre	-10.1219
▁circonstances	-10.1221
▁accrue	-10.1253
ts	-10.1254
▁nombreuses	-10.1256
▁consolider	-10.1256
▁Condamn	-10.1261
▁Paris	-10.1276
▁futures	-10.1285
▁maritimes	-10.1313
▁principaux	-10.1315
▁ré	-10.1339
▁poste	-10.1358
▁barème	-10.1373
▁occupante	-10.1382
▁solution	-10.1384
alerte	-10.1397
Université	-10.1401
Initiative	-10.1416
▁alignés	-10.1432
▁Règlement	-10.1432
▁respectivement	-10.1435
▁active	-10.1435
▁mois	-10.1438
hi	-10.1442
▁convoquer	-10.1445
▁gra	-10.1459
▁vérification	-10.1492
▁Préoccupée	-10.1495
▁mènent	-10.1502
▁législatives	-10.1504
▁destinés	-10.1522
▁objectif	-10.1526
▁soumis	-10.1539
▁engagés	-10.1542
montant	-10.1544
Mexique	-10.1551
▁formuler	-10.1554
▁travailleurs	-10.1554
▁nouvel	-10.1565
▁rang	-10.1566
▁h	-10.1568
▁tiendra	-10.1578
▁obstacle	-10.16
▁définis	-10.1611
▁vieillissement	-10.1612
▁Cadre	-10.1635
▁organisation	-10.1636
▁administrantes	-10.1644
▁auteur	-10.1652
▁perspective	-10.1656
▁faites	-10.1664
▁renforçant	-10.1673
▁exécuter	-10.1675
▁débats	-10.1681
f	-10.1704
▁massive	-10.1718
▁immunités	-10.174
▁encourageant	-10.1744
aient	-10.1747
▁départements	-10.175
▁communautés	-10.1777
▁élections	-10.1792
Croix	-10.1794
▁Journée	-10.1795
▁siècle	-10.18
▁signer	-10.1802
▁considérée	-10.1824
▁contribue	-10.1828
▁monétaire	-10.1839
▁mène	-10.1857
▁antérieures	-10.1867
▁entrepris	-10.1872
avis	-10.1895
▁contraire	-10.19
jours	-10.19
▁propice	-10.1904
▁récente	-10.1911
équité	-10.1916
▁religions	-10.1916
▁comprendre	-10.1921
▁agents	-10.1943
▁atteinte	-10.1949
▁gouvernementaux	-10.1955
▁industriel	-10.1958
Administration	-10.1979
▁mobilisation	-10.1985
▁cause	-10.199
▁juste	-10.2011
▁fondées	-10.202
▁consultatifs	-10.2022
▁accorder	-10.203
▁fourniture	-10.203
▁preuve	-10.2031
▁valeurs	-10.2036
▁génocide	-10.2044
▁déchets	-10.2044
irecteur	-10.2053
▁petites	-10.2059
mêmes	-10.2063
▁représentation	-10.2082
org	-10.2095
▁européenne	-10.2095
▁ethniques	-10.2101
▁mondiaux	-10.2108
▁réconciliation	-10.2108
▁veillant	-10.2109
▁permanente	-10.2109
▁tou	-10.2119
▁rurales	-10.2121
▁restrictions	-10.2134
▁haute	-10.2135
▁Asie	-10.216
▁Justice	-10.2171
▁présence	-10.2172
▁utiliser	-10.2199
▁dispose	-10.2215
▁quant	-10.2222
▁électronique	-10.2225
▁Cha	-10.2226
gouvernemental	-10.2229
▁stockage	-10.2235
u	-10.2249
▁apportée	-10.2258
▁Nairobi	-10.2302
▁limitée	-10.2309
issue	-10.231
impunité	-10.2314
gouvernementaux	-10.2318
▁fédérale	-10.2319
▁lancé	-10.233
▁sécheresse	-10.2353
▁fixés	-10.2358
▁suivante	-10.236
▁libération	-10.2368
▁provenan	-10.2371
▁réglementée	-10.2387
▁profond	-10.2387
occupent	-10.2402
▁universel	-10.2404
habitat	-10.2426
▁Ligue	-10.243
▁bilatéraux	-10.243
▁contenant	-10.2435
▁réaffirmé	-10.245
▁arbitraires	-10.2458
▁thème	-10.2484
▁administratif	-10.2485
▁dé	-10.2488
formément	-10.249
▁applicable	-10.2492
▁équatoriale	-10.2496
▁découlant	-10.2496
▁limite	-10.2498
▁régulièrement	-10.2499
▁relever	-10.25
▁figure	-10.2527
analyse	-10.2562
▁propriété	-10.2562
▁joué	-10.2563
▁Travail	-10.2565
▁doter	-10.2566
▁dernières	-10.2566
entre	-10.2573
▁touchées	-10.2582
▁Insiste	-10.2585
▁préoccupations	-10.2607
▁exécutions	-10.2616
dite	-10.2623
▁releva	-10.2625
▁Amérique	-10.2628
▁endettés	-10.2631
▁revêt	-10.2631
▁Consensus	-10.2634
▁coût	-10.2638
impact	-10.2641
▁principal	-10.2679
▁rétablissement	-10.2699
ion	-10.27
évaluer	-10.27
▁tarder	-10.2701
▁documentation	-10.2702
▁coûts	-10.2709
▁croissant	-10.2719
▁XXI	-10.2727
▁police	-10.2744
▁favorable	-10.2746
offre	-10.2752
atmosphérique	-10.276
▁accompli	-10.2769
▁centre	-10.2771
▁appliquées	-10.2797
▁consacrés	-10.2817
▁comité	-10.2827
N	-10.2829
adresse	-10.2841
▁enquêtes	-10.2845
▁ultérieures	-10.2846
▁infrastructures	-10.2853
d	-10.2865
▁annuelle	-10.2867
▁effort	-10.2873
▁libre	-10.2884
Isra	-10.2885
▁voisins	-10.2902
▁attendant	-10.2905
▁visent	-10.2908
▁diamants	-10.2917
existence	-10.2917
▁servir	-10.2924
x	-10.2926
▁armé	-10.2941
▁hôte	-10.2962
▁réadaptation	-10.2969
▁palestinienne	-10.2969
▁défenseurs	-10.297
▁organisé	-10.2974
▁évaluation	-10.3
▁facteurs	-10.3003
▁voulue	-10.3009
ixième	-10.3017
▁dernier	-10.303
▁applications	-10.3035
▁crédits	-10.3037
▁persistance	-10.3038
▁travailler	-10.3044
▁mercenaires	-10.3046
▁statistiques	-10.3049
▁existant	-10.305
▁extraordinaires	-10.3055
▁experts	-10.3057
▁disposer	-10.3062
▁prochaine	-10.3086
▁occupés	-10.31
▁illégale	-10.31
▁fournis	-10.3108
▁passage	-10.3109
▁apporté	-10.3109
▁direction	-10.3109
▁substances	-10.311
▁gré	-10.3111
▁Saluant	-10.312
▁vivent	-10.3125
utiliser	-10.313
de	-10.3136
▁maîtrise	-10.3138
▁Br	-10.3144
▁exercice	-10.3158
abus	-10.3172
enfance	-10.3176
pices	-10.3176
▁généraux	-10.318
▁mal	-10.3181
▁iii	-10.3183
▁bénéficier	-10.3186
▁prioritaires	-10.3188
allégement	-10.3201
▁instances	-10.3206
▁Si	-10.3206
▁juger	-10.3209
inviter	-10.3218
▁célébration	-10.325
▁fournissant	-10.325
▁supérieur	-10.3257
V	-10.3262
▁issu	-10.3275
▁extra	-10.3293
▁essentielle	-10.332
▁locaux	-10.3322
)/	-10.3352
▁fournie	-10.3354
▁atténue	-10.3364
▁sport	-10.3379
▁offrir	-10.338
▁énoncé	-10.3386
▁Chapitre	-10.3393
▁Constitution	-10.3393
▁antipersonnel	-10.3393
▁syrien	-10.3397
Opération	-10.3397
▁présentation	-10.3411
▁re	-10.3417
▁exemple	-10.3418
▁actions	-10.3422
asile	-10.3424
▁indispensables	-10.3426
▁douzième	-10.3431
▁rechercher	-10.3432
▁prévision	-10.3438
▁favorise	-10.3452
coup	-10.3454
▁reconnaissant	-10.347
▁ensemble	-10.3486
▁double	-10.3503
▁apportent	-10.3508
▁conclus	-10.3522
▁structure	-10.3523
ajouter	-10.3532
abstenir	-10.3535
▁conclusion	-10.3537
▁dernière	-10.3537
▁critères	-10.3542
▁indépendant	-10.3551
▁privés	-10.3554
▁objet	-10.3558
▁rapatriement	-10.356
ouverture	-10.3569
▁dix	-10.3581
▁migrateurs	-10.3612
▁réseau	-10.3617
atténuation	-10.3623
▁ferme	-10.3655
▁dispositifs	-10.3656
▁intensifier	-10.3665
▁membre	-10.3679
Calédonie	-10.3683
▁maximum	-10.3686
▁calendrier	-10.3686
▁néfastes	-10.369
▁entrave	-10.3706
▁écosystèmes	-10.3706
▁Au	-10.3712
▁requises	-10.3735
▁additionnel	-10.3742
▁commises	-10.3756
▁forêts	-10.3764
▁prévu	-10.3772
▁unilatérales	-10.3774
▁discriminatoire	-10.3793
▁porte	-10.3805
▁conseils	-10.3807
argent	-10.3815
exercer	-10.3816
▁dangers	-10.3827
▁cohérence	-10.3836
▁dirigeants	-10.3843
▁individus	-10.3848
▁actuelle	-10.3857
▁parité	-10.3866
▁cela	-10.3879
▁auront	-10.3901
quelles	-10.3917
▁échelons	-10.3921
▁prévoir	-10.3925
▁possibles	-10.3934
▁pertes	-10.3934
▁consacrées	-10.3947
▁engagement	-10.3958
▁fasse	-10.396
».	-10.3964
imposent	-10.3981
▁minimum	-10.3988
▁Tchernobyl	-10.3988
▁prolifération	-10.3993
▁coordonnée	-10.4
autorité	-10.4037
▁étudier	-10.4059
▁insiste	-10.4061
▁Code	-10.4063
▁revenu	-10.4065
avenir	-10.4072
▁terrestres	-10.4081
▁participant	-10.409
▁figurer	-10.4091
▁palestiniens	-10.4098
interprétation	-10.4123
vement	-10.413
▁essentiels	-10.4132
▁traité	-10.4141
▁souvent	-10.4142
▁siège	-10.4143
▁migrantes	-10.4143
autonomisation	-10.4188
aucune	-10.422
▁Hyogo	-10.4226
▁tôt	-10.423
▁traiter	-10.4232
▁réformes	-10.4242
▁axée	-10.4251
▁durée	-10.4259
▁privées	-10.4269
▁Renforce	-10.4276
▁séminaires	-10.4291
▁volontaire	-10.4292
▁Article	-10.4295
▁pied	-10.4299
▁soucieuse	-10.43
▁chevauchants	-10.43
▁importantes	-10.4302
▁approprié	-10.4315
dit	-10.4324
▁concertées	-10.4329
▁poursuites	-10.4331
▁destinées	-10.4332
▁points	-10.4337
isponible	-10.434
Partie	-10.4342
▁reconnus	-10.435
inspection	-10.4352
▁tard	-10.4375
▁biais	-10.4378
▁traduire	-10.4379
▁convocation	-10.4381
▁Force	-10.4381
▁Il	-10.4382
▁causé	-10.4384
▁On	-10.4397
▁Est	-10.4416
observateur	-10.4437
▁types	-10.444
▁religieuses	-10.4441
rait	-10.4455
▁travailleuses	-10.4458
ssement	-10.4469
▁Fait	-10.447
▁Monténégro	-10.4487
▁répond	-10.4495
▁appropriée	-10.4505
Nevis	-10.4536
▁Rio	-10.4538
▁Madrid	-10.4539
▁judiciaires	-10.4546
▁avis	-10.455
▁mondiales	-10.4558
▁événements	-10.457
avec	-10.4571
observation	-10.4572
▁utilisés	-10.4574
▁début	-10.4585
accueillir	-10.4595
engager	-10.4596
absence	-10.4617
▁navigation	-10.462
▁réseaux	-10.4621
▁territoriale	-10.463
▁organe	-10.4635
infrastructure	-10.4637
▁futurs	-10.4685
▁Copenhague	-10.4702
▁Proche	-10.4703
▁prévoit	-10.4705
▁relation	-10.4709
immun	-10.473
▁importance	-10.4733
▁limiter	-10.4744
équipement	-10.475
gouvernementale	-10.4775
oods	-10.4782
▁Mesure	-10.4783
▁diplomatique	-10.4788
ouvrir	-10.4797
▁imposées	-10.48
▁religieux	-10.4802
▁liste	-10.4805
▁considérable	-10.4808
▁intérieur	-10.4809
▁tendances	-10.4813
▁menés	-10.4826
▁entière	-10.4827
▁campagnes	-10.4829
gré	-10.4851
▁évaluer	-10.4856
déficience	-10.4866
▁privilège	-10.4868
intimidation	-10.4868
▁souveraineté	-10.487
▁réponse	-10.4872
▁Seychelles	-10.4872
▁langue	-10.4873
▁convaincue	-10.4873
▁proclamé	-10.4876
▁sciences	-10.488
ST	-10.4888
▁constituer	-10.4893
▁réprim	-10.4898
▁Pactes	-10.4901
▁utilisées	-10.4913
pplication	-10.4925
▁terres	-10.4931
▁reconnaissance	-10.4953
▁progresser	-10.4953
▁ministres	-10.4957
▁adressée	-10.4963
▁autant	-10.4963
▁structures	-10.4966
▁source	-10.4985
▁révisé	-10.4987
ées	-10.5
enant	-10.5011
▁consensus	-10.5038
▁conclure	-10.5039
▁strictement	-10.504
▁venir	-10.5046
▁ratifié	-10.505
▁élément	-10.5055
empêcher	-10.5059
▁établie	-10.506
▁présentent	-10.5062
▁principale	-10.5073
▁secrétariats	-10.5074
▁forcé	-10.5074
bid	-10.5078
▁transferts	-10.5079
▁prévue	-10.5094
▁contenu	-10.5117
▁capitaux	-10.5122
▁enquête	-10.5131
▁pouvoirs	-10.5137
▁éviter	-10.5138
▁Service	-10.5152
instaurer	-10.5156
etton	-10.5184
Association	-10.5206
▁prévus	-10.5215
▁cambodgien	-10.5215
▁séminaire	-10.5218
Ki	-10.5223
RES	-10.5226
rant	-10.5227
▁répartir	-10.5229
▁connaissance	-10.5234
▁siennes	-10.5242
▁appartenan	-10.5259
▁internes	-10.5261
▁ans	-10.5266
investissement	-10.5286
▁systématique	-10.5294
▁Ten	-10.5294
▁moitié	-10.5295
occupation	-10.5306
▁essai	-10.532
▁multilatérale	-10.5331
▁relev	-10.5335
▁particulières	-10.5352
▁étude	-10.5361
▁demander	-10.538
▁frais	-10.5384
▁communs	-10.5388
▁adoptant	-10.5389
▁chances	-10.539
▁renforcent	-10.539
▁peine	-10.5394
▁intérimaire	-10.5394
Iran	-10.5403
▁réglementation	-10.5409
▁sexuels	-10.5417
▁invité	-10.5423
systématiquement	-10.5427
»	-10.5439
▁profondes	-10.5443
▁compter	-10.5458
▁tuberculose	-10.5472
▁spécialement	-10.5473
▁conciliation	-10.5479
▁acquise	-10.5483
▁préalable	-10.5483
▁gard	-10.5483
▁ethnique	-10.5485
▁lien	-10.5499
▁était	-10.551
CC	-10.5519
▁apporte	-10.5543
▁in	-10.5545
▁Kimberley	-10.5561
▁inaliénable	-10.5561
▁commerciaux	-10.5561
▁conception	-10.5561
▁rapatriés	-10.5562
▁dégradation	-10.5562
▁entendu	-10.5563
▁tirés	-10.5571
▁additionnels	-10.5572
▁marché	-10.5573
▁rend	-10.5578
▁inscrit	-10.5582
▁cession	-10.5584
▁récentes	-10.5587
▁directeur	-10.5594
▁donc	-10.56
▁crises	-10.5605
▁égalité	-10.5608
ONU	-10.5622
▁infraction	-10.5623
▁élargir	-10.5623
égide	-10.5649
▁Coordonnateur	-10.5651
▁exempt	-10.5659
▁danger	-10.5663
▁législatif	-10.5664
exportation	-10.5672
▁favorables	-10.5676
▁interventions	-10.5709
▁consenti	-10.5709
▁viables	-10.5714
▁intégré	-10.573
▁sommaires	-10.575
▁partout	-10.5753
▁supplémentaire	-10.5755
in	-10.5777
▁fixé	-10.5793
▁familles	-10.5807
▁communes	-10.5811
▁H	-10.5815
▁forcées	-10.5822
▁bénéficient	-10.5836
pouvant	-10.5844
▁fondamental	-10.5846
▁disposent	-10.5847
▁transitoire	-10.5848
▁ouverts	-10.5894
▁recourir	-10.5926
▁excessif	-10.5927
▁dimension	-10.5943
▁exercer	-10.5947
▁rural	-10.5968
▁Déplor	-10.598
extrajudiciaires	-10.5991
▁cinquième	-10.5996
extradition	-10.6005
▁associés	-10.601
▁liaison	-10.602
▁jouissance	-10.602
▁banque	-10.6022
▁citoyens	-10.6023
▁déploient	-10.6027
▁lettre	-10.603
▁Gol	-10.6034
▁notification	-10.6035
▁constructif	-10.6036
▁universels	-10.6042
▁frontières	-10.6043
▁perspectives	-10.6046
énoncé	-10.6054
quel	-10.606
▁Mis	-10.6062
R	-10.6073
accomplisse	-10.608
▁seul	-10.6108
▁reconnaît	-10.6113
▁rappelle	-10.6115
▁marine	-10.6128
▁appliquant	-10.613
▁j	-10.6135
▁préjudiciables	-10.6136
▁demeurent	-10.6137
▁construction	-10.6137
▁cohérente	-10.6138
▁rationnelle	-10.6151
▁définies	-10.6154
▁puni	-10.6163
▁engagé	-10.6168
▁emplois	-10.6171
▁constitution	-10.6189
▁concernent	-10.6207
▁spatiaux	-10.6209
▁formulation	-10.621
▁constitutionnel	-10.6219
▁phénomène	-10.6228
ée	-10.6247
▁assurant	-10.626
▁offre	-10.6278
▁présentera	-10.6283
éviter	-10.6287
▁institutionnel	-10.6302
assainissement	-10.6303
▁modifier	-10.6306
▁principales	-10.6306
▁études	-10.6317
▁militaire	-10.6323
▁catégorie	-10.6326
▁complémentaires	-10.6328
▁déclar	-10.6332
▁intégrante	-10.6333
études	-10.6386
▁commiss	-10.6395
SP	-10.6398
▁fourni	-10.6401
▁rectificatifs	-10.6409
▁gérer	-10.641
▁indépendants	-10.641
approbation	-10.6414
▁bénéficiaires	-10.6417
▁vivant	-10.6418
▁publications	-10.6424
▁strict	-10.643
▁apportées	-10.6446
▁cycle	-10.6455
dits	-10.6455
▁urgent	-10.6466
▁associations	-10.648
▁bilatérales	-10.648
▁v	-10.6493
▁énergiquement	-10.6502
▁Par	-10.6504
▁habitants	-10.6508
▁déployer	-10.6509
▁donnant	-10.6513
▁collectivités	-10.6514
▁obligation	-10.6518
▁religieuse	-10.6522
▁révision	-10.6528
▁fournies	-10.6529
▁cadres	-10.6531
▁Principes	-10.6538
▁disparitions	-10.6553
▁organiser	-10.6593
▁préparer	-10.6602
▁compléter	-10.6605
▁chercher	-10.6609
▁explosifs	-10.6612
accroissement	-10.6612
▁flux	-10.6615
▁exhorte	-10.6627
▁générales	-10.6634
▁utiles	-10.666
▁intéressant	-10.6673
▁afghans	-10.6681
▁catégories	-10.6684
exécuter	-10.6694
▁fournissent	-10.67
▁prostitution	-10.6702
▁physiques	-10.6704
▁professionnelle	-10.6713
age	-10.6715
▁conclu	-10.6725
▁définition	-10.6726
autonomie	-10.6728
▁contrat	-10.6735
▁exposés	-10.6738
▁terre	-10.6753
▁renforcée	-10.6753
▁exprimées	-10.6755
▁futur	-10.6766
▁unique	-10.6777
▁déploie	-10.6785
la	-10.6788
▁soldats	-10.68
▁surmonter	-10.6801
▁sensiblement	-10.6804
▁Pr	-10.6808
▁foi	-10.6823
▁criminelles	-10.6823
▁contrainte	-10.6828
▁constate	-10.6861
▁budgétaire	-10.6899
▁proportion	-10.69
▁Réseau	-10.6902
▁prévoyant	-10.6903
▁enseignements	-10.691
▁mutuelle	-10.6917
usage	-10.6925
▁prévisible	-10.693
CD	-10.6933
▁axé	-10.6957
▁approfondie	-10.6958
▁matériels	-10.696
▁finals	-10.699
▁accusée	-10.7002
▁recueillir	-10.7006
▁Souscrit	-10.7006
▁approuvées	-10.7007
▁reconnaître	-10.7007
▁remplacer	-10.7011
▁conformer	-10.7041
▁achats	-10.7046
▁entrée	-10.7063
▁commission	-10.7065
▁référence	-10.7085
entraide	-10.71
▁colonialisme	-10.711
▁restitution	-10.711
▁libéralisation	-10.711
▁recouvrement	-10.711
▁accompagnés	-10.7118
▁candidats	-10.712
▁novatrices	-10.7121
▁méthode	-10.7138
▁linguistiques	-10.7141
▁réparation	-10.7153
▁suivantes	-10.7175
▁généreuse	-10.7182
▁comités	-10.7185
▁publication	-10.7186
▁proposé	-10.7193
acceptation	-10.7206
COP	-10.7212
▁garçons	-10.7215
▁microcrédit	-10.7215
▁subsistance	-10.7215
▁périodiquement	-10.7217
▁derniers	-10.7227
▁trouvent	-10.7229
obtenir	-10.724
▁VIII	-10.7241
▁incompatible	-10.7271
▁Tout	-10.7289
▁détaillé	-10.7293
▁sujets	-10.7307
▁option	-10.7313
▁posent	-10.7315
exploration	-10.7319
▁Réitère	-10.7321
▁démobilisation	-10.7322
▁retirer	-10.7325
▁éventuellement	-10.7327
▁périodiques	-10.7338
▁treiz	-10.7345
▁fondé	-10.7346
▁décennie	-10.7352
ampleur	-10.7371
▁villes	-10.7374
▁efficacité	-10.7384
▁souligné	-10.7384
▁garder	-10.7385
▁étaient	-10.7404
ssistance	-10.7415
▁réserves	-10.7425
▁harcèlement	-10.7429
▁obtenus	-10.7454
▁antiterroriste	-10.7457
▁étrangères	-10.7464
▁quelque	-10.7464
▁préparatoires	-10.7472
IX	-10.7473
▁représente	-10.7476
▁inclure	-10.7481
▁attaques	-10.7485
▁recommande	-10.7485
▁instaurer	-10.749
▁actuel	-10.7491
▁quel	-10.7492
▁appelle	-10.7498
X	-10.75
▁consacré	-10.7503
infraction	-10.7504
avance	-10.7507
violence	-10.7516
industrie	-10.7527
achèvement	-10.7528
▁adhéré	-10.7537
▁médicaments	-10.7538
▁resserrer	-10.7538
Commissaire	-10.7545
▁traditionnelles	-10.7547
▁précédentes	-10.7549
▁mers	-10.7551
▁concrets	-10.7559
élargir	-10.7572
▁seule	-10.7574
▁séances	-10.758
urant	-10.7598
▁cesser	-10.7603
llant	-10.7608
▁Estim	-10.7644
▁Su	-10.7647
▁Janeiro	-10.7647
▁discussion	-10.7648
▁défendre	-10.7648
▁américaines	-10.7651
▁favorisant	-10.7652
▁jeunesse	-10.7652
▁alinéa	-10.7654
▁thèmes	-10.7666
▁électroniques	-10.767
▁quelle	-10.7674
▁optimales	-10.7675
▁estimati	-10.7684
espèces	-10.7688
▁solliciter	-10.7692
▁évaluations	-10.7706
▁déclara	-10.7743
▁matérielle	-10.7747
▁série	-10.7758
▁requérant	-10.7759
▁Convient	-10.7759
▁examinera	-10.7759
▁modifié	-10.7765
▁manque	-10.7771
▁confiées	-10.7774
▁munitions	-10.7777
Commission	-10.7791
▁viable	-10.7793
▁élus	-10.7814
▁forte	-10.7831
▁pu	-10.7841
»,	-10.7842
▁charges	-10.7843
▁chacune	-10.785
applique	-10.787
▁Kosovo	-10.7871
▁transfrontière	-10.7871
ne	-10.7875
▁hostilités	-10.7876
▁bilatérale	-10.7889
▁résolue	-10.7899
offrir	-10.7901
océan	-10.7902
▁quatorz	-10.7903
▁accordant	-10.7905
▁coordonnateurs	-10.7922
inclure	-10.7925
▁respectés	-10.7931
▁effectifs	-10.7935
▁renforcé	-10.7948
▁www	-10.7957
▁permis	-10.7962
▁Bru	-10.7976
néi	-10.798
▁considère	-10.7984
▁redressement	-10.7985
▁clairement	-10.7986
▁vu	-10.8014
▁sixième	-10.8021
▁équilibrée	-10.8025
Ouest	-10.8027
▁facultatifs	-10.8036
▁dommages	-10.8043
▁rester	-10.8044
▁duquel	-10.8048
▁compatibles	-10.8056
identité	-10.8063
▁juges	-10.8064
▁exige	-10.8066
▁presse	-10.8067
▁croissante	-10.8079
▁consacrer	-10.8097
▁Bonn	-10.8099
▁déminage	-10.8099
▁destination	-10.81
▁concertation	-10.8101
▁phrase	-10.8101
▁mauvais	-10.8101
▁bourses	-10.8103
▁oralement	-10.8104
▁coopératives	-10.8108
▁règlements	-10.8112
▁entreprendre	-10.8114
eux	-10.8121
▁prochain	-10.8122
▁culturelles	-10.8124
▁ch	-10.8125
écart	-10.8133
▁écologique	-10.8138
▁nomination	-10.8139
▁visites	-10.8139
▁juge	-10.8155
▁K	-10.818
tre	-10.8182
▁paiement	-10.8185
▁adéquate	-10.8195
▁atteint	-10.8196
▁étrangers	-10.8197
mment	-10.8198
▁sévices	-10.8216
▁Gra	-10.8219
▁favorablement	-10.8228
▁Bangkok	-10.8237
▁conséquence	-10.8254
▁indicateurs	-10.8256
▁analyse	-10.8277
encourage	-10.8277
▁afghanes	-10.8322
▁lancement	-10.8328
▁violences	-10.8332
▁bureau	-10.8333
▁souscrit	-10.8341
▁criminels	-10.8354
▁libres	-10.8356
▁règle	-10.836
▁voyage	-10.8373
▁révisées	-10.8376
▁peuplement	-10.8393
arrangements	-10.8396
accélérer	-10.8413
▁usage	-10.8421
interdépendance	-10.8432
▁considérables	-10.8442
▁temporaire	-10.8445
▁souci	-10.8449
▁Bruxelles	-10.8452
▁productivité	-10.8452
▁prorogation	-10.8453
▁Noire	-10.8454
▁créant	-10.8455
harmonisation	-10.8463
enfantRésolution	-10.8464
▁marge	-10.8466
▁essentielles	-10.847
▁Membre	-10.8482
▁orientations	-10.8483
association	-10.8484
▁établis	-10.8491
▁pension	-10.8499
▁changement	-10.8499
▁tiennent	-10.8519
▁obtenir	-10.8539
équilibre	-10.854
▁adéquates	-10.854
▁convenu	-10.8554
▁Tlatelolco	-10.8573
▁délibérations	-10.8573
▁créanciers	-10.8574
▁systématiques	-10.8578
▁générations	-10.8581
uaire	-10.8583
▁renouvelables	-10.859
▁progressive	-10.8593
▁rwandais	-10.8599
▁détenus	-10.8604
▁salu	-10.8609
▁main	-10.8616
▁israélienne	-10.8617
organe	-10.8633
▁déclaré	-10.8636
▁économies	-10.8659
informer	-10.8666
▁diplomatiques	-10.8692
▁Gaza	-10.8695
▁Registre	-10.8695
▁majorité	-10.8695
▁psychotropes	-10.8695
▁mur	-10.8698
▁souffrances	-10.87
▁attributions	-10.8701
▁utilisant	-10.8703
▁accueilli	-10.8705
▁observateurs	-10.8721
▁déduit	-10.8723
▁interdépendants	-10.8726
AfriqueA	-10.8728
▁race	-10.8733
▁cessionnaire	-10.8736
▁collective	-10.8737
▁éman	-10.8738
indicateur	-10.8739
▁faible	-10.874
te	-10.8745
▁sort	-10.8746
mettent	-10.8746
accords	-10.8753
▁peu	-10.8761
▁conçu	-10.8771
▁concert	-10.8779
▁vi	-10.8806
▁autorisé	-10.8807
identification	-10.8816
▁permettrai	-10.8817
▁zéro	-10.8818
▁démocratisation	-10.8818
▁rémunération	-10.8818
▁journalistes	-10.882
▁requins	-10.8828
▁représentent	-10.8828
▁protocole	-10.8857
▁abstention	-10.8864
▁accusé	-10.8864
▁psychologique	-10.8865
▁positive	-10.8866
▁négociation	-10.8868
▁vise	-10.8869
▁fondement	-10.8875
▁Tableau	-10.888
▁pourra	-10.8915
▁forcée	-10.892
▁recevoir	-10.8943
▁Bibliothèque	-10.8943
▁élaborant	-10.8943
▁exprimé	-10.8944
▁accueille	-10.8945
▁sérieusement	-10.8945
▁contemporaines	-10.8945
▁port	-10.8949
▁revêtent	-10.8952
▁ligne	-10.8956
▁risquent	-10.8976
▁inscrites	-10.8979
▁précis	-10.8984
▁semaines	-10.8986
GC	-10.9052
▁Guam	-10.9069
▁tribunal	-10.907
▁rétablir	-10.9074
▁hommage	-10.9075
▁officielle	-10.9076
discrimination	-10.9078
▁haine	-10.9078
▁dossiers	-10.9091
▁route	-10.9104
▁reconnues	-10.911
▁côtiers	-10.911
▁critique	-10.9114
▁vocation	-10.913
attacher	-10.9155
▁occidental	-10.9157
▁transports	-10.9167
entreprendre	-10.9185
▁Haye	-10.9197
▁Mécanisme	-10.9198
▁revoir	-10.9199
CP	-10.9199
▁impôts	-10.9204
▁Estimant	-10.921
▁cédant	-10.9211
▁signataires	-10.9212
parcours	-10.9215
▁autorité	-10.9217
battant	-10.9225
▁versées	-10.9232
▁olympique	-10.9249
▁dispositif	-10.926
▁actif	-10.9281
▁continental	-10.9283
▁consulter	-10.9293
▁permet	-10.9297
▁J	-10.9301
▁pér	-10.9301
▁plupart	-10.9328
▁puis	-10.9329
▁souhaitable	-10.9329
▁pensée	-10.9332
▁contractées	-10.9334
▁esprit	-10.9339
▁illégales	-10.9348
occupant	-10.9361
▁immédiate	-10.9364
▁distinction	-10.9368
▁naturelle	-10.9381
ssez	-10.9381
▁visé	-10.9381
▁mort	-10.9437
initiatives	-10.9437
ser	-10.9438
▁sexuelles	-10.9442
enregistrement	-10.9443
▁indépendante	-10.9454
▁contribué	-10.946
▁facilitant	-10.9461
▁conjointement	-10.9465
▁fondamentale	-10.9471
▁disparues	-10.9477
▁ressortissants	-10.9482
ra	-10.9486
▁réunir	-10.9493
▁préventives	-10.9518
▁agricoles	-10.952
▁voulus	-10.9522
▁assorti	-10.9547
▁attachement	-10.9558
and	-10.9559
▁viol	-10.9567
▁pourvoir	-10.9582
▁Vierges	-10.9592
▁rayonnement	-10.9593
▁détérioration	-10.9593
Dec	-10.9597
▁UniesA	-10.9602
région	-10.9605
▁détermination	-10.9641
▁sexospécifique	-10.9649
▁engins	-10.9649
▁transparente	-10.9675
▁approfondi	-10.9681
ir	-10.9725
▁appliqué	-10.9726
▁vœux	-10.9727
▁célébrer	-10.9728
étendre	-10.9728
▁activité	-10.9729
▁Renforcer	-10.9734
▁prix	-10.9739
▁consulaires	-10.9739
achever	-10.975
▁présentée	-10.9751
▁Indien	-10.9777
▁lire	-10.9783
▁plateau	-10.9784
▁consist	-10.9787
▁régulières	-10.9793
▁réaffirm	-10.9815
▁proposer	-10.9857
▁sûr	-10.9864
▁présents	-10.9864
▁amicales	-10.9865
▁dynamique	-10.9865
▁préservation	-10.9865
▁bande	-10.9868
UNI	-10.9878
▁administratifs	-10.9889
▁conserver	-10.9904
▁précises	-10.9917
▁pourront	-10.9921
▁Lance	-10.9923
▁portent	-10.9923
▁consultative	-10.9925
▁logement	-10.9925
▁représentés	-10.9935
▁gouvernementale	-10.9935
▁nommé	-10.9936
▁pose	-10.9954
Traité	-10.9968
▁contraintes	-10.9972
▁Action	-10.9972
▁partis	-10.9976
▁phénomènes	-10.9977
▁visée	-10.9995
▁accru	-11.0003
▁choix	-11.0003
▁virus	-11.0003
▁Taliban	-11.0003
▁sauvetage	-11.0003
▁quelconque	-11.0004
▁tableau	-11.0004
▁substitution	-11.0004
▁mineurs	-11.0004
▁intégrés	-11.0005
▁reçoivent	-11.0007
▁radioactives	-11.0008
▁succession	-11.0009
▁délibérants	-11.0018
agir	-11.0026
▁frapp	-11.003
feu	-11.0033
acquitte	-11.0033
Organe	-11.0034
▁saurai	-11.0037
▁américains	-11.0043
▁Finance	-11.0044
ajustement	-11.0052
approche	-11.0052
XX	-11.0059
▁défini	-11.0066
▁fondant	-11.0076
socioéconomiques	-11.0087
uite	-11.0088
▁passé	-11.0091
▁lancer	-11.0093
expansion	-11.0094
▁réaction	-11.01
▁suffisante	-11.0102
▁ministériel	-11.0135
espoir	-11.0142
▁privée	-11.0144
▁concerné	-11.0144
▁satisfaire	-11.0144
▁volontariat	-11.0144
▁contient	-11.0145
▁programmation	-11.0146
▁réinstallation	-11.0148
▁distribution	-11.0148
▁opération	-11.015
▁reçu	-11.015
▁bilatéral	-11.0151
▁incidence	-11.0154
▁exposées	-11.0173
associer	-11.0174
▁délégations	-11.0176
▁m	-11.018
▁définitive	-11.0192
▁bilan	-11.0202
▁issue	-11.0205
▁modernis	-11.0209
▁créance	-11.021
▁appuie	-11.0216
bris	-11.0216
instrument	-11.0221
▁morts	-11.0226
▁comportement	-11.0237
eurs	-11.0239
▁impact	-11.0252
▁participé	-11.0288
▁états	-11.0291
ncent	-11.0306
▁racistes	-11.0312
▁parents	-11.0319
extrême	-11.0329
utilité	-11.0342
▁réalisations	-11.0342
élections	-11.0366
▁familiale	-11.0373
▁initiative	-11.0377
▁impose	-11.0384
▁mi	-11.0402
incidence	-11.0408
▁radio	-11.0423
Antarctique	-11.043
développement	-11.043
▁précurseurs	-11.0432
▁certification	-11.0432
▁découlent	-11.0433
▁compromettre	-11.0434
▁coopèrent	-11.0434
▁touchent	-11.0437
▁aspirations	-11.0442
▁déploiement	-11.0444
▁administration	-11.0467
▁résolus	-11.0471
▁exportations	-11.0473
▁express	-11.0477
audit	-11.0482
▁afghane	-11.0487
▁Des	-11.0497
▁vaste	-11.0501
▁disparition	-11.0501
▁campagne	-11.0501
▁technologique	-11.0503
▁considér	-11.0511
▁pénales	-11.0538
▁comment	-11.0548
▁détection	-11.055
▁engagée	-11.0563
▁écrit	-11.057
umière	-11.0579
▁millénaire	-11.0579
▁revitalisation	-11.0579
▁transmettre	-11.058
▁conséquent	-11.058
▁disparités	-11.058
▁diversification	-11.0581
▁travaillent	-11.0582
▁délinquants	-11.0583
▁considéré	-11.0584
▁fondations	-11.0585
▁résulta	-11.0601
▁GC	-11.0609
▁récents	-11.0614
▁propices	-11.0616
▁universellement	-11.0623
▁accélérer	-11.0627
▁devoir	-11.0629
intégralité	-11.0632
▁thématiques	-11.0634
▁index	-11.0634
▁survenu	-11.065
▁biologiques	-11.0676
▁accordée	-11.0682
rdre	-11.0688
▁institutionnels	-11.069
œuvre	-11.0709
▁administrateurs	-11.0716
▁reconnu	-11.0725
immigration	-11.0726
▁Dakar	-11.0728
▁globales	-11.0728
▁Loi	-11.0729
▁pornographie	-11.073
effet	-11.0731
▁améliorant	-11.0732
▁devra	-11.0732
▁constructive	-11.0734
▁multiples	-11.0739
ialogue	-11.074
G	-11.0747
▁élu	-11.0755
▁arriérés	-11.0771
▁Développement	-11.0776
▁intellectuelle	-11.08
▁déplacement	-11.0802
sation	-11.0811
▁stable	-11.0813
▁assumer	-11.0835
▁initial	-11.0844
instruction	-11.085
équ	-11.0851
▁occasion	-11.0851
▁créée	-11.0854
▁dommage	-11.0859
▁raisons	-11.0865
acquisition	-11.0878
▁prospérité	-11.088
▁mariage	-11.088
▁revenus	-11.088
efforcent	-11.0883
isation	-11.09
▁actuelles	-11.091
▁modes	-11.0924
▁contacts	-11.0926
▁résidents	-11.0939
▁opérationnel	-11.0939
exclusion	-11.0944
Almaty	-11.0951
impartialité	-11.0951
▁ad	-11.0951
▁retrait	-11.0955
▁travers	-11.0962
▁X	-11.0977
▁capitale	-11.0979
▁électorale	-11.0979
▁enlèvements	-11.098
▁éventuelle	-11.0982
emplois	-11.1004
▁serv	-11.1006
▁Arabes	-11.1007
▁colonie	-11.103
▁mé	-11.1032
▁moratoire	-11.1034
▁produire	-11.1039
▁http	-11.1039
extrabudgétaires	-11.1042
▁progressivement	-11.1043
▁ménager	-11.105
▁traduits	-11.106
▁examine	-11.1062
▁sélection	-11.1068
▁affectés	-11.1077
▁extérieurs	-11.1085
▁appliquent	-11.1087
▁organisés	-11.1089
▁solide	-11.109
ompte	-11.1092
▁XI	-11.1114
▁engager	-11.1116
▁rencontre	-11.1125
▁donne	-11.1129
apou	-11.1132
▁armées	-11.1147
▁soudanais	-11.1148
▁civil	-11.1161
▁sc	-11.1162
aire	-11.1172
▁tienne	-11.1186
▁ressort	-11.1189
▁blessés	-11.119
▁complémentarité	-11.119
▁consentement	-11.119
▁déroulement	-11.1193
rome	-11.1193
▁coercitives	-11.1193
▁halieutiques	-11.1193
avoirs	-11.1201
▁suivie	-11.1202
universalité	-11.1204
Convention	-11.1204
importante	-11.1211
▁assure	-11.1212
▁complexes	-11.1234
▁soutenus	-11.1236
▁accessibles	-11.1239
▁cesse	-11.1246
implication	-11.1246
arrêt	-11.1248
▁emploi	-11.1252
▁entreprise	-11.1252
://	-11.1253
▁maladie	-11.127
▁facteur	-11.127
▁débiteur	-11.1271
▁demand	-11.1282
▁approuvée	-11.1285
▁trouve	-11.1294
élargissement	-11.13
▁atteints	-11.1301
▁Assemblée	-11.1306
▁liée	-11.1307
▁jours	-11.1323
icéité	-11.1326
▁met	-11.1327
▁amélioration	-11.1328
▁offrent	-11.1333
PR	-11.1346
honneur	-11.1347
arbitrage	-11.1347
DEC	-11.1347
▁voisinage	-11.1349
▁montagneuses	-11.1349
▁mobilité	-11.1349
▁faudrait	-11.1349
▁gravité	-11.1349
▁intersessions	-11.1349
▁cinquantième	-11.135
amendement	-11.1351
Publication	-11.1352
▁envisagent	-11.1357
▁destructions	-11.1366
▁synd	-11.1369
▁remplir	-11.1375
▁dangereuses	-11.1377
▁identifier	-11.1377
▁bibliothèques	-11.1382
▁convenues	-11.1389
▁origin	-11.1418
▁solides	-11.142
▁effectués	-11.1424
▁détaillées	-11.1425
ène	-11.1427
individuellement	-11.1445
▁chargées	-11.147
Acte	-11.1485
▁attend	-11.15
▁forcés	-11.1501
uatuor	-11.1508
épertoire	-11.1509
▁ionisants	-11.151
▁accessoires	-11.151
▁supprimer	-11.1512
▁publier	-11.1513
▁macroéconomique	-11.1514
▁dispenser	-11.1519
▁ES	-11.1525
▁étatiques	-11.1525
organismes	-11.1526
▁effectives	-11.153
▁acquis	-11.1533
▁destiné	-11.1535
▁africain	-11.1546
entreprise	-11.1557
▁remise	-11.1562
▁iv	-11.1571
ire	-11.1572
▁concrète	-11.1585
▁traduction	-11.1594
ure	-11.1596
▁prévisibles	-11.1634
macroéconomiques	-11.1668
▁prisonniers	-11.1674
▁francophonie	-11.1674
▁négocier	-11.1675
▁produis	-11.1677
▁afférentes	-11.1677
▁produisent	-11.1678
▁confiscation	-11.168
▁lever	-11.1687
tes	-11.1693
▁Apprécie	-11.1693
▁personnalités	-11.1697
▁annexés	-11.1703
▁Rend	-11.1709
▁précédent	-11.171
▁fiables	-11.1717
▁équipes	-11.1718
▁légitimes	-11.1724
▁ouverte	-11.1737
▁régulière	-11.1753
adhérer	-11.1754
▁détournement	-11.1755
autoriser	-11.1758
▁primaire	-11.1762
▁prestation	-11.1762
▁différend	-11.1763
renant	-11.1769
romotion	-11.177
▁cour	-11.1787
idée	-11.1787
▁flagrante	-11.1789
▁saisie	-11.1798
opération	-11.1802
ue	-11.1812
▁désigne	-11.1819
Vi	-11.183
▁rationnelles	-11.183
▁tir	-11.184
▁cœur	-11.184
▁Séminaire	-11.184
▁appartient	-11.184
▁désormais	-11.1847
▁relèvent	-11.1847
▁réagir	-11.1854
▁exigences	-11.1856
▁ONU	-11.1887
▁Appuie	-11.1907
▁aidant	-11.1916
insuffisance	-11.1918
hara	-11.192
▁retraite	-11.1926
▁montagne	-11.1927
▁solde	-11.193
▁dépositaire	-11.1931
▁agricole	-11.1932
▁restes	-11.1939
augmenter	-11.1947
▁armée	-11.1956
▁plénières	-11.1962
▁ville	-11.197
▁opportun	-11.1977
▁prier	-11.1986
▁accordé	-11.2002
inquième	-11.2005
voir	-11.2006
alphabétisation	-11.2008
▁position	-11.2009
▁solaire	-11.201
traumatiques	-11.201
▁colonne	-11.201
internet	-11.2011
▁réuni	-11.2019
▁démocraties	-11.202
▁Ni	-11.2023
▁condamne	-11.2025
▁reprendre	-11.2028
▁respectives	-11.203
immatriculation	-11.2032
▁trent	-11.2039
▁près	-11.2043
▁effectué	-11.2044
▁suffisant	-11.205
▁équilibre	-11.2061
eraient	-11.2068
▁Aide	-11.2071
▁intérieures	-11.2075
microfinancement	-11.2085
▁incidents	-11.2089
▁contraignant	-11.2091
▁écrite	-11.2097
ve	-11.2099
cation	-11.2103
▁autonome	-11.2104
œuvrer	-11.2119
▁formulée	-11.2124
▁engagées	-11.213
▁atteintes	-11.2131
▁bases	-11.2135
orientation	-11.2136
appliquent	-11.2137
▁recherches	-11.2142
Conférence	-11.2161
▁rétablies	-11.2164
▁ateliers	-11.217
▁israél	-11.2182
▁obligatoire	-11.2182
SG	-11.2183
▁transformation	-11.2183
▁continué	-11.2186
▁avoirs	-11.2186
▁réglementaires	-11.2188
▁Exige	-11.2194
▁officieuses	-11.2196
▁pèse	-11.2197
▁négatives	-11.2202
▁urbain	-11.2219
▁informé	-11.222
▁constitué	-11.2224
▁affectées	-11.2231
▁contribuera	-11.2241
Japon	-11.2249
▁avantage	-11.226
▁préventive	-11.228
line	-11.2281
▁augmentation	-11.2285
▁k	-11.2289
▁considérations	-11.2289
▁égale	-11.2291
dites	-11.2297
effectuer	-11.2313
▁rapides	-11.2313
insécurité	-11.2322
endettement	-11.2331
analyser	-11.2331
▁annuels	-11.2334
▁Autoris	-11.2348
▁bons	-11.2352
▁libellé	-11.2357
▁message	-11.2357
▁malnutrition	-11.2358
▁concurrence	-11.2358
▁précieuse	-11.2358
▁biodiversité	-11.2358
▁concourir	-11.2358
▁multiplication	-11.2358
▁promptement	-11.2361
▁statutaires	-11.2365
▁entré	-11.2373
▁fermement	-11.2374
U	-11.2379
▁Lorsque	-11.2398
▁soumise	-11.24
▁partagée	-11.2402
▁r	-11.2405
achant	-11.241
▁avancer	-11.2419
▁communiqués	-11.2424
▁adéquats	-11.2435
▁potentiel	-11.2449
approuver	-11.2457
▁joui	-11.2463
▁jugement	-11.2466
▁versé	-11.2523
▁sensibilise	-11.2532
▁titulaire	-11.2536
▁logistique	-11.2536
▁sportives	-11.2536
Alliance	-11.2537
▁continent	-11.2542
▁heurtent	-11.2542
parlementaire	-11.2546
occuper	-11.2546
▁outils	-11.2549
caractéristiques	-11.2552
▁commerciale	-11.2555
▁télévision	-11.2558
infection	-11.2564
▁organisme	-11.2566
▁collectivement	-11.2576
▁télé	-11.2581
▁économie	-11.2585
▁morales	-11.2593
infractions	-11.2595
▁coordonnés	-11.26
▁Ann	-11.26
▁escomptées	-11.2611
▁participe	-11.2617
▁exprime	-11.2618
élection	-11.2621
▁tr	-11.2624
▁continuera	-11.2628
ez	-11.2634
osta	-11.2638
▁productif	-11.2639
▁combi	-11.2656
▁utilisée	-11.2678
identifier	-11.2682
▁convictions	-11.2692
enlèvement	-11.2697
▁corp	-11.2707
▁continu	-11.2707
▁demandeur	-11.271
▁cruciale	-11.2714
XXIX	-11.2716
ashington	-11.2716
▁estime	-11.2721
▁correspondants	-11.2725
▁nommer	-11.2727
dification	-11.2727
▁fo	-11.273
agents	-11.2732
▁poursuivent	-11.2732
▁négatifs	-11.2745
▁encouragent	-11.2756
▁entité	-11.2759
▁sept	-11.2773
▁conjoint	-11.2776
hors	-11.2785
▁prestations	-11.2804
▁montagnes	-11.2809
▁appartena	-11.2812
▁arbitraire	-11.2817
▁difficile	-11.2825
▁dirigé	-11.2833
▁contrats	-11.2849
▁exprimée	-11.2884
▁pléni	-11.2895
▁Nouméa	-11.2903
▁tribunaux	-11.2903
▁Promouvoir	-11.2903
▁restructuration	-11.2903
▁rationaliser	-11.2903
▁proclamation	-11.2904
▁indiquant	-11.2906
▁transaction	-11.2908
▁contribuant	-11.2909
▁stabilisation	-11.2909
multilatéralisme	-11.291
▁inégalités	-11.2915
▁adjoint	-11.2918
▁additionnelles	-11.2921
▁recommander	-11.2921
▁capable	-11.2921
▁désigner	-11.2924
▁communiquées	-11.2927
▁consiste	-11.2934
▁motifs	-11.294
▁rejet	-11.2947
▁présentes	-11.2953
docs	-11.296
▁rapporteurs	-11.296
▁sensibilis	-11.2962
▁effectuer	-11.2968
Protocole	-11.2989
▁appuy	-11.2991
▁offertes	-11.2993
▁volume	-11.2997
▁créances	-11.3005
▁restriction	-11.3013
▁escomptée	-11.3014
▁technologiques	-11.3017
▁objective	-11.3018
▁Déclar	-11.3018
▁aus	-11.3022
observateurs	-11.3042
▁offerte	-11.3046
invitation	-11.305
esclavage	-11.3091
▁taudis	-11.3092
▁congrès	-11.3092
▁coralliens	-11.3092
▁milliers	-11.3093
▁apparentées	-11.3097
hommeA	-11.3099
▁choses	-11.3102
▁tributaires	-11.3106
▁affirme	-11.3109
▁approuvés	-11.3118
▁conseil	-11.3118
des	-11.313
▁égal	-11.313
▁dég	-11.313
▁sommets	-11.3145
▁repos	-11.315
apportant	-11.3157
invite	-11.3158
▁arrêtés	-11.3159
heure	-11.3187
▁exceptionnel	-11.3193
▁opérationnels	-11.3198
▁logements	-11.3199
Les	-11.3208
▁constante	-11.3221
▁libér	-11.3239
▁effectuée	-11.3251
honorer	-11.3256
acquérir	-11.3272
▁envisage	-11.3275
▁stimuler	-11.328
▁officiel	-11.3281
Atlantique	-11.3282
▁récifs	-11.3284
▁fossé	-11.3284
atténue	-11.3284
▁infectieuses	-11.3284
▁redevables	-11.3287
▁offices	-11.329
▁facilitent	-11.3291
▁avenir	-11.3291
▁choisir	-11.3293
▁enfant	-11.3296
▁constater	-11.3301
▁adaptés	-11.3304
▁intégration	-11.3305
venant	-11.3327
▁fournitures	-11.3328
▁considérer	-11.3331
▁extrême	-11.3335
▁utilisé	-11.3343
▁sensible	-11.3347
▁Exam	-11.3349
▁offerts	-11.3351
▁viv	-11.3368
▁souhait	-11.337
acheminement	-11.3374
auté	-11.3397
▁préliminaire	-11.34
▁refus	-11.3426
auteur	-11.3428
▁scolaire	-11.3429
▁résidence	-11.3434
▁constaté	-11.3449
agit	-11.345
▁dimensions	-11.3451
inscription	-11.3478
▁Cisjordanie	-11.348
▁planète	-11.348
▁susciter	-11.3482
▁calcul	-11.3484
▁dégager	-11.3484
venir	-11.3485
▁permette	-11.349
▁décider	-11.3493
▁procède	-11.3496
admission	-11.3503
Agenda	-11.3504
▁distribuer	-11.3507
eur	-11.3509
▁analogues	-11.3509
▁hôtes	-11.351
▁abordables	-11.352
▁palestiniennes	-11.352
▁saisi	-11.3531
▁dotée	-11.3537
▁déclarer	-11.355
▁augmenter	-11.3555
▁permanents	-11.3571
▁montre	-11.36
▁circonstance	-11.3603
▁sienne	-11.3607
achat	-11.3608
▁transmis	-11.3618
FC	-11.3624
▁durablement	-11.3624
effort	-11.3629
▁contrôler	-11.3632
▁déterminée	-11.3641
harmonie	-11.3645
▁exercent	-11.3648
▁œuvrer	-11.3654
roissant	-11.3658
▁approuve	-11.3664
▁invités	-11.3669
▁Kyoto	-11.368
▁jamais	-11.368
▁Hammar	-11.3681
▁Rapporteuse	-11.3681
▁reculer	-11.3681
▁Volontaires	-11.3683
▁garantissant	-11.3683
▁alors	-11.369
▁offrant	-11.3697
▁voies	-11.3704
▁camps	-11.3706
▁adéquat	-11.3713
▁compétent	-11.3715
É	-11.3727
▁pertinent	-11.3728
▁stades	-11.373
palestinien	-11.3731
▁finances	-11.3749
▁redoubl	-11.3753
régionale	-11.3754
▁transparents	-11.3756
▁eau	-11.3768
abri	-11.3773
CE	-11.3785
▁mutuel	-11.3788
▁opérationnelle	-11.3809
▁compatible	-11.3809
▁autorisés	-11.3811
Corr	-11.3815
▁formule	-11.382
▁Toute	-11.3823
expert	-11.3826
▁capital	-11.3827
▁intention	-11.3828
aucun	-11.3831
▁intégrant	-11.3837
jour	-11.3839
VIH	-11.3854
▁commencer	-11.3856
▁idées	-11.386
présentant	-11.388
kj	-11.3883
MSP	-11.3883
▁dépôt	-11.3884
▁raffermi	-11.3884
▁médicaux	-11.3884
▁Situation	-11.3884
▁diminution	-11.3889
▁véritablement	-11.3891
▁traditionnels	-11.3892
▁intégral	-11.3893
▁souhaitent	-11.3895
incorporer	-11.3912
▁intermédiaire	-11.3919
wt	-11.3923
▁modifiée	-11.3927
▁israélien	-11.393
bilité	-11.3934
vront	-11.3941
▁péril	-11.3948
▁requise	-11.3948
ES	-11.3958
XXX	-11.3986
▁définiss	-11.401
ires	-11.4012
▁pandémie	-11.4014
Italie	-11.403
▁change	-11.4038
▁association	-11.4043
▁envisagée	-11.4043
▁diversifi	-11.4046
▁bruts	-11.4046
saires	-11.405
emploient	-11.4052
▁Lorsqu	-11.4053
▁agir	-11.4057
▁demandent	-11.4073
▁appliquée	-11.4075
▁relève	-11.4083
▁pressant	-11.4086
objectivité	-11.4091
▁Octroi	-11.4092
▁fissiles	-11.4092
▁Méditerranée	-11.4092
▁Semipalatinsk	-11.4092
▁Fondation	-11.4093
▁codification	-11.4095
▁outil	-11.4097
CB	-11.4097
▁vacants	-11.4098
ld	-11.4099
▁Création	-11.4109
▁substantielle	-11.411
▁classe	-11.4113
▁fournit	-11.4113
▁sud	-11.4139
▁exposé	-11.4201
importation	-11.4202
respect	-11.4208
▁dirigée	-11.4213
▁historique	-11.4226
▁thématique	-11.4227
▁coordonnateur	-11.4227
▁honorer	-11.423
▁fera	-11.4241
▁communique	-11.4244
▁français	-11.4247
▁prim	-11.4248
▁regret	-11.4252
▁demandée	-11.4253
▁présidents	-11.4256
aragraphe	-11.4261
▁premières	-11.4264
discriminatoires	-11.427
▁intérimaires	-11.4279
▁version	-11.4281
▁prévoi	-11.4283
▁fondés	-11.4294
▁faudra	-11.4304
▁impératif	-11.4305
▁Respect	-11.4306
▁ponctuellement	-11.4307
▁adolescents	-11.4307
▁maintenant	-11.4308
▁poser	-11.4309
allocation	-11.431
▁proclamer	-11.431
▁établissant	-11.431
▁missiles	-11.4315
▁déposé	-11.4319
▁surveiller	-11.432
▁localement	-11.4322
▁réexaminer	-11.4325
▁Gard	-11.4332
▁sols	-11.4336
▁consommation	-11.4341
▁subventions	-11.4355
▁mené	-11.4363
▁situés	-11.4368
▁satellite	-11.4372
▁transparent	-11.4383
▁classes	-11.4387
▁communiqué	-11.4387
al	-11.4388
▁exprim	-11.4399
▁locale	-11.4402
▁lié	-11.4406
▁exercé	-11.4407
▁légalité	-11.4414
▁mentale	-11.4414
▁suffisa	-11.442
▁véritable	-11.4433
▁victime	-11.4441
▁modèle	-11.4442
▁pe	-11.4442
▁finale	-11.4449
▁accumulé	-11.4454
▁affect	-11.4456
▁désigné	-11.4473
is	-11.4475
▁subi	-11.4479
▁conjointe	-11.4481
▁abus	-11.4482
▁résident	-11.4483
▁demandées	-11.4486
▁Aucun	-11.449
▁compétente	-11.4491
incitation	-11.4492
▁constat	-11.4503
▁exploiter	-11.4512
amitié	-11.4521
▁décisif	-11.4521
▁douce	-11.4522
▁diligence	-11.4522
▁suggestions	-11.4522
▁pêcheries	-11.4522
▁Istanbul	-11.4523
Feuille	-11.4523
▁fabriquer	-11.4523
▁validité	-11.4523
▁privation	-11.4523
▁Ajouter	-11.4523
▁commettent	-11.4524
▁facilement	-11.4525
▁candidates	-11.4527
▁novateurs	-11.4527
▁orphelins	-11.4531
ppelle	-11.4531
▁comparables	-11.4534
▁longue	-11.4535
▁traditions	-11.4536
▁cartes	-11.4538
▁sien	-11.4547
timents	-11.4552
▁parlementaires	-11.4566
▁sanitaires	-11.4571
▁assuré	-11.4574
▁indissociables	-11.4577
▁ailleurs	-11.4578
▁placements	-11.4581
offrent	-11.4584
▁porteur	-11.4601
▁invit	-11.4612
▁accrues	-11.4621
▁accrus	-11.4652
▁Internet	-11.4658
▁phases	-11.4661
▁analytique	-11.4666
inspir	-11.4666
▁garantie	-11.4683
▁responsabilis	-11.4688
hui	-11.4702
▁portées	-11.4709
▁tsunami	-11.4711
▁all	-11.4731
▁sièges	-11.4741
Instance	-11.4743
▁misère	-11.4745
▁réorientation	-11.4746
▁rencontrés	-11.4746
▁remboursement	-11.4747
▁ventilées	-11.4748
▁crucial	-11.4758
▁courant	-11.4762
▁organisant	-11.4767
▁Prévention	-11.4772
▁composantes	-11.4774
▁exclusives	-11.4777
engage	-11.479
▁universitaires	-11.4795
allouer	-11.4804
▁mont	-11.4812
pris	-11.4813
▁loin	-11.4818
▁directs	-11.4822
▁petit	-11.4824
opérations	-11.4825
▁provisoires	-11.4829
▁reconnaiss	-11.4832
▁formules	-11.4835
▁arrêté	-11.4843
▁permettra	-11.4854
▁Elle	-11.4862
▁revue	-11.4864
▁préférence	-11.4892
▁champ	-11.4893
eï	-11.4895
▁résumé	-11.4895
▁semaine	-11.4897
▁résultat	-11.4901
▁dérogation	-11.4902
▁Rapporteure	-11.4913
▁institué	-11.4919
▁primordiale	-11.4923
appuy	-11.4925
orité	-11.4936
▁repose	-11.495
▁mortalité	-11.4971
▁souplesse	-11.4971
▁numérique	-11.4971
▁quarantième	-11.4971
▁concrétisation	-11.4973
▁feront	-11.4973
▁arsenaux	-11.498
▁car	-11.4981
▁gérées	-11.4989
▁Facilit	-11.4991
▁actualisée	-11.4991
▁insérer	-11.4992
▁couvrir	-11.4992
▁suspens	-11.5003
▁formelle	-11.5016
instituer	-11.5019
▁déterminant	-11.5022
▁pluriannuel	-11.5032
ag	-11.5034
▁raisonnables	-11.5042
ront	-11.5048
▁analytiques	-11.5051
▁agressions	-11.5055
▁océanographique	-11.5056
▁porté	-11.5065
▁accepté	-11.5066
▁conduit	-11.5079
▁décrit	-11.508
▁anciens	-11.5087
▁associées	-11.5093
▁vastes	-11.5093
▁opinions	-11.5095
▁handicap	-11.5097
▁pes	-11.5099
▁environnemental	-11.5107
▁examinées	-11.5108
épidémie	-11.5108
▁adhésion	-11.5108
▁concerté	-11.5122
irectives	-11.5125
▁tendance	-11.5126
▁trouv	-11.5133
résolution	-11.5137
▁budgets	-11.5141
▁arrangement	-11.5149
▁respectent	-11.515
▁actuels	-11.5155
PL	-11.5159
▁équipements	-11.5166
▁relance	-11.5177
Allemagne	-11.5183
pprovisionnement	-11.519
donnent	-11.5195
acte	-11.5196
▁supéri	-11.5202
ette	-11.5203
Hélène	-11.5203
▁Havane	-11.5203
▁Pelindaba	-11.5203
▁préambule	-11.5203
▁routière	-11.5203
▁vacance	-11.5203
▁précieux	-11.5203
▁lacunes	-11.5203
opposition	-11.5203
▁décennal	-11.5203
▁vigoureusement	-11.5204
▁australe	-11.5204
▁concevoir	-11.5204
▁hoc	-11.5205
▁conduire	-11.5205
▁commentaires	-11.5207
▁regard	-11.5208
▁règne	-11.5209
▁résultent	-11.5211
▁témoins	-11.5214
▁concrètement	-11.5214
▁future	-11.5216
▁protégées	-11.5217
▁involontaires	-11.5223
▁réelle	-11.5229
stocks	-11.523
▁réjoui	-11.5241
▁absolue	-11.5246
pplément	-11.5257
▁adaptées	-11.5257
quatre	-11.5265
▁juridictionnel	-11.5287
▁sexuel	-11.5292
▁offert	-11.5301
▁versement	-11.5306
▁législations	-11.531
stabilité	-11.531
▁digne	-11.5311
▁défi	-11.5332
▁appliqués	-11.5346
ecture	-11.5349
▁ordinaires	-11.5352
▁on	-11.536
▁référendum	-11.5361
▁passer	-11.5367
▁primordial	-11.5383
▁spatial	-11.5386
▁concertée	-11.5391
▁sauvegarde	-11.5412
▁comporte	-11.5424
agent	-11.543
impose	-11.5434
vingt	-11.5435
▁Tunis	-11.544
▁triennal	-11.5441
▁pluralisme	-11.5441
▁soulignons	-11.5442
sexospécificités	-11.5443
▁Huit	-11.5443
▁clos	-11.5444
ables	-11.5444
organes	-11.545
▁détaillée	-11.5451
entamer	-11.5452
▁sexiste	-11.5452
▁acquérir	-11.5454
▁totalité	-11.5455
▁optique	-11.5462
▁degré	-11.5469
affecter	-11.5472
▁féminines	-11.5474
▁côtières	-11.5478
▁remercie	-11.548
▁garde	-11.5489
▁persistants	-11.55
▁naturels	-11.551
▁prescrits	-11.5511
▁UniesRésolution	-11.5516
accomplir	-11.552
▁positifs	-11.5523
perfectionnement	-11.5524
informatique	-11.5533
inquiète	-11.5537
▁coordonné	-11.5541
institutionnelle	-11.5558
▁impartial	-11.5569
▁sida	-11.5574
▁comprend	-11.5574
▁souhaite	-11.5599
▁étrangère	-11.5606
▁côtier	-11.5607
▁géographiques	-11.5644
iment	-11.5653
▁approfondies	-11.5655
▁angolais	-11.5664
articles	-11.5684
▁Palestiniens	-11.5685
▁prévaloir	-11.5685
▁dangereux	-11.5686
▁particularité	-11.5686
▁teneur	-11.5686
▁renoncer	-11.5686
▁contingents	-11.5687
INF	-11.5687
▁nord	-11.5689
▁là	-11.5694
partir	-11.5701
tir	-11.5706
▁coordonnées	-11.5707
▁foyers	-11.5712
▁énuméré	-11.5714
▁interaméricaine	-11.5715
▁résolument	-11.5722
▁touche	-11.5735
mpte	-11.5768
accepter	-11.5772
Internet	-11.5779
ensibiliser	-11.5811
▁développ	-11.5811
ats	-11.5814
▁conjoints	-11.5827
▁heurt	-11.5835
O	-11.5838
▁renforce	-11.5845
▁transparentes	-11.5847
▁écologiques	-11.5852
▁accessible	-11.5857
▁raisonnable	-11.5858
▁contact	-11.5859
▁migration	-11.5859
▁représenter	-11.5861
▁vivre	-11.5863
▁réglementé	-11.5864
▁détail	-11.5866
▁perte	-11.5871
apport	-11.5871
▁accepter	-11.5873
▁actifs	-11.5874
ient	-11.5879
▁exprimés	-11.5879
▁amendements	-11.5911
▁destinée	-11.592
XXVI	-11.5934
sélectivité	-11.5935
▁illégaux	-11.5935
▁veut	-11.5935
▁Jeux	-11.5936
▁fournisseurs	-11.5937
▁procès	-11.5937
▁justifier	-11.5937
▁empêche	-11.594
▁insistant	-11.594
▁scrupuleuse	-11.5943
▁qualifications	-11.5944
▁vols	-11.5947
▁contractantes	-11.595
adapter	-11.5951
▁procédé	-11.5955
du	-11.596
▁amendement	-11.596
abilité	-11.5961
b	-11.5968
▁poursuive	-11.597
LC	-11.5972
▁concili	-11.5974
▁code	-11.5976
autorisation	-11.5979
ffaires	-11.5981
▁susmentionnés	-11.5986
Armé	-11.5986
TD	-11.5998
▁informatique	-11.6008
▁fort	-11.6016
▁impliqu	-11.6022
us	-11.6022
▁fixer	-11.6023
cinq	-11.6026
interaction	-11.6038
annulation	-11.6039
▁confié	-11.6051
▁suffis	-11.6064
▁Envoyé	-11.607
▁auxquel	-11.6101
c	-11.6101
▁légitime	-11.6106
▁Promo	-11.6107
ayant	-11.6108
▁administrative	-11.6108
▁multi	-11.6108
dire	-11.6114
RC	-11.6115
ris	-11.6132
▁affecter	-11.6133
▁Droits	-11.6139
▁spatiale	-11.6153
▁constituée	-11.6162
▁mesurer	-11.6165
m	-11.6166
tient	-11.617
▁harmoniser	-11.6191
▁Regrett	-11.6191
essai	-11.6192
▁producteurs	-11.6193
▁recruter	-11.6193
▁possèdent	-11.6194
▁spécifiquement	-11.6194
▁Réalisation	-11.6198
▁président	-11.62
▁interdir	-11.62
mentionnés	-11.6201
▁lourde	-11.6203
▁considéra	-11.6203
▁Caire	-11.6208
▁eaux	-11.6221
▁analyses	-11.6223
▁personnels	-11.6229
▁complètent	-11.6235
ivement	-11.6235
▁mentionnées	-11.6236
▁morale	-11.6236
Sect	-11.624
iotechnologiques	-11.6243
▁communautaires	-11.625
▁rondes	-11.6264
▁avocats	-11.6264
indemnité	-11.6268
▁informer	-11.6272
▁prêts	-11.6273
▁interdisa	-11.6275
▁adoption	-11.6277
uf	-11.6286
équipe	-11.629
▁élevés	-11.6311
Envoyé	-11.6314
▁majeur	-11.6315
z	-11.6318
aborder	-11.6323
optique	-11.6331
pour	-11.6336
▁finales	-11.6344
▁sûrs	-11.6349
▁IX	-11.6353
▁positives	-11.6354
sphère	-11.6364
Instruments	-11.6365
▁dollar	-11.6367
▁manifestation	-11.6376
▁prendra	-11.6376
▁mentionné	-11.6397
▁statuts	-11.6414
▁réglementations	-11.6424
▁compren	-11.6434
asques	-11.6438
▁information	-11.6444
élécommunication	-11.6444
▁imposer	-11.6445
bactériologiques	-11.6455
insolvabilité	-11.6455
▁Lusaka	-11.6455
▁Moscou	-11.6455
▁fardeau	-11.6455
▁offensifs	-11.6455
▁précaution	-11.6455
▁calibre	-11.6455
▁catalyseur	-11.6455
▁radioactifs	-11.6455
▁démantèle	-11.6455
▁reçoit	-11.6455
▁couleur	-11.6455
▁rationalisation	-11.6455
▁rencontrées	-11.6455
▁transférer	-11.6457
nsistant	-11.646
▁support	-11.6462
▁réintégration	-11.6463
▁roulement	-11.6463
▁Zone	-11.6465
rofond	-11.6466
▁répondu	-11.6468
▁file	-11.6469
▁différence	-11.6473
trê	-11.6476
▁manifeste	-11.6478
▁proroge	-11.6482
▁exécution	-11.6487
▁tragiques	-11.6496
▁colloques	-11.65
▁San	-11.6503
armée	-11.6504
▁suppose	-11.6505
▁échanger	-11.6505
▁reçues	-11.6509
alimenter	-11.6509
▁médicales	-11.651
▁universelles	-11.6514
▁partant	-11.6535
▁Accord	-11.6539
▁résult	-11.6551
▁désignés	-11.6555
▁explosion	-11.656
▁difficiles	-11.6568
▁unités	-11.6577
▁al	-11.6579
ler	-11.658
▁débiteurs	-11.6587
▁garantisse	-11.6589
▁structuré	-11.659
▁survie	-11.6594
▁attache	-11.6596
▁expérience	-11.66
▁comportements	-11.66
éléments	-11.6603
▁électorales	-11.6607
▁successeur	-11.6646
▁décent	-11.6658
▁alimentaires	-11.6659
▁initiale	-11.6662
▁financée	-11.6662
▁électoral	-11.6666
▁journée	-11.6668
efforce	-11.6669
▁urgents	-11.6671
▁jouiss	-11.6672
▁accomplir	-11.6674
potenti	-11.6675
▁considérés	-11.6679
▁conscient	-11.6687
étendue	-11.6694
▁additif	-11.6715
uatrième	-11.6725
▁Tokyo	-11.6725
▁compétitivité	-11.6725
▁synthèse	-11.6725
▁pourcentage	-11.6725
▁pavot	-11.6725
▁désignation	-11.6725
▁augmenté	-11.6726
▁aérienne	-11.6726
▁initiaux	-11.6726
▁inscription	-11.6726
▁décès	-11.6727
▁permettront	-11.6727
▁prorogé	-11.6732
▁saisir	-11.6735
▁Terre	-11.6736
▁aboutir	-11.6748
▁exécutés	-11.675
▁consacre	-11.6753
▁notable	-11.6756
▁apparentés	-11.6756
▁susmentionnées	-11.6757
ller	-11.6763
▁éviden	-11.6763
ettre	-11.6766
▁extérieur	-11.6766
▁utilisateurs	-11.6771
▁spécialisés	-11.6772
▁indication	-11.6783
▁enregistrés	-11.679
▁accidentelle	-11.6796
effectue	-11.6805
▁marquer	-11.6819
▁lance	-11.6827
▁lancées	-11.6835
autodétermin	-11.6841
▁extrêmes	-11.6846
▁informés	-11.6849
▁Désarmement	-11.6854
▁administré	-11.6855
▁intervenir	-11.6857
▁U	-11.686
▁orientale	-11.6867
représentés	-11.6871
envoi	-11.6872
arrêter	-11.6873
▁régi	-11.6881
▁résolu	-11.6888
▁ouvrir	-11.6888
▁remettr	-11.6893
▁contractant	-11.6907
uestion	-11.6922
▁écosystémique	-11.6922
▁complexe	-11.6925
▁ronde	-11.6925
immunité	-11.693
présentées	-11.6936
▁assurée	-11.694
▁indépendantes	-11.6951
▁prêt	-11.6954
▁situé	-11.696
▁analyser	-11.6961
quipe	-11.6973
▁fonctionner	-11.6993
▁fléau	-11.7002
apprentissage	-11.7003
▁endémique	-11.7003
▁inférieur	-11.7003
▁rythme	-11.7003
▁Carthagène	-11.7003
▁moustiquaires	-11.7003
▁détruire	-11.7003
▁supervision	-11.7003
▁Ministre	-11.7003
enrôlement	-11.7004
▁continuité	-11.7013
▁massifs	-11.7013
▁coupables	-11.7013
▁similaires	-11.7017
échanges	-11.7019
▁acceptation	-11.7027
▁réviser	-11.7028
▁continuant	-11.7031
me	-11.7034
▁énergiques	-11.7046
▁apports	-11.7055
▁blancs	-11.7067
▁apprécie	-11.7072
▁arrestations	-11.7073
Indonésie	-11.7075
ification	-11.708
▁pré	-11.7082
▁demandés	-11.7087
▁causées	-11.7097
▁entrera	-11.7104
Angola	-11.7107
inspira	-11.7115
▁respectées	-11.712
▁atténu	-11.7139
▁déb	-11.7142
▁seiz	-11.7148
▁élaboré	-11.7151
six	-11.7158
neuf	-11.7187
▁Amériques	-11.7189
Anguilla	-11.719
▁fonctionnaire	-11.7207
faire	-11.7215
▁étroites	-11.7223
▁positif	-11.7223
▁Re	-11.723
▁familial	-11.7232
▁convoquée	-11.7244
▁élimination	-11.7254
▁ouvertes	-11.7255
▁côte	-11.7255
quels	-11.7268
▁professionnel	-11.7268
▁respectée	-11.7272
▁nuise	-11.7273
▁prenne	-11.7285
XXV	-11.7287
▁Montserrat	-11.7288
▁toxines	-11.7288
▁Juge	-11.7289
▁adjacentes	-11.7289
▁médiation	-11.7289
▁indirectement	-11.729
▁livrent	-11.7292
▁rigoureusement	-11.7292
▁britanniques	-11.7292
▁publicité	-11.7297
▁doctrines	-11.7304
▁xénophobes	-11.7304
otages	-11.7307
▁Afghans	-11.7309
▁préciser	-11.7311
élan	-11.7316
envers	-11.7319
▁combl	-11.7335
▁modernes	-11.7337
▁constitutifs	-11.7338
▁échange	-11.7341
avait	-11.7344
ur	-11.7349
ture	-11.7362
▁souffr	-11.7384
▁commise	-11.7385
▁acceptés	-11.7389
▁étroit	-11.7402
▁nuir	-11.7403
▁dénommé	-11.7418
entente	-11.7428
▁nets	-11.7443
▁affecté	-11.7447
placés	-11.7452
▁stables	-11.7453
▁fon	-11.7469
▁arrêter	-11.7477
J	-11.7489
▁Acte	-11.7494
▁souten	-11.7496
g	-11.75
▁publiée	-11.7501
▁hauturière	-11.7501
▁Souhait	-11.7501
▁alentour	-11.7503
▁indicateur	-11.7503
▁notion	-11.7505
▁navire	-11.7513
▁desquels	-11.7513
▁accorde	-11.7523
▁associer	-11.7523
▁nette	-11.7527
▁refuse	-11.7545
▁propose	-11.755
▁renforcées	-11.7556
▁codes	-11.7566
xtraterritoriaux	-11.7577
▁Paulo	-11.7582
hygiène	-11.7582
insecticide	-11.7582
▁balistiques	-11.7582
▁chômage	-11.7582
▁disponibilité	-11.7582
▁inondations	-11.7582
▁chamorro	-11.7583
▁détecter	-11.7583
▁influence	-11.7584
▁recenser	-11.7584
▁exploitent	-11.7584
▁secondaire	-11.7585
▁procédant	-11.7586
▁départ	-11.7586
▁complément	-11.7587
▁commettre	-11.7587
▁néo	-11.7587
disciplinaires	-11.7587
▁revient	-11.7588
▁normalisés	-11.7591
▁spécialistes	-11.7592
▁conviendrait	-11.7594
▁Réduction	-11.7595
▁renouvelé	-11.7595
▁ultérieurement	-11.76
▁allégations	-11.7601
▁dotation	-11.7603
résidence	-11.7604
▁exactes	-11.7608
▁Insist	-11.7608
▁empêch	-11.7613
▁former	-11.7617
▁poursuivi	-11.7618
▁structurelles	-11.7621
▁desdit	-11.7633
▁for	-11.7636
▁adopte	-11.764
▁définie	-11.7652
▁limitées	-11.7657
▁souffre	-11.7675
environnementaux	-11.7691
tenir	-11.7703
▁sang	-11.7706
▁israéliens	-11.7706
nzième	-11.7706
▁réalisé	-11.7726
▁deviennent	-11.7727
▁effectuées	-11.7734
▁soutenu	-11.774
huit	-11.7759
agression	-11.7759
intensifi	-11.7766
indemnisation	-11.7776
▁table	-11.7786
▁département	-11.779
▁cédée	-11.7794
▁Continue	-11.7796
▁gratuit	-11.7798
biologiques	-11.7798
▁déni	-11.7799
▁vérifiable	-11.7805
part	-11.7807
▁volet	-11.781
▁capture	-11.781
udit	-11.781
▁élargi	-11.7816
▁entend	-11.7817
▁climatique	-11.7817
▁rendr	-11.7818
▁urgente	-11.7829
mandant	-11.7838
▁poursuit	-11.784
ntroduction	-11.7852
▁marqué	-11.7859
▁examens	-11.7864
tt	-11.7864
abandon	-11.7868
▁pierre	-11.7886
▁riposte	-11.7886
▁maltraitance	-11.7886
▁russe	-11.7886
Sub	-11.7886
▁globaux	-11.7886
▁mémorandum	-11.7886
▁Bermudes	-11.7886
▁décourager	-11.7886
▁Bali	-11.7886
▁Règles	-11.7887
▁rassembler	-11.789
▁compromett	-11.7892
▁respectueuse	-11.7893
▁coutumes	-11.7896
inégalité	-11.7898
▁-	-11.7902
▁condamnation	-11.7908
▁électeurs	-11.791
▁fix	-11.7913
▁marginalisation	-11.7918
▁déposer	-11.7918
▁bancaires	-11.7931
▁devenus	-11.7933
▁page	-11.794
▁réalisées	-11.7945
▁réunira	-11.7948
▁angulaire	-11.7957
▁persistantes	-11.7958
américain	-11.7966
écosystème	-11.7966
urs	-11.7972
▁élaborés	-11.7972
paraître	-11.798
▁viser	-11.7981
▁historiques	-11.7999
▁pri	-11.8001
Sénégal	-11.801
▁objectives	-11.8011
▁appelé	-11.8018
▁intervenue	-11.8021
▁trop	-11.8037
▁touché	-11.8041
▁détenu	-11.8058
w	-11.8068
▁vis	-11.8073
▁an	-11.8081
exigent	-11.8087
▁exerce	-11.8096
▁froide	-11.8103
sept	-11.8106
▁triangulaire	-11.8109
accéder	-11.8111
carr	-11.8114
F	-11.8116
▁diamant	-11.8119
▁indissociable	-11.8119
▁optimale	-11.8121
▁écoulée	-11.8126
▁audit	-11.8136
▁Abuja	-11.8145
▁instance	-11.8149
▁naissance	-11.8162
▁pertinente	-11.8174
institution	-11.8185
▁Francophonie	-11.8198
▁GATT	-11.8198
▁Désireuse	-11.8198
▁récupération	-11.8198
▁pourparlers	-11.8198
▁taille	-11.8198
REP	-11.8198
▁exécutive	-11.8198
▁remarquable	-11.8198
▁appréciable	-11.8198
PV	-11.82
▁exclusivement	-11.8202
▁procurer	-11.8202
▁commencé	-11.8204
épargner	-11.8205
▁moyennant	-11.8209
▁publié	-11.821
▁latin	-11.8217
▁pression	-11.8217
M	-11.8219
vis	-11.8223
▁parlements	-11.8224
▁moyennes	-11.8231
▁acquittées	-11.8231
▁attitudes	-11.8233
▁Gouverneur	-11.8242
option	-11.8246
▁Appel	-11.8249
▁observer	-11.8251
cher	-11.8253
▁recrutés	-11.8253
▁présumés	-11.8263
▁éducatifs	-11.8272
▁va	-11.8288
▁justes	-11.8296
▁pointe	-11.8298
▁génétiques	-11.8298
▁occidentale	-11.8301
amment	-11.8309
▁Ré	-11.831
▁indiquer	-11.8314
▁placé	-11.8317
▁indiquées	-11.8325
mer	-11.8329
▁propag	-11.833
▁uniforme	-11.8337
▁extrait	-11.8338
▁anti	-11.8339
▁rencontres	-11.8341
▁étudiants	-11.8344
▁correspondantes	-11.8359
▁achevé	-11.836
able	-11.8362
▁réussi	-11.8364
▁annoncé	-11.8373
▁entraîné	-11.8377
▁compromet	-11.8383
▁autrement	-11.8385
▁not	-11.8386
▁équivalent	-11.8401
aménagement	-11.8409
XXII	-11.8411
Ann	-11.8419
▁souveraine	-11.8425
▁ratifications	-11.8435
ssant	-11.8435
existe	-11.8436
▁progressif	-11.844
▁précoce	-11.8441
▁bénévole	-11.8442
▁externe	-11.8442
▁commence	-11.8447
CL	-11.8448
▁stade	-11.8449
émancip	-11.8453
▁achever	-11.8463
▁définit	-11.8463
▁respecté	-11.8463
▁excessive	-11.8463
▁précise	-11.8483
▁touchée	-11.8491
▁condamné	-11.8493
▁cible	-11.8499
important	-11.85
▁second	-11.8512
▁délimitation	-11.8521
▁prescription	-11.8521
▁pencher	-11.8521
▁longtemps	-11.8521
▁détresse	-11.8522
tendent	-11.8522
▁extrémistes	-11.8522
isant	-11.8525
▁secret	-11.8532
▁apatrides	-11.8533
▁coloni	-11.8535
▁composé	-11.8535
▁enceintes	-11.8536
▁bénéfice	-11.8537
▁bloc	-11.8541
▁provenance	-11.8544
▁minimales	-11.8545
▁autorisée	-11.8547
▁pièces	-11.8553
▁envisageant	-11.8554
▁souverains	-11.8558
tables	-11.8559
▁officie	-11.8563
▁Bri	-11.8563
▁arrêtées	-11.8564
▁financés	-11.8565
▁Appréci	-11.8569
▁indemnités	-11.8587
▁registres	-11.8596
▁listes	-11.8601
hé	-11.8604
▁poursuivis	-11.8604
▁captures	-11.8607
révisions	-11.8607
▁impartiales	-11.861
vaient	-11.862
▁entrer	-11.8633
▁complets	-11.8639
▁autorisées	-11.8643
▁pratiquer	-11.8644
▁proposées	-11.8647
ow	-11.8652
▁prescrit	-11.866
▁équitables	-11.8662
lan	-11.867
▁jouisse	-11.8671
▁comport	-11.868
▁devait	-11.869
avant	-11.869
enrichisse	-11.8691
ascendan	-11.8692
Kazakhstan	-11.8704
▁persistant	-11.8716
Barbade	-11.8727
▁intégralité	-11.8729
arrangement	-11.8737
▁linguistique	-11.8753
▁prédécesseur	-11.8758
▁authentique	-11.8772
engagent	-11.8774
▁préjudiciable	-11.8775
▁éducatif	-11.8775
vers	-11.8778
▁attirer	-11.8782
▁registre	-11.8784
▁feu	-11.8789
▁africaines	-11.881
▁désir	-11.8811
AH	-11.8818
appauvri	-11.8829
tôt	-11.8841
▁identité	-11.8853
▁Rarotonga	-11.8854
▁bénévolat	-11.8854
▁vaccins	-11.8854
▁éthiopien	-11.8854
▁Campagne	-11.8854
▁piraterie	-11.8854
École	-11.8854
▁revitaliser	-11.8854
▁mémo	-11.8854
▁conviennent	-11.8854
▁franchise	-11.8855
autrui	-11.8855
▁imputable	-11.8855
▁Parlement	-11.8855
▁subsistent	-11.8857
nourriture	-11.8858
▁valable	-11.8859
▁motivés	-11.8859
▁collaborent	-11.886
▁veillent	-11.886
▁cessé	-11.8862
▁Alarmée	-11.8862
▁andine	-11.8865
▁plénier	-11.8867
▁Amélioration	-11.8868
▁reposer	-11.887
▁radiodiffus	-11.8875
▁marginalisés	-11.8876
▁coopérant	-11.888
▁enseignants	-11.8881
▁regroup	-11.8881
▁supérieurs	-11.8887
▁située	-11.8888
▁tensions	-11.8892
Résolutions	-11.8898
▁choisis	-11.8902
mir	-11.8915
▁répartis	-11.8916
incidences	-11.8918
▁perpétrés	-11.8921
▁annoncées	-11.8932
▁appuyé	-11.8937
▁subvention	-11.8938
▁réduit	-11.8955
rotection	-11.8956
▁intim	-11.896
ap	-11.8962
agisse	-11.8979
▁siens	-11.899
▁opium	-11.8995
▁conjointes	-11.9012
▁dép	-11.9022
chant	-11.9031
pe	-11.9045
▁recour	-11.9051
▁inspirée	-11.9051
▁fixe	-11.9054
▁occupant	-11.9061
▁assister	-11.9062
▁devoirs	-11.9069
élément	-11.9078
▁module	-11.9108
instance	-11.9111
▁signée	-11.9115
▁somalien	-11.9116
▁complémentaire	-11.912
▁communautaire	-11.912
ère	-11.9123
▁fiable	-11.9123
▁seconde	-11.9125
▁doté	-11.9129
▁privilégi	-11.9136
▁recommandées	-11.9138
▁naturel	-11.9139
▁Vi	-11.9142
observer	-11.9143
▁mode	-11.9161
histoire	-11.9165
ancien	-11.9168
▁déséquilibre	-11.9169
▁proven	-11.9184
▁interdépendant	-11.9186
▁concrétise	-11.9186
▁guide	-11.9196
▁Marrakech	-11.9199
▁pièges	-11.9199
▁transmissibles	-11.9199
▁Réitérant	-11.9199
▁célestes	-11.9199
▁genre	-11.9199
▁Directrice	-11.9199
▁potable	-11.9199
▁budgétisation	-11.9199
Organisme	-11.9199
▁décret	-11.92
▁tortues	-11.9201
accessibilité	-11.9201
▁quinquennal	-11.9204
▁célébré	-11.9205
▁vérifiés	-11.9206
▁déplore	-11.9207
▁afférents	-11.9208
▁Responsabilité	-11.9212
▁moteur	-11.9215
▁adoptent	-11.9215
éances	-11.9215
dget	-11.922
adaptation	-11.922
▁of	-11.9229
▁propriétaires	-11.9231
▁mutilations	-11.9231
▁consignée	-11.9232
▁volontairement	-11.9232
▁attentats	-11.9232
▁individu	-11.9244
▁abouti	-11.925
ombre	-11.9252
▁ciblées	-11.9253
cherchent	-11.9258
▁innovations	-11.9259
▁conçues	-11.9271
ères	-11.9282
▁profiter	-11.9285
▁réunie	-11.9289
▁publiés	-11.9294
échanger	-11.9299
enquêtes	-11.93
▁éducation	-11.9313
▁sexistes	-11.9314
▁bout	-11.9323
▁Encourageant	-11.9324
▁devaient	-11.9325
▁Ces	-11.9326
ton	-11.9336
▁direct	-11.9348
▁organisationnel	-11.9356
▁avai	-11.9369
assent	-11.937
▁suffisants	-11.938
fin	-11.9384
▁obtenue	-11.9393
▁actualisé	-11.9411
▁sus	-11.9413
▁autoriser	-11.9417
▁quelques	-11.9455
▁Encourag	-11.9459
ng	-11.9467
ces	-11.9474
▁inspiré	-11.9474
▁délégation	-11.9477
▁collectif	-11.9477
▁conseiller	-11.9479
▁pilote	-11.9482
▁poussée	-11.9486
▁consacr	-11.9487
▁généralisée	-11.9488
auf	-11.9491
Administrateur	-11.9492
atifs	-11.9492
▁approbation	-11.9504
▁Droit	-11.951
indiquer	-11.9514
▁ratifiée	-11.9515
▁institu	-11.9517
XIII	-11.9518
ail	-11.9526
verser	-11.9527
efficience	-11.9529
▁interrégional	-11.9531
art	-11.9533
OS	-11.9536
▁Du	-11.9537
▁institut	-11.9545
▁réciproque	-11.9548
▁reçoive	-11.9548
inflation	-11.9556
▁Caïmanes	-11.9556
▁indonésien	-11.9556
▁procréative	-11.9556
▁traça	-11.9556
▁Club	-11.9556
▁Maputo	-11.9556
▁multilinguisme	-11.9556
▁électoraux	-11.9556
▁traduisant	-11.9556
▁défaut	-11.9556
▁forum	-11.9556
valoir	-11.9557
▁transmission	-11.9558
▁remplacement	-11.9559
▁solennellement	-11.9561
téléinformatique	-11.9562
placées	-11.9569
▁émissions	-11.9569
▁promulguer	-11.957
▁prêtant	-11.9571
▁vecteurs	-11.9572
▁postérieures	-11.9575
▁constatations	-11.9584
épargne	-11.9584
▁retenus	-11.9584
▁croyances	-11.9587
importants	-11.9597
▁résilien	-11.9601
▁facilités	-11.9605
▁subir	-11.9623
▁employés	-11.9626
▁impartiale	-11.9634
▁collectifs	-11.9635
▁externes	-11.9644
▁généralisées	-11.9652
▁volets	-11.9652
▁avancées	-11.9654
▁disponible	-11.967
▁contenue	-11.9689
▁pandémies	-11.9693
▁scolaires	-11.9702
▁anglais	-11.9703
▁nulle	-11.9707
communications	-11.9707
▁retenir	-11.9743
▁Almaty	-11.9747
mettre	-11.9749
deux	-11.9754
▁consultatives	-11.9762
▁moral	-11.9766
Canada	-11.9766
Égypte	-11.9772
Ukraine	-11.9784
infrastructures	-11.9801
▁manifesté	-11.9827
▁entraîne	-11.9832
▁fixée	-11.9841
traitées	-11.9843
▁turkmène	-11.9843
▁persécution	-11.9846
▁bibliothèque	-11.9847
▁synergie	-11.9847
▁criminelle	-11.985
Iraq	-11.985
▁respecte	-11.9854
▁décisive	-11.9855
▁matérielles	-11.9859
▁proposés	-11.9859
▁adaptée	-11.9867
▁examinée	-11.9869
arrestation	-11.9875
▁inte	-11.9883
▁dates	-11.9884
dix	-11.9887
▁connaiss	-11.9888
▁satisfaite	-11.9889
▁Conformément	-11.989
▁proche	-11.9894
▁larges	-11.9899
▁réglement	-11.9901
accident	-11.9905
abolition	-11.9918
▁informée	-11.9919
effectifs	-11.9924
aoundé	-11.9926
▁combustible	-11.9926
▁scrutin	-11.9926
▁reconstruire	-11.9926
▁Kyi	-11.9926
▁bouclage	-11.9926
▁tentative	-11.9926
▁esclaves	-11.9927
▁Suivi	-11.9927
▁permanence	-11.9927
▁véhicules	-11.9927
▁décidons	-11.9927
▁résistance	-11.9927
▁territoriales	-11.9927
▁progressé	-11.9927
▁prélèvement	-11.9928
▁Projet	-11.9929
▁Assurer	-11.993
▁dévastateurs	-11.9931
▁réellement	-11.9937
▁survivants	-11.9937
▁posséder	-11.9941
▁the	-11.9942
▁assurances	-11.9943
▁élémentaires	-11.9949
▁éducatives	-11.9949
▁pharmaceutiques	-11.9949
▁reconnue	-11.995
abolir	-11.9955
▁séquestrations	-11.9955
▁employée	-11.9959
▁diffus	-11.9959
▁instructions	-11.9961
▁culte	-11.9967
▁illégalement	-11.9967
▁antérieurs	-11.9974
▁complètement	-11.9982
▁bénéfiques	-11.9985
▁douz	-11.9985
▁associ	-11.9994
▁proposée	-11.9994
▁plu	-11.9995
▁ajustements	-11.9999
▁habilités	-12
▁notables	-12.0001
▁interdis	-12.0005
▁croissants	-12.0007
▁passible	-12.0012
▁synergies	-12.0012
▁accéder	-12.003
p	-12.0044
avanc	-12.0046
▁professionnels	-12.0048
▁tiendront	-12.0051
▁équitablement	-12.0051
timent	-12.0053
▁agent	-12.0055
▁champs	-12.0055
▁financées	-12.0059
▁entraînent	-12.0065
▁expérimental	-12.0075
milles	-12.0086
▁périodes	-12.0088
▁extérieures	-12.0091
▁dépend	-12.0108
placer	-12.0115
▁ampleur	-12.012
▁impartialité	-12.0125
▁entraîn	-12.0131
▁exercée	-12.0138
h	-12.0143
▁familiales	-12.0155
▁étranger	-12.0156
▁récent	-12.016
▁Prendre	-12.0161
▁psychologiques	-12.0165
limination	-12.0182
▁posséda	-12.0191
▁autonomie	-12.0197
▁stricte	-12.0204
▁violent	-12.0205
sant	-12.0205
▁déclarés	-12.0214
'«	-12.0221
▁traitent	-12.0222
▁envoyer	-12.0225
▁viols	-12.0226
▁félicité	-12.0229
▁abordable	-12.0232
▁concret	-12.0233
▁motif	-12.0233
▁spécialisée	-12.0235
▁facilite	-12.0241
▁affirmant	-12.0242
▁confirmé	-12.0253
▁Direct	-12.0255
▁allouée	-12.0263
▁admis	-12.0275
▁intéressé	-12.0288
ctivités	-12.0292
marins	-12.0294
▁consulté	-12.0296
ycle	-12.0303
horizon	-12.0311
▁Cartagena	-12.0311
▁Lumpur	-12.0311
▁Stockholm	-12.0311
▁fréquemment	-12.0311
▁pédagogiques	-12.0311
▁équivoque	-12.0311
▁milliard	-12.0311
▁abandonnés	-12.0311
▁marchandises	-12.0311
▁reconstitution	-12.0311
▁dérivant	-12.0311
▁facilitation	-12.0312
▁bénéficié	-12.0312
▁parallèlement	-12.0312
▁directrices	-12.0313
▁XIV	-12.0313
▁stéréotypes	-12.0313
▁adresse	-12.0313
▁séparément	-12.0313
▁contiennent	-12.0314
▁Résolue	-12.0316
▁révolution	-12.032
▁consultants	-12.0321
▁confronté	-12.0324
K	-12.0327
implantation	-12.0328
▁court	-12.0342
▁intéressent	-12.0343
▁génitales	-12.0344
▁consacrera	-12.0345
▁regroupe	-12.035
▁Soutien	-12.0355
▁examinent	-12.0367
se	-12.0369
▁cl	-12.0378
▁adultes	-12.0378
▁incitation	-12.0379
▁limités	-12.0386
▁Guide	-12.0389
▁saines	-12.0393
▁prisons	-12.0399
▁subiss	-12.0401
▁exode	-12.0401
▁proches	-12.0404
▁cibles	-12.0408
▁éventuelles	-12.0418
▁envisagés	-12.0419
▁Information	-12.0422
▁globalement	-12.0427
▁instaurée	-12.0434
isme	-12.0445
▁sou	-12.0455
▁pratiquent	-12.0463
euxième	-12.0466
evant	-12.0473
▁mutuels	-12.0476
▁énoncée	-12.0479
▁comprena	-12.0479
▁Instruments	-12.049
▁posés	-12.0493
▁transnationales	-12.0496
ter	-12.0498
exprime	-12.0501
indicateurs	-12.0519
▁origine	-12.0523
▁résulter	-12.0528
HR	-12.053
▁réel	-12.0548
▁olympiques	-12.055
▁témoigne	-12.0554
otant	-12.0557
ignes	-12.0566
▁médical	-12.0567
▁susmentionné	-12.0569
▁affecta	-12.0575
▁absolu	-12.058
▁Statuts	-12.0582
trois	-12.0589
Brésil	-12.0593
entend	-12.0603
accompliss	-12.0616
▁seules	-12.0619
▁évent	-12.062
▁habituelle	-12.062
▁performance	-12.0624
▁certificat	-12.0626
▁législative	-12.0631
innovation	-12.0632
▁frontière	-12.0632
▁intervenant	-12.0638
▁ultérieure	-12.0639
▁FA	-12.0647
▁distincte	-12.0656
▁incomb	-12.0659
▁répartit	-12.066
▁estim	-12.0666
▁restant	-12.0674
VII	-12.0677
par	-12.0684
▁chambre	-12.0696
appareil	-12.0707
▁informe	-12.0708
Istanbul	-12.0708
▁Caïques	-12.0711
▁espagnol	-12.0711
▁exportateurs	-12.0711
infanticide	-12.0711
▁Rôle	-12.0711
▁baisse	-12.0711
▁su	-12.0712
▁honnêtes	-12.0713
harmoniser	-12.0715
▁dénonciation	-12.0719
ingérence	-12.072
▁Turqu	-12.0721
▁égaux	-12.0722
aligner	-12.0722
▁calculée	-12.0722
▁nuit	-12.0722
▁CNUCED	-12.0725
▁examinés	-12.0725
▁méditerranéens	-12.0727
▁établissent	-12.0731
▁économiquement	-12.0733
▁infligés	-12.0736
gaz	-12.0741
▁concernée	-12.0744
▁assassinats	-12.0746
esquisse	-12.0751
assurance	-12.0757
▁distincts	-12.076
▁guider	-12.0762
▁sévères	-12.0767
▁élaborées	-12.0768
▁clefs	-12.0771
▁invoqu	-12.0773
ugmentation	-12.0776
▁qualifiés	-12.0776
▁conseillers	-12.08
▁Conclusion	-12.0803
rayer	-12.0809
▁couvr	-12.0815
▁archives	-12.083
▁réduis	-12.083
ffirmant	-12.0841
unir	-12.085
▁dettes	-12.0867
▁étape	-12.087
▁stage	-12.0876
▁dehors	-12.0887
▁productifs	-12.0888
▁App	-12.0915
▁inhumain	-12.0918
▁air	-12.0919
▁Bu	-12.0934
CI	-12.0939
▁savoirs	-12.0942
▁intentionnelle	-12.0949
▁rel	-12.095
▁No	-12.0968
▁vite	-12.097
outre	-12.0975
acquitt	-12.0992
▁noté	-12.1006
▁vérifi	-12.1006
▁européen	-12.1035
Uruguay	-12.104
▁terrestre	-12.1041
▁requête	-12.1047
▁pénitentiaire	-12.1047
▁papier	-12.1047
▁félicit	-12.1067
▁prorog	-12.1072
ombien	-12.1081
▁acquitté	-12.1086
▁constituant	-12.1098
vient	-12.1099
▁estimé	-12.1099
▁persistante	-12.1101
▁encouragé	-12.1101
éthique	-12.1102
▁jugé	-12.1102
▁révisés	-12.1105
▁archi	-12.1108
▁passe	-12.1109
▁minima	-12.1111
intersectorielle	-12.1114
▁prête	-12.1116
▁bélarussien	-12.1116
▁prononcer	-12.1118
▁préconise	-12.1123
▁Tampere	-12.1128
▁tarifaires	-12.1128
▁hausse	-12.1128
▁précédemment	-12.1128
actualité	-12.1128
▁tolère	-12.1128
▁itinéraires	-12.1128
▁indépenda	-12.1128
parole	-12.1128
▁environ	-12.1128
ICC	-12.1128
▁explosés	-12.1128
▁intensive	-12.1129
▁décideurs	-12.1129
▁simplifier	-12.1129
▁devienne	-12.1129
▁diffam	-12.113
▁délibérément	-12.113
habitants	-12.1131
▁planifier	-12.1132
▁nutrition	-12.1133
▁préconis	-12.1134
▁stimulant	-12.1136
▁Port	-12.1136
▁enrichi	-12.1138
XIV	-12.1142
remière	-12.1142
▁fiabilité	-12.1144
▁clauses	-12.1147
exploiter	-12.1147
▁couvre	-12.1147
entraver	-12.1149
emploie	-12.1154
▁signatures	-12.1157
▁entièrement	-12.1164
▁présumé	-12.1166
▁connus	-12.1166
▁passation	-12.1168
▁créées	-12.1169
▁che	-12.1182
▁Ma	-12.1187
▁améliorées	-12.1192
▁disciplines	-12.1197
lère	-12.1201
▁prévoie	-12.121
▁Encourager	-12.1211
▁participantes	-12.1222
HA	-12.1229
▁interdit	-12.1233
▁Souhaite	-12.1245
▁sectorielles	-12.1247
▁aménagement	-12.1252
▁institution	-12.1254
▁neuvième	-12.1255
inancement	-12.1256
▁prompte	-12.1262
▁informatiques	-12.1268
▁Sr	-12.1281
▁XII	-12.1281
▁signe	-12.1286
▁communiqu	-12.1294
▁compil	-12.13
▁extraterritoria	-12.1307
lement	-12.1312
▁urgentes	-12.1314
▁constitués	-12.1329
accélér	-12.1346
▁réglée	-12.1348
▁centr	-12.1348
ments	-12.1349
tour	-12.1372
▁inviter	-12.1387
▁complètes	-12.1389
▁accordées	-12.1401
▁retards	-12.1403
onstatant	-12.1404
▁occupation	-12.1405
▁el	-12.1421
▁habilité	-12.1424
ements	-12.1428
▁constant	-12.143
▁connaît	-12.1432
ers	-12.1444
▁détaillés	-12.1453
▁exploitation	-12.1467
▁préventif	-12.147
▁applique	-12.147
accréditation	-12.147
▁convenable	-12.1473
Équi	-12.1473
▁conciliateur	-12.1483
▁facile	-12.1488
▁instituer	-12.1489
▁mutuelles	-12.1489
▁norme	-12.1496
▁législatifs	-12.1499
▁illégal	-12.1501
▁dangereuse	-12.1501
attribution	-12.1514
▁cessions	-12.1518
exception	-12.1531
▁annoncée	-12.1538
NEP	-12.1552
▁imposé	-12.1562
apatridie	-12.1562
▁Pitcairn	-12.1562
▁cybersécurité	-12.1562
▁générosité	-12.1562
▁lendemain	-12.1562
▁complexité	-12.1562
▁fillettes	-12.1562
▁ralenti	-12.1562
▁reflète	-12.1562
▁fréquence	-12.1562
▁neutralité	-12.1563
▁chronique	-12.1564
▁incluant	-12.1565
▁sérieux	-12.1565
▁construire	-12.1566
▁terreur	-12.1566
▁gens	-12.157
▁traumatismes	-12.1572
▁constituerait	-12.1572
▁expos	-12.1574
▁créent	-12.1575
▁TIC	-12.1577
▁Préconis	-12.1577
▁parfaite	-12.1578
▁pertinence	-12.1578
▁normalement	-12.158
▁arbitrairement	-12.158
▁Direction	-12.1582
▁meurtres	-12.1593
▁ajoutée	-12.1595
▁contentieu	-12.1596
▁spécifié	-12.1596
▁évolution	-12.1606
indis	-12.1608
individus	-12.1612
aptitude	-12.1618
▁sauvegarder	-12.1622
▁résulte	-12.1625
organisme	-12.1635
▁formulés	-12.1637
▁sortant	-12.1638
▁acceptables	-12.1639
▁réaffirmer	-12.1642
▁prononcée	-12.1664
▁gel	-12.168
AP	-12.1686
);	-12.1689
mener	-12.169
▁participeront	-12.1692
arème	-12.1701
▁légales	-12.1707
▁lancée	-12.1726
▁infecté	-12.1727
▁entraîner	-12.1729
▁correcte	-12.1729
▁Da	-12.1738
amme	-12.1744
▁personnelle	-12.1751
également	-12.1761
iser	-12.1769
▁asiatique	-12.1807
▁accident	-12.1809
▁fa	-12.183
▁utilité	-12.1836
▁orientales	-12.1838
cités	-12.1846
▁orientée	-12.1854
▁harmonie	-12.1859
▁cohérent	-12.1864
▁Organisation	-12.1868
▁traduit	-12.1869
▁colon	-12.187
▁guerres	-12.1874
▁annexé	-12.1875
▁lecture	-12.1884
nant	-12.1884
hama	-12.1888
▁antérieure	-12.1895
PC	-12.1899
duisant	-12.1902
▁recruté	-12.1916
▁civilisation	-12.1924
▁jeune	-12.1934
▁province	-12.1936
▁filière	-12.1936
▁dossier	-12.1938
▁acceptable	-12.1938
▁constitutif	-12.1938
▁colloque	-12.1939
▁plainte	-12.1939
▁remerci	-12.1942
▁précision	-12.1945
im	-12.1945
▁autorisation	-12.1946
▁industrielle	-12.1946
Colombie	-12.195
Éthiopie	-12.1958
femmes	-12.1963
▁raciste	-12.1971
▁Adopte	-12.1984
écurité	-12.1992
▁suivies	-12.1995
▁vital	-12.1997
▁adressées	-12.1997
fr	-12.1998
▁alimentation	-12.1999
occupe	-12.2005
▁promulg	-12.2009
▁recommandés	-12.201
incombe	-12.2016
analphabétisme	-12.2017
▁coalition	-12.2017
▁dévouement	-12.2017
▁guamien	-12.2017
▁toxicomanie	-12.2017
▁ultime	-12.2017
htm	-12.2017
éradication	-12.2017
externalisation	-12.2017
▁subsaharienne	-12.2017
▁requiert	-12.2017
▁Fournir	-12.2017
▁guatémaltèque	-12.2017
OMC	-12.2017
▁contrebande	-12.2017
▁moindre	-12.2017
microentreprises	-12.2018
imposition	-12.2018
▁précaire	-12.2018
▁fruit	-12.2018
▁simplification	-12.2018
▁recensement	-12.2019
▁rassemblement	-12.2021
▁commençant	-12.2021
▁postérieurs	-12.2021
▁motivation	-12.2022
▁déterminé	-12.2024
XVIII	-12.2024
▁Utilisation	-12.2031
▁envisagé	-12.2042
▁dresser	-12.2046
▁dispensés	-12.2049
▁énergétiques	-12.2049
▁prime	-12.205
installations	-12.205
▁soi	-12.2051
administrateur	-12.2054
expliquer	-12.2056
▁ultérieurs	-12.2058
▁candidatures	-12.206
▁confére	-12.2063
▁quantité	-12.2064
ges	-12.2065
▁hydrographiques	-12.2075
exerce	-12.2076
▁aptitudes	-12.2078
▁judicieuses	-12.209
▁accélérée	-12.2093
▁énonce	-12.2111
écarte	-12.2115
▁mental	-12.2134
▁résid	-12.2138
▁Disposition	-12.2138
administrateurs	-12.214
▁ten	-12.2159
La	-12.2175
ier	-12.2181
▁tsunamis	-12.2183
XXVII	-12.2186
autant	-12.2195
▁médicale	-12.2197
idées	-12.2201
ad	-12.2211
▁pluriannuels	-12.222
▁quot	-12.2234
▁produites	-12.2237
▁primaires	-12.224
▁Attend	-12.2244
ipe	-12.2247
▁déroule	-12.2259
énoncer	-12.2267
égal	-12.2274
nçant	-12.2276
▁négoc	-12.2283
▁accroiss	-12.23
▁dégage	-12.23
▁inquiète	-12.2302
▁gouvernemental	-12.2308
▁sollicit	-12.2314
▁transférée	-12.232
▁confère	-12.2327
▁intersectoriel	-12.2345
▁sanctionne	-12.2358
alue	-12.236
eaux	-12.2371
▁criminel	-12.24
▁alla	-12.2406
▁souple	-12.2414
▁discipline	-12.2415
▁consentis	-12.2416
▁établit	-12.2418
el	-12.2428
▁filet	-12.2431
élev	-12.2441
▁concour	-12.2445
mesures	-12.2448
▁serve	-12.2453
actionIbid	-12.2456
ôt	-12.2456
▁compromette	-12.2467
retenir	-12.2472
▁soin	-12.2472
rne	-12.2473
▁bénéficie	-12.2473
élève	-12.2488
▁fonctionnel	-12.2493
Cheikh	-12.2493
Ituri	-12.2493
▁cannabis	-12.2493
▁vaccination	-12.2493
▁dramatique	-12.2493
▁injustifiables	-12.2493
▁récapitulatif	-12.2493
▁accédé	-12.2493
MIN	-12.2493
écoute	-12.2493
▁régissent	-12.2494
▁copie	-12.2494
▁inutilisé	-12.2494
▁visiteurs	-12.2495
▁soulève	-12.2495
▁restituer	-12.2495
▁contagieuses	-12.2496
feuille	-12.2496
▁légitimité	-12.2496
▁expulsions	-12.2497
essor	-12.2498
▁retraités	-12.25
▁mobilis	-12.25
▁énonça	-12.2504
▁petite	-12.2507
▁sportifs	-12.2507
▁villages	-12.2507
▁examinant	-12.251
étranger	-12.2511
▁ports	-12.2512
▁transmett	-12.2516
estion	-12.2519
▁violentes	-12.2521
▁forestiers	-12.2523
▁migratoires	-12.2523
archi	-12.2523
fication	-12.2528
▁Effet	-12.253
▁diplomati	-12.2533
▁potentielles	-12.2539
▁décrite	-12.254
disciplinaire	-12.2545
▁jou	-12.2546
▁protégés	-12.2549
▁Aires	-12.2556
▁informelles	-12.2558
▁écoles	-12.2565
▁visible	-12.2567
▁convoqué	-12.2573
▁exécute	-12.2575
▁Condamnant	-12.2575
▁plaintes	-12.2575
Abuja	-12.2575
▁exécutées	-12.2578
exercent	-12.2591
▁ressortissant	-12.2593
▁préjuge	-12.2595
immersion	-12.2596
étaient	-12.2599
▁apportés	-12.2599
▁individuelle	-12.26
ok	-12.2601
▁visa	-12.2609
▁obtenu	-12.261
▁bénévoles	-12.2612
▁solennelle	-12.2618
venus	-12.2618
▁causée	-12.262
▁écoulées	-12.262
ennes	-12.2621
▁UNE	-12.2631
▁révisée	-12.2635
▁successeurs	-12.2636
larmée	-12.2641
▁approuver	-12.2644
▁prescrite	-12.2654
dre	-12.2665
▁expose	-12.2671
▁fonctionne	-12.2672
▁intérieure	-12.2674
▁alloué	-12.2686
▁centrée	-12.2686
▁appuient	-12.2704
▁éruption	-12.2712
▁viennent	-12.2715
Al	-12.2719
▁rendue	-12.2729
▁limit	-12.2743
scription	-12.2759
fois	-12.2791
▁Mesur	-12.2795
▁Tou	-12.28
▁Confirm	-12.2803
imposer	-12.2809
ndustrialisation	-12.281
▁dis	-12.2819
▁nominations	-12.2824
▁maintenue	-12.2828
ocuments	-12.2829
▁résolues	-12.2841
▁marque	-12.2841
▁limité	-12.2846
▁qualifié	-12.285
▁compromis	-12.2853
otation	-12.2869
entretien	-12.2874
▁plate	-12.2876
▁soulevée	-12.2876
ble	-12.2877
gés	-12.2886
objectifs	-12.2888
▁envoyé	-12.289
▁mention	-12.2894
▁rapprochée	-12.2895
▁judicieuse	-12.2906
▁démographique	-12.2908
▁multiethnique	-12.2909
▁crédible	-12.2912
▁représentatif	-12.2913
▁côtière	-12.2914
▁bénéfique	-12.2914
▁tragique	-12.2914
▁éventuel	-12.2919
▁préalables	-12.2929
▁différente	-12.2934
▁recru	-12.2937
▁exécutée	-12.2937
envoyer	-12.2938
▁Grand	-12.2944
▁Ce	-12.2949
▁évoqué	-12.2965
▁protége	-12.2979
▁réuniss	-12.298
▁Examine	-12.2986
formant	-12.2986
insertion	-12.2992
▁Jakarta	-12.2993
▁Londres	-12.2993
▁inlassable	-12.2993
▁irréversible	-12.2993
▁convergence	-12.2993
▁magistrature	-12.2993
▁conversion	-12.2993
▁MSC	-12.2993
▁néanmoins	-12.2993
▁préjugés	-12.2993
▁dit	-12.2993
▁désert	-12.2994
▁retourner	-12.2994
▁soumettra	-12.2995
▁dissuad	-12.2996
▁concentrer	-12.2996
▁Kobe	-12.2996
▁sortir	-12.2996
▁bombardement	-12.2997
êtes	-12.2997
affaires	-12.2997
conque	-12.2997
▁Fon	-12.2998
▁organiques	-12.2998
pédopornographie	-12.3
▁contractuels	-12.3005
▁probable	-12.3005
▁notifier	-12.3006
▁gouverneurs	-12.301
▁signalés	-12.301
▁délivran	-12.3012
▁affiliées	-12.3012
temps	-12.3013
exode	-12.3028
▁urbaine	-12.303
▁versée	-12.3032
▁réguliers	-12.3036
▁riches	-12.3045
▁impliqués	-12.3053
▁stipule	-12.3055
▁interactions	-12.3059
▁conduisa	-12.3064
▁dés	-12.3086
aboutir	-12.3087
détection	-12.3088
▁constants	-12.3092
▁ensuite	-12.3099
▁para	-12.31
refoulement	-12.3101
▁porta	-12.3103
attirer	-12.3105
▁défend	-12.3111
ateliers	-12.3111
▁versant	-12.3115
▁latins	-12.3127
▁venu	-12.313
▁relief	-12.3141
extérieur	-12.3143
▁invoquée	-12.3144
▁Proclam	-12.3147
▁côté	-12.3148
▁intégrité	-12.3156
▁étendue	-12.3163
utres	-12.3169
▁lésé	-12.3172
▁dérogations	-12.3172
▁mo	-12.3176
▁indemnisation	-12.3178
entendre	-12.3189
▁jugera	-12.3193
▁indu	-12.3205
▁preuves	-12.3214
▁huit	-12.3215
▁apparaît	-12.3218
▁alléger	-12.3224
ordonner	-12.3227
effectu	-12.3275
▁couverte	-12.3285
▁exposition	-12.3301
▁précisé	-12.3301
▁Fa	-12.3324
▁valoris	-12.3329
ingh	-12.3336
▁surexploitation	-12.3346
▁perpétré	-12.3347
appartenan	-12.3355
▁reb	-12.336
▁Appui	-12.3368
▁nécessite	-12.3374
▁expert	-12.3376
▁rapportent	-12.3381
attaque	-12.3384
▁personnelles	-12.3391
▁Étud	-12.3393
▁punis	-12.34
▁Go	-12.3402
▁individuel	-12.3409
oir	-12.3422
▁participatif	-12.3426
▁rigoureuse	-12.3427
▁énergique	-12.3431
▁périodique	-12.3432
▁vulnérable	-12.3435
▁sessionA	-12.3436
▁fistule	-12.3437
▁statistique	-12.3439
▁jeu	-12.3439
▁bancaire	-12.344
▁bénéficiaire	-12.344
▁analogue	-12.344
▁négatif	-12.344
▁clef	-12.344
▁Annexe	-12.3448
▁men	-12.345
▁parlementaire	-12.3452
▁tire	-12.3457
exécutions	-12.3462
▁manquement	-12.347
▁substantiel	-12.347
▁moderne	-12.3473
▁impérative	-12.3474
▁Convaincu	-12.3475
uala	-12.3476
▁sanitaire	-12.3479
▁imposée	-12.3485
Équateur	-12.3487
▁rapid	-12.3493
suivant	-12.3494
▁enseignement	-12.3495
programmes	-12.3502
▁différencié	-12.3503
▁calculé	-12.3506
prévalence	-12.3508
▁SS	-12.3508
▁licite	-12.351
Abeba	-12.3519
érosion	-12.3519
▁Kaboul	-12.3519
▁cubain	-12.3519
▁fluctuation	-12.3519
▁problématique	-12.3519
▁suffrage	-12.3519
▁sexualité	-12.3519
▁compensation	-12.3519
▁industrialisés	-12.3519
▁rénovation	-12.3519
▁prévisibilité	-12.352
▁significative	-12.352
▁milices	-12.352
▁coercition	-12.352
▁domicile	-12.352
▁gains	-12.352
▁postale	-12.352
▁réfléchir	-12.3521
▁protègent	-12.3521
▁réussite	-12.3521
▁augmentant	-12.3521
▁traduisent	-12.3522
accumulation	-12.3522
▁implantées	-12.3522
▁multiforme	-12.3522
▁sévit	-12.3522
▁concentration	-12.3523
▁indépendance	-12.3523
▁délivrer	-12.3523
examine	-12.3523
▁opposant	-12.3524
▁justifient	-12.3524
▁augmentent	-12.3527
faits	-12.3529
▁correspondent	-12.3529
▁exigera	-12.3531
▁clarifi	-12.3531
▁précisément	-12.3531
CM	-12.3531
▁imprévu	-12.3532
▁profession	-12.3536
▁Kiri	-12.3538
▁moderniser	-12.354
▁élaborent	-12.354
▁météorologique	-12.3543
▁prérogatives	-12.3544
▁affiché	-12.3545
▁prêtent	-12.3547
▁juvéniles	-12.3548
▁indivisibles	-12.3552
articipation	-12.3556
▁transmetta	-12.3558
entremise	-12.3559
èrent	-12.3559
▁variation	-12.356
équipements	-12.3565
▁ciblés	-12.3565
▁juristes	-12.3569
▁charte	-12.3571
▁réponde	-12.3576
atténu	-12.3577
ndicateurs	-12.3584
▁XIII	-12.3588
▁corporels	-12.3589
▁biennale	-12.359
▁chevauchement	-12.3595
▁antipaludiques	-12.3595
▁opinion	-12.3602
▁be	-12.3602
enforcement	-12.3608
opportunité	-12.3612
forme	-12.3613
▁employer	-12.3616
▁conciliateurs	-12.3617
▁causer	-12.3621
www	-12.3636
opposer	-12.3639
cture	-12.3647
venues	-12.3659
représentées	-12.3659
aggrav	-12.3666
estimation	-12.3669
inspirer	-12.367
air	-12.3671
▁étudie	-12.3672
▁monétaires	-12.3679
▁indemnité	-12.3682
éventuelles	-12.3685
▁Met	-12.3685
▁évit	-12.37
affaire	-12.3706
▁préférences	-12.3707
▁maintenu	-12.372
▁multilingue	-12.3747
um	-12.3754
Ver	-12.3755
emplacer	-12.3755
▁prôn	-12.3787
▁maxim	-12.3793
parition	-12.3803
▁insuffisance	-12.3818
météorologiques	-12.387
exclusiv	-12.3887
▁Trois	-12.3896
▁équilibrées	-12.3908
▁incite	-12.3912
▁affirmé	-12.3913
▁autorise	-12.3916
▁placement	-12.3918
sites	-12.393
cours	-12.3933
▁englob	-12.3944
▁réservé	-12.3974
▁inacceptable	-12.3976
▁constructifs	-12.3978
▁iraquien	-12.3981
qui	-12.3982
▁demeurer	-12.3985
▁exclusive	-12.3989
▁antipaludique	-12.3995
▁impliquée	-12.3996
▁personnalité	-12.3996
▁sévère	-12.3998
sur	-12.4011
▁présiden	-12.4012
mbler	-12.4016
▁ciblée	-12.402
▁complété	-12.4023
▁unilatérale	-12.4024
changer	-12.4042
▁saine	-12.4065
Programme	-12.407
▁Hami	-12.4074
émorandum	-12.4074
irréversibilité	-12.4075
mètres	-12.4075
▁Bamako	-12.4075
▁Procureur	-12.4075
▁défavorisés	-12.4075
▁intrinsèque	-12.4075
▁nocives	-12.4075
▁pénurie	-12.4075
▁réflexion	-12.4075
▁éducateurs	-12.4075
▁télématique	-12.4075
▁odieux	-12.4075
▁rentabilité	-12.4075
▁néonazisme	-12.4075
▁Lacs	-12.4075
▁rédaction	-12.4075
▁courtage	-12.4075
▁sérieuse	-12.4075
▁servitude	-12.4075
▁comptabilité	-12.4075
▁fichier	-12.4076
▁antimissile	-12.4076
▁adolescentes	-12.4076
▁sentence	-12.4076
▁coloniale	-12.4076
▁interviennent	-12.4077
▁portuaire	-12.4077
▁longueur	-12.4077
▁théorique	-12.4077
▁Exécution	-12.4077
▁prestataire	-12.4078
onsidérant	-12.4078
▁militants	-12.4079
▁entraves	-12.4079
FS	-12.408
ilité	-12.408
▁convenir	-12.4082
bati	-12.4082
▁formulant	-12.4083
▁convenablement	-12.4084
▁défavorable	-12.4085
▁interrégionale	-12.4085
▁participative	-12.4085
▁portugaise	-12.4086
▁pourvus	-12.4086
FI	-12.4088
▁déontologie	-12.4088
aida	-12.4089
▁contracté	-12.4091
▁légitimement	-12.4091
▁magistrats	-12.4092
▁atelier	-12.4093
▁passif	-12.4093
▁heures	-12.4093
▁territoriaux	-12.4095
▁enlevés	-12.4096
▁parviennent	-12.4107
▁réfugiées	-12.4108
▁échangeant	-12.4109
▁»),	-12.4116
Maurice	-12.4118
▁servira	-12.4119
▁accréditée	-12.4122
▁rapproche	-12.4123
▁voire	-12.4133
▁congolais	-12.4134
issent	-12.4134
▁pilier	-12.4136
▁richesses	-12.4137
▁réalités	-12.4139
▁disposés	-12.4142
▁négociés	-12.4143
▁XV	-12.4147
▁perpétrée	-12.4149
▁privilégie	-12.4152
▁pr	-12.4155
▁concepts	-12.4157
▁reconstitu	-12.4157
image	-12.4158
▁acceptées	-12.416
▁renouvelable	-12.4162
Forum	-12.4167
▁assise	-12.4168
▁Commerce	-12.4169
emplacement	-12.4179
▁violents	-12.4186
réoccupation	-12.4189
▁consister	-12.4196
▁Incidence	-12.4197
ulement	-12.4201
omination	-12.4201
▁distinctes	-12.4201
▁déterminés	-12.4206
RP	-12.4211
▁urbaines	-12.4218
▁attendre	-12.422
ses	-12.4227
▁rémunéré	-12.4228
attachement	-12.424
▁vérifie	-12.4241
▁Environnement	-12.4242
Éducation	-12.4243
▁organise	-12.4248
XXVIII	-12.425
▁choisi	-12.4254
▁clandestine	-12.4254
urgente	-12.4258
▁restaur	-12.4261
▁provincial	-12.4263
▁Mett	-12.4283
▁neuf	-12.4283
outils	-12.4285
▁concrétis	-12.4293
▁échelonné	-12.4294
▁envoyée	-12.4296
entité	-12.4297
▁occupent	-12.4304
▁sait	-12.4307
▁condamn	-12.4313
▁éventuels	-12.4315
adresser	-12.4317
ssent	-12.4339
▁apport	-12.4339
cherchant	-12.4339
▁dépositaires	-12.4344
▁retenue	-12.4345
▁soumission	-12.436
▁élevées	-12.4362
»)	-12.4366
▁couvert	-12.4371
▁entr	-12.4383
évent	-12.4386
▁microfinance	-12.4395
▁déstabilis	-12.4398
▁grav	-12.4399
formes	-12.4402
iers	-12.4403
▁détermine	-12.4416
▁lesdit	-12.4423
▁instituée	-12.4447
axer	-12.4464
▁alimenté	-12.4464
▁avancé	-12.4466
▁exclu	-12.4498
▁nucléairesA	-12.4503
▁attentive	-12.4506
▁prélevée	-12.4516
▁dénommée	-12.4519
▁facilité	-12.452
▁amélioré	-12.4524
▁pêcher	-12.4536
nés	-12.4546
nvocation	-12.4561
▁inciter	-12.4562
obten	-12.4567
▁employé	-12.4572
▁élection	-12.4573
▁concept	-12.4576
▁établissement	-12.4576
▁pluraliste	-12.4583
▁collectivité	-12.4584
▁immédiat	-12.4585
ite	-12.4586
▁mette	-12.4588
▁féminine	-12.4593
indique	-12.4595
▁collabore	-12.4598
sent	-12.4598
▁unilatéral	-12.4606
▁fiscal	-12.463
▁courage	-12.4647
▁intéressée	-12.465
▁tell	-12.4654
▁abusive	-12.4659
aquaculture	-12.4663
▁Berlin	-12.4663
▁Bichkek	-12.4663
▁Cotonou	-12.4663
▁monnaie	-12.4663
▁protagonistes	-12.4663
▁superficie	-12.4663
▁tripartite	-12.4663
▁Delhi	-12.4663
▁redéploiement	-12.4663
actuaires	-12.4663
▁transatlantique	-12.4663
▁cohésion	-12.4663
▁rigoureux	-12.4663
▁préférentielles	-12.4664
▁choc	-12.4664
▁élargiss	-12.4666
▁adhèrent	-12.4666
▁provoqué	-12.4668
▁toutefois	-12.4669
▁méritent	-12.4669
▁resté	-12.4671
▁Nouvel	-12.4671
▁livrer	-12.4672
▁Demeur	-12.4672
▁unilatéralement	-12.4674
▁simple	-12.4674
▁majeure	-12.4675
▁minoritaires	-12.4676
inclusion	-12.4676
▁universités	-12.4676
▁diriger	-12.4677
▁obstétricale	-12.4683
▁aveugles	-12.4684
▁accueillant	-12.4686
▁manifester	-12.4686
▁EX	-12.4688
▁réalisée	-12.4688
▁possession	-12.4688
▁diminuée	-12.4694
▁entrav	-12.4695
▁Char	-12.4696
▁dépi	-12.4698
▁détroits	-12.47
▁interactives	-12.47
▁invoque	-12.4701
mers	-12.4708
▁Téhéran	-12.4708
▁ménages	-12.4709
Centre	-12.4718
▁marquée	-12.4718
▁satisfaits	-12.4722
▁rue	-12.4723
▁livres	-12.4725
▁fragiles	-12.473
vision	-12.4731
▁pren	-12.4737
▁av	-12.4738
▁volcaniques	-12.4739
Fidji	-12.4742
▁Ne	-12.4744
appropriation	-12.4755
▁filets	-12.4763
engagements	-12.4766
▁individuels	-12.4767
▁quinze	-12.4768
▁Annexes	-12.4771
▁sainte	-12.4773
▁infantile	-12.4773
▁sécheresses	-12.4777
▁déroge	-12.4778
▁réaliste	-12.478
▁encouragés	-12.4783
▁étapes	-12.4783
▁abordée	-12.4786
▁parvenus	-12.4795
▁préserv	-12.4801
▁tracé	-12.4802
▁exploitant	-12.4807
▁invitation	-12.4809
▁précoces	-12.4812
▁interrégionales	-12.4817
▁massives	-12.4823
influence	-12.4834
▁Lou	-12.4834
▁trouva	-12.4836
nstamment	-12.4839
▁journées	-12.4843
▁chiffre	-12.4846
rley	-12.4848
servent	-12.4854
▁dégradant	-12.4856
▁excédent	-12.4856
assumer	-12.4857
▁confér	-12.486
▁sup	-12.4863
épanouissement	-12.487
▁assortie	-12.4873
israélien	-12.4878
exister	-12.4878
▁manifestée	-12.4886
▁rencontrer	-12.4888
▁spécificité	-12.4895
aboutisse	-12.4896
enrichi	-12.4897
▁saisis	-12.4922
▁déroulée	-12.4927
▁réunies	-12.4928
libérées	-12.4936
ar	-12.4943
▁coup	-12.4958
▁signaler	-12.4965
▁réunis	-12.4971
▁adhésions	-12.4976
ti	-12.4977
▁vulnérabilités	-12.4983
▁terminé	-12.4992
▁illicitement	-12.5005
dessous	-12.5007
institut	-12.502
▁sexospécifiques	-12.5022
▁rest	-12.5028
▁indice	-12.5033
attach	-12.5039
▁actualiser	-12.5049
▁rôles	-12.505
▁réalis	-12.5065
▁exiger	-12.5068
▁intervention	-12.5071
ions	-12.5081
auto	-12.5091
int	-12.5092
appuya	-12.5104
▁réfugié	-12.5115
ication	-12.5129
▁adress	-12.5129
▁représentées	-12.5135
▁somm	-12.5136
law	-12.5141
▁assemblée	-12.5148
▁dispensée	-12.5151
▁autochtone	-12.5171
▁amphétamine	-12.5202
▁camp	-12.5202
▁catastrophique	-12.5203
▁cohérentes	-12.5206
▁exhaustive	-12.5206
▁litige	-12.5207
▁volcanique	-12.5208
▁réclamation	-12.5209
▁hydrographique	-12.5209
▁informelle	-12.5214
▁pratiqu	-12.5214
▁exceptionnelle	-12.5218
▁composante	-12.5221
▁encouragée	-12.5224
▁territorial	-12.5228
▁exigé	-12.5231
▁améliorée	-12.5253
intérêts	-12.5255
▁pro	-12.5261
▁Dé	-12.5261
ing	-12.5269
▁persiste	-12.5272
spère	-12.5278
▁coopère	-12.5281
▁comprenne	-12.5281
écessité	-12.5284
▁démantel	-12.5287
croît	-12.5288
▁Assembly	-12.5288
▁Katmandou	-12.5288
▁Préambule	-12.5288
▁Santiago	-12.5288
▁eurasienne	-12.5288
▁grippe	-12.5288
▁iranien	-12.5288
▁mozambicain	-12.5288
▁poids	-12.5288
▁tremblement	-12.5288
▁propagande	-12.5288
▁familiaux	-12.5288
▁rouges	-12.5288
▁bassin	-12.5288
▁reproduction	-12.5288
▁polym	-12.5288
▁ordonné	-12.5288
▁échéancier	-12.5289
▁famine	-12.5289
▁trouvaient	-12.5289
▁moralité	-12.5289
▁Montant	-12.529
▁reproduisent	-12.529
▁localiser	-12.5291
▁reporter	-12.5291
▁isolées	-12.5291
employant	-12.5292
▁pillage	-12.5292
▁troubles	-12.5292
▁persistent	-12.5297
script	-12.5297
ouveraineté	-12.5299
▁identifiés	-12.5303
ières	-12.5304
intéresser	-12.5306
▁litem	-12.531
▁Relation	-12.5311
▁débouchés	-12.5312
▁déployées	-12.5316
▁productives	-12.5316
▁diffusées	-12.5317
▁trans	-12.5321
sistant	-12.5324
▁honor	-12.5327
▁forestières	-12.5327
▁exposée	-12.5333
▁présidentielles	-12.5335
▁mères	-12.5335
▁faisabilité	-12.5336
▁Bethléem	-12.5336
▁massacres	-12.5336
▁interrégionaux	-12.5336
▁Poursuite	-12.5338
▁indique	-12.5339
▁structurelle	-12.5345
arrières	-12.5353
▁couverture	-12.5354
▁événement	-12.5358
▁Kh	-12.5361
▁rééducation	-12.5362
▁enregistrement	-12.5362
▁perdr	-12.5364
▁confidentiels	-12.5364
at	-12.537
▁interdépendance	-12.5387
▁prolong	-12.539
▁préparé	-12.5391
▁freine	-12.5397
▁couverts	-12.5399
▁adressé	-12.54
▁pacifiquement	-12.5409
ations	-12.5411
▁com	-12.5416
suivent	-12.5425
▁tête	-12.5434
Pacifique	-12.5436
▁somaliens	-12.5438
interdir	-12.5439
▁Recommandation	-12.5439
▁train	-12.544
conventionnelles	-12.5443
▁élimin	-12.5449
▁accidentel	-12.5457
▁conféré	-12.546
▁inscrite	-12.5465
▁extrader	-12.5473
▁lourdes	-12.5486
inscrit	-12.5493
exac	-12.5506
intéressant	-12.5509
lles	-12.5511
▁attachent	-12.5523
▁abroge	-12.5525
comités	-12.5526
▁Partenaire	-12.5527
annuler	-12.5533
extension	-12.5533
actualiser	-12.5535
aggraver	-12.5536
entière	-12.5547
étape	-12.556
expira	-12.5564
▁attribue	-12.5578
▁sub	-12.558
▁constantes	-12.5585
▁allou	-12.561
▁précédents	-12.5612
étrangers	-12.5615
▁adapter	-12.562
▁aborder	-12.5622
▁provoque	-12.5625
▁urgences	-12.5628
idé	-12.5641
▁bénéfici	-12.5642
▁claire	-12.5645
▁pareille	-12.5649
▁unifié	-12.5654
▁poursuiv	-12.5666
elève	-12.5668
▁Act	-12.5684
ance	-12.5696
assure	-12.5703
▁transfér	-12.5717
▁épanouissement	-12.5724
ques	-12.5728
▁comprendra	-12.573
▁Mo	-12.5733
vice	-12.574
▁œuvr	-12.5746
▁répétée	-12.5751
tude	-12.5751
▁origina	-12.5754
▁formulé	-12.5766
▁infrastructure	-12.5774
▁aptitude	-12.5787
▁entraver	-12.579
▁appuya	-12.5791
▁positions	-12.5793
▁déroulé	-12.5801
▁exerça	-12.5803
Saint	-12.583
ls	-12.583
▁devenu	-12.5837
▁inégal	-12.5842
revenant	-12.5844
▁haïtien	-12.5845
▁garantis	-12.5849
▁favoris	-12.5854
▁Pri	-12.5861
maine	-12.5868
▁poisson	-12.5871
▁pragmatique	-12.5871
▁significatif	-12.5871
▁représentative	-12.5873
▁cyclone	-12.5873
▁radiologique	-12.5874
▁négative	-12.5875
▁connexe	-12.5877
▁réalité	-12.588
▁habitant	-12.5881
▁financé	-12.5882
▁tension	-12.5883
▁aggravée	-12.5891
▁traitée	-12.5901
▁disparue	-12.5904
vois	-12.5905
zé	-12.5913
encour	-12.592
▁parer	-12.5922
▁influent	-12.5943
▁portera	-12.5943
▁risqu	-12.5949
▁fonder	-12.5952
autosuffisance	-12.5955
avènement	-12.5955
▁Bucarest	-12.5955
▁Managua	-12.5955
▁Mexico	-12.5955
▁Montréal	-12.5955
▁confidentialité	-12.5955
▁destructrices	-12.5955
▁dégrèvement	-12.5955
▁fourchette	-12.5955
▁immuable	-12.5955
▁musulmans	-12.5955
▁palangriers	-12.5955
▁sujétion	-12.5955
▁Khartoum	-12.5955
Kivu	-12.5955
▁protectionnisme	-12.5955
▁chinois	-12.5955
▁pédophilie	-12.5955
▁quinquennaux	-12.5955
épuisement	-12.5955
▁importateurs	-12.5955
▁procréation	-12.5955
landais	-12.5955
▁Budget	-12.5955
▁normalisation	-12.5955
calédonienne	-12.5955
▁répressif	-12.5956
▁déficit	-12.5956
▁riche	-12.5956
▁corrélation	-12.5957
rême	-12.5957
▁substituer	-12.5957
▁pétrole	-12.5958
▁enregistrées	-12.5958
▁blessures	-12.5958
▁ouvrables	-12.5958
▁renouveler	-12.5959
▁simultanément	-12.5961
▁corriger	-12.5961
▁Examiner	-12.5966
démie	-12.5966
▁recherchant	-12.5967
ériger	-12.5968
▁bahaïs	-12.5969
▁nouer	-12.5969
▁nécessitent	-12.5971
▁loyers	-12.5971
▁ren	-12.5971
▁affectée	-12.5972
▁fréquentes	-12.5972
▁Maîtrise	-12.5976
▁livraison	-12.5977
▁contrôlées	-12.5977
▁servi	-12.5977
na	-12.5978
▁évoquées	-12.5979
▁parallèles	-12.5981
▁entretiens	-12.5984
▁confisqués	-12.5984
▁corresponde	-12.5985
▁échelle	-12.5987
▁serre	-12.599
▁Rapports	-12.5991
▁normal	-12.5995
inscriv	-12.5997
ransparence	-12.5997
▁dérouler	-12.6013
▁procédera	-12.6018
▁fonciers	-12.6019
▁confier	-12.6022
▁mondialisée	-12.6026
▁utilise	-12.6029
▁Press	-12.6032
août	-12.6035
quitter	-12.6036
▁structurels	-12.6037
▁utilis	-12.6038
▁intervenus	-12.6038
▁combats	-12.6064
▁Alger	-12.6067
onséquences	-12.6076
cité	-12.6077
▁tokélaouan	-12.6087
▁siéger	-12.6091
▁réels	-12.6095
expir	-12.6097
▁bas	-12.6109
▁intervenants	-12.6112
▁fi	-12.6112
applica	-12.6114
▁englobe	-12.6115
▁persévér	-12.6117
▁convenue	-12.6123
▁légale	-12.6129
▁vii	-12.6139
liques	-12.6142
conseil	-12.6145
H	-12.6146
▁Section	-12.6158
réservées	-12.6171
di	-12.6176
▁renouvelle	-12.6179
▁promulguée	-12.6187
représentation	-12.6202
▁modèles	-12.6208
▁naissances	-12.6208
entraîner	-12.6212
intensif	-12.6215
arriéré	-12.6221
exige	-12.6227
▁posséd	-12.6228
▁approfondir	-12.6229
▁AfriqueIbid	-12.6232
▁naiss	-12.6237
▁installé	-12.624
▁Con	-12.6245
▁secrétaire	-12.6249
combattants	-12.6251
web	-12.626
▁coutumi	-12.626
auront	-12.6262
établit	-12.6271
▁propaga	-12.6272
Droits	-12.6272
▁disposée	-12.6274
▁coutum	-12.6276
▁disposé	-12.6291
▁dépendance	-12.6291
RE	-12.6298
▁Mat	-12.6301
▁pa	-12.6306
▁soutenues	-12.631
ecettes	-12.6313
▁écart	-12.6316
▁imputée	-12.6328
▁cependant	-12.6332
▁pluri	-12.6337
▁réitéré	-12.634
était	-12.6344
▁reçus	-12.6351
▁semestr	-12.6362
▁aides	-12.6362
▁semble	-12.6362
▁respectueu	-12.6366
▁récepti	-12.6373
▁complét	-12.6377
entreprises	-12.6377
▁auto	-12.6379
▁frappé	-12.6386
installation	-12.6401
ager	-12.6407
ca	-12.6434
▁combat	-12.6451
▁cad	-12.6461
▁intermédiaires	-12.6474
▁usé	-12.648
▁mor	-12.6492
▁UN	-12.6493
sa	-12.6505
▁suspend	-12.6512
enlèvements	-12.6515
▁déterminante	-12.652
▁apparenté	-12.6521
▁protégé	-12.6527
enseignements	-12.6528
Ex	-12.6535
aluant	-12.656
ndre	-12.6567
international	-12.657
▁confidentiel	-12.6571
▁ramen	-12.6574
▁inclusif	-12.6578
▁spécifique	-12.6579
▁maternelle	-12.6581
▁structurel	-12.6583
▁directive	-12.6584
▁novatrice	-12.6589
▁manuel	-12.6589
▁signataire	-12.6589
▁dépense	-12.659
▁richesse	-12.659
▁foyer	-12.6591
▁fragile	-12.6593
▁avenue	-12.6594
▁dévasté	-12.6626
ien	-12.6628
▁insuffisante	-12.6635
▁retiré	-12.6641
amendements	-12.6645
▁rien	-12.6649
▁Ko	-12.665
▁per	-12.6651
iv	-12.6653
▁convaincu	-12.6656
▁achève	-12.6659
ulture	-12.6662
▁parvienne	-12.6663
▁dévolu	-12.6666
artémisinine	-12.6669
▁Accepte	-12.6669
▁Balkans	-12.6669
▁Pretoria	-12.6669
▁astronautes	-12.6669
▁cérémonie	-12.6669
▁gaspillage	-12.6669
▁musulmanes	-12.6669
▁potentialités	-12.6669
▁représailles	-12.6669
▁trafiquants	-12.6669
▁trimestre	-12.6669
▁trésorerie	-12.6669
Ombudsman	-12.6669
▁démunis	-12.6669
▁Belgrade	-12.6669
▁refuge	-12.6669
▁résister	-12.6669
▁prospère	-12.6669
▁réinsérer	-12.6669
▁vérité	-12.6669
unhc	-12.6669
▁Fourniture	-12.6669
▁flore	-12.6669
▁chercheurs	-12.667
▁facto	-12.667
▁vigilance	-12.667
ïd	-12.667
▁recensés	-12.667
▁confirmation	-12.667
▁commémoration	-12.667
▁compensé	-12.667
▁plafond	-12.6671
▁ministère	-12.6671
▁coraux	-12.6672
alimentées	-12.6672
▁factions	-12.6675
▁agissent	-12.6677
▁réunissent	-12.6677
isolement	-12.6677
▁séismes	-12.6678
▁pêcheurs	-12.668
▁stipulé	-12.668
▁idéologi	-12.6681
▁attesté	-12.6682
▁assumées	-12.6683
▁augmente	-12.6683
▁nocifs	-12.6684
▁comparatifs	-12.6685
uito	-12.6687
▁localisation	-12.669
▁pressante	-12.6694
▁engendrent	-12.6695
▁interdites	-12.6696
▁interlocuteurs	-12.6697
▁coexistence	-12.6697
▁Ame	-12.6699
▁remonte	-12.67
▁partagés	-12.67
▁crée	-12.6704
▁saints	-12.6704
▁subordonne	-12.6706
▁transformer	-12.6706
▁tués	-12.6707
▁indé	-12.6711
▁procureurs	-12.6714
▁sectoriels	-12.6716
▁néant	-12.6718
émission	-12.672
▁délits	-12.6721
▁clients	-12.6722
▁perdus	-12.6724
▁accrédités	-12.6726
▁pla	-12.6735
▁organisent	-12.6736
▁courantes	-12.674
▁aériens	-12.6741
▁établira	-12.6742
▁BeijingIbid	-12.6743
▁courir	-12.6745
ro	-12.6747
viendrait	-12.6753
▁vif	-12.6757
▁exclure	-12.6757
▁françaises	-12.6759
▁Objectif	-12.677
▁posées	-12.6771
▁améliorés	-12.6777
')	-12.6784
énormes	-12.6788
▁exceptionnelles	-12.6788
▁souples	-12.679
▁Guid	-12.6807
Turquie	-12.681
▁certificats	-12.6822
enteur	-12.6825
oppose	-12.6832
▁imprégné	-12.6839
▁pilotes	-12.6839
▁desquelles	-12.6842
▁poussées	-12.6844
▁sûres	-12.6852
▁distance	-12.6857
▁inhérent	-12.6859
▁transféré	-12.6861
omotion	-12.6863
▁alentours	-12.687
▁prénatal	-12.6877
▁signes	-12.6878
▁attente	-12.6885
éitère	-12.6885
▁centaine	-12.6886
▁intra	-12.689
▁parvenu	-12.6893
▁inspire	-12.6894
▁majeurs	-12.69
▁supportée	-12.6906
▁distinct	-12.6909
▁égales	-12.6914
▁confiés	-12.692
▁supérieures	-12.692
▁liquid	-12.6922
▁assistant	-12.6924
▁détr	-12.6937
été	-12.6944
▁Renouvel	-12.6951
rrangements	-12.6955
▁Sai	-12.6957
▁int	-12.696
▁emprunts	-12.6963
▁accomplie	-12.6966
todétermination	-12.6968
incapacité	-12.6975
étal	-12.6976
alléger	-12.698
▁pôle	-12.6982
tro	-12.6983
attache	-12.6984
▁guidée	-12.6987
▁ample	-12.7002
travent	-12.7013
asiatique	-12.7013
prudence	-12.7015
ard	-12.7026
▁né	-12.7028
▁avéré	-12.7035
▁urgence	-12.7041
▁dynamis	-12.705
▁aliment	-12.7051
empêche	-12.7055
▁légal	-12.7055
▁extrajudiciaire	-12.7057
▁notation	-12.706
▁fausse	-12.7074
▁continus	-12.7077
▁Can	-12.7101
aintien	-12.7106
▁Car	-12.7133
éparation	-12.7135
▁poursuivra	-12.7138
tte	-12.7142
▁annuler	-12.7144
▁voyages	-12.717
▁finance	-12.7175
▁délivré	-12.7182
▁annonce	-12.7188
▁estima	-12.7198
▁Éducation	-12.7208
▁Politique	-12.7214
iquement	-12.7215
▁modifiés	-12.7227
accompagne	-12.7232
Secrétaire	-12.7237
son	-12.724
églementation	-12.7255
lément	-12.7257
▁ministérielles	-12.7263
▁engagent	-12.7263
▁art	-12.7265
▁refoulement	-12.7273
américaine	-12.7276
▁souverain	-12.7279
▁lutt	-12.7298
abord	-12.7301
▁arab	-12.7304
eusement	-12.7305
▁amené	-12.7311
▁distribué	-12.7312
ui	-12.7313
Équ	-12.7314
▁fonctionnelle	-12.7338
▁respective	-12.7345
▁pièce	-12.7359
▁cambodgiens	-12.7361
▁délibérant	-12.7362
efforç	-12.7372
importantes	-12.7373
▁multisectoriel	-12.7374
▁accéléré	-12.7378
▁foncière	-12.7383
▁recueil	-12.7388
▁directe	-12.7389
bstant	-12.739
▁centré	-12.7394
▁diminué	-12.7398
▁fructueu	-12.74
▁confirme	-12.7403
▁manifest	-12.7406
▁attribué	-12.7408
▁disparu	-12.7411
▁veille	-12.7418
▁ingérence	-12.7421
▁recul	-12.7428
▁vrai	-12.7429
▁désastreu	-12.7438
Bator	-12.7438
▁discrétion	-12.7438
▁intercongolais	-12.7438
▁printemps	-12.7438
▁péninsule	-12.7438
▁tellurique	-12.7438
▁ukrainien	-12.7438
alcool	-12.7438
▁Darfour	-12.7438
▁Manille	-12.7438
▁Mitch	-12.7438
▁chaîne	-12.7438
▁intercoréen	-12.7438
▁Hong	-12.7438
▁syndicats	-12.7438
époque	-12.7439
▁Kong	-12.7439
▁dissimuler	-12.7439
▁Élaborer	-12.7439
▁manœuvre	-12.7439
▁Nadi	-12.7439
▁biennaux	-12.7439
▁ouragans	-12.7439
▁profan	-12.7439
égime	-12.7439
▁admise	-12.744
▁aigu	-12.7442
▁résorb	-12.7442
▁promesses	-12.7442
▁sanctuaires	-12.7442
▁récréatives	-12.7442
▁synthétiques	-12.7442
▁allemand	-12.7443
▁hiérarchique	-12.7443
▁Relev	-12.7444
▁laboratoire	-12.7445
▁gérés	-12.7446
▁aboutissant	-12.7447
▁juris	-12.7448
ignon	-12.7448
accompagnement	-12.7449
▁comprennent	-12.7449
▁trouvée	-12.7451
▁exécutant	-12.7451
▁imprimé	-12.7455
▁contamination	-12.7456
▁garantit	-12.7456
▁dopage	-12.7459
▁gros	-12.7461
▁moyenne	-12.7461
▁Portée	-12.7463
▁Universit	-12.7464
▁attaché	-12.7466
angle	-12.7466
▁planétaires	-12.7468
▁chrétiens	-12.7468
▁Ox	-12.7469
▁mérite	-12.7471
▁audiovisuels	-12.7472
▁groupements	-12.7475
▁acquér	-12.7475
▁solidaire	-12.7475
Déclaration	-12.7484
▁soul	-12.7489
▁multinationale	-12.7489
▁séparés	-12.7489
Secrétariat	-12.7493
▁prison	-12.7494
▁arbitrales	-12.7494
réparer	-12.7494
▁compatibilité	-12.75
▁diffusés	-12.7501
▁auxiliaires	-12.7501
▁fract	-12.7501
▁normales	-12.7507
▁atout	-12.752
investissements	-12.7525
▁manuels	-12.7526
▁prompt	-12.7526
▁heurte	-12.7526
UNE	-12.7527
▁vitales	-12.7528
▁contra	-12.753
▁radiologiques	-12.7533
stations	-12.7533
▁accélér	-12.7534
▁préoccupé	-12.754
▁aggravées	-12.7541
nterdiction	-12.7542
arme	-12.7543
▁détenues	-12.7549
▁constatées	-12.7551
▁épidémies	-12.7552
▁endettement	-12.7553
no	-12.7557
▁Intensifi	-12.7558
▁ver	-12.756
▁Applica	-12.7561
▁Africains	-12.7569
arition	-12.7574
obligations	-12.7581
ivre	-12.7586
▁papiers	-12.7591
▁éminentes	-12.7595
▁frappe	-12.7599
to	-12.7608
▁persécutions	-12.761
▁pressions	-12.7612
penser	-12.7621
ures	-12.7623
▁vigoureu	-12.7625
▁occasionnée	-12.7631
▁souche	-12.7631
▁parraine	-12.7636
imposant	-12.7639
▁rempliss	-12.7639
rofessionnalisme	-12.7644
▁sphère	-12.7644
▁Favorise	-12.7655
▁soulevé	-12.7664
▁émis	-12.767
fs	-12.7685
▁retire	-12.7688
▁accueillir	-12.7695
▁rassembl	-12.7697
Inde	-12.7704
fond	-12.7722
ception	-12.7724
éleva	-12.7728
recours	-12.773
▁révisions	-12.7732
oise	-12.7739
▁véritables	-12.7741
▁senti	-12.7759
commissions	-12.7766
primer	-12.7766
▁préliminaires	-12.7767
ppuyer	-12.7769
▁progress	-12.7775
pulsion	-12.7779
Instrument	-12.7791
Contribution	-12.7791
▁souhaiter	-12.7798
▁inventaire	-12.78
douzième	-12.7806
appréciation	-12.7811
▁Conseill	-12.7817
▁supérieure	-12.782
assurant	-12.7825
▁Supp	-12.7825
entités	-12.7829
hiver	-12.7832
assassinat	-12.7833
Engagement	-12.7834
▁intervenu	-12.784
actualisation	-12.7842
▁atmosphère	-12.7842
ch	-12.7846
assister	-12.7847
START	-12.785
atmosphère	-12.7851
optimiser	-12.7851
▁Table	-12.7853
inciter	-12.7855
anéanti	-12.7862
apportent	-12.7878
antes	-12.7885
▁échéance	-12.7886
ga	-12.7892
ot	-12.7895
viol	-12.7897
▁signal	-12.7915
▁combattants	-12.7935
▁travaill	-12.7942
▁accepte	-12.7945
attaques	-12.7948
professionnelles	-12.7956
▁signale	-12.7967
▁élevée	-12.7974
affili	-12.7978
ner	-12.7979
intensifient	-12.7988
▁implique	-12.7993
▁nuis	-12.8011
▁présidé	-12.8011
▁présumée	-12.8022
ao	-12.8027
▁négocié	-12.8034
▁spirituel	-12.8035
▁spécialisé	-12.8045
espèce	-12.8053
▁inhérente	-12.8054
▁fédéral	-12.8064
▁poursuivie	-12.8065
rie	-12.8066
▁mobilisa	-12.8066
▁voter	-12.8076
▁atteste	-12.8082
lant	-12.8096
avi	-12.8105
▁stationn	-12.8107
▁adapté	-12.8124
▁satisfait	-12.813
▁transitoires	-12.8143
▁paraisse	-12.8147
lo	-12.8149
▁provoquée	-12.816
annex	-12.8161
difier	-12.8171
▁désignée	-12.8175
bles	-12.8179
mbre	-12.8183
▁artisanale	-12.8184
▁aérien	-12.8185
▁informel	-12.8188
▁Chambre	-12.819
▁foncier	-12.8192
▁candidature	-12.8192
▁propriétaire	-12.8192
▁mutilation	-12.8193
▁juriste	-12.8193
▁observée	-12.8194
secrétaire	-12.8197
associ	-12.8197
▁aggraver	-12.8203
▁renseignement	-12.8206
xamen	-12.8211
▁prolongée	-12.8218
▁accompagnée	-12.8226
▁confie	-12.8228
▁Personne	-12.823
▁Kana	-12.8238
▁manquer	-12.8244
▁classé	-12.8246
▁attachée	-12.8247
▁libanais	-12.8253
présidents	-12.8258
Adopté	-12.8264
uniformis	-12.8267
▁assumé	-12.8267
▁concurrent	-12.827
▁Puebla	-12.8272
▁subaquatique	-12.8272
antisémitisme	-12.8272
universalisation	-12.8272
▁Palerme	-12.8272
▁coréenne	-12.8272
▁exhaustif	-12.8272
▁flagellation	-12.8272
▁hydrotherma	-12.8272
▁inestimable	-12.8272
▁inhalées	-12.8272
▁lapidation	-12.8272
▁maturité	-12.8272
▁Lomé	-12.8272
▁géologiques	-12.8272
▁douanière	-12.8272
illicéité	-12.8272
▁impartiaux	-12.8272
▁couloir	-12.8272
unanim	-12.8272
▁libérien	-12.8272
▁verbale	-12.8272
▁Modification	-12.8272
▁fragilité	-12.8272
▁qualitative	-12.8272
him	-12.8273
▁adhérant	-12.8273
▁circulaire	-12.8273
▁durabilité	-12.8273
▁espèce	-12.8274
▁dépist	-12.8274
▁viii	-12.8274
▁semblable	-12.8274
▁soumettent	-12.8275
Guerre	-12.8275
▁Veiller	-12.8275
▁maintiennent	-12.8275
▁délinquance	-12.8275
▁consommateur	-12.8276
▁majoration	-12.8276
▁veuves	-12.8276
▁formalités	-12.8276
▁bidirectionnels	-12.8276
ouvrages	-12.8277
▁bientôt	-12.8277
▁normative	-12.8277
▁dispensant	-12.8278
▁coutumier	-12.8278
élév	-12.8279
▁précités	-12.8281
▁prohibiti	-12.8281
▁établisse	-12.8283
▁détruits	-12.8284
▁dégagées	-12.8284
élire	-12.8284
▁préconisées	-12.8288
▁carence	-12.8289
▁opérant	-12.829
▁biotechnologie	-12.829
▁efficiente	-12.8292
▁profitable	-12.8296
gie	-12.8297
▁Modalités	-12.8298
▁Mondialisation	-12.8298
▁incluent	-12.83
entrer	-12.8305
▁imminente	-12.8306
▁déduction	-12.8312
▁neutrali	-12.8312
▁fructueuse	-12.8313
▁traditionnelle	-12.8314
▁payable	-12.8315
avère	-12.8316
▁Migration	-12.8318
▁valid	-12.8329
▁orales	-12.8334
▁douanes	-12.8339
▁somaliennes	-12.8339
▁jugent	-12.8344
▁prolongé	-12.8345
▁do	-12.8345
▁formels	-12.8346
▁consécutives	-12.8346
opérer	-12.8347
▁salle	-12.8351
aura	-12.8368
▁attachées	-12.837
▁croi	-12.8374
▁transférés	-12.8382
▁converti	-12.8385
▁assigné	-12.8387
▁exploitants	-12.8388
▁pluralistes	-12.8388
▁Procédure	-12.8389
▁passant	-12.8392
tissent	-12.8407
▁représentatifs	-12.841
▁octroyé	-12.8424
▁relevé	-12.8431
▁Non	-12.8432
▁exigence	-12.8433
▁reçue	-12.8436
▁pénitentiaires	-12.8438
▁perfectionner	-12.8446
engendrer	-12.845
▁import	-12.8453
▁réinstall	-12.8467
▁abusi	-12.8471
luridimensionnel	-12.848
▁individuelles	-12.8485
▁noire	-12.8487
ouan	-12.8487
▁progressifs	-12.8488
▁appuyés	-12.8491
▁appareil	-12.8492
▁sollicite	-12.8492
▁Survi	-12.8493
▁vérifiables	-12.8503
▁directes	-12.8513
ER	-12.8514
▁écosystémiques	-12.8523
▁contractants	-12.8531
▁divergen	-12.8541
▁rapporteur	-12.8544
app	-12.856
▁intervalle	-12.8567
▁suspect	-12.8569
▁disc	-12.8571
Ouganda	-12.8588
î	-12.8589
▁reprises	-12.8601
▁libéré	-12.8607
▁peur	-12.8611
▁clair	-12.8621
ins	-12.8623
projet	-12.8626
▁prétendu	-12.8629
aggravent	-12.8646
Coopération	-12.8667
si	-12.867
▁Résolution	-12.8674
▁questionnaire	-12.8675
excédent	-12.8677
▁Université	-12.8686
▁Pratique	-12.8692
nsemble	-12.8692
▁livr	-12.8694
école	-12.8699
▁quoi	-12.8699
▁multiplié	-12.8704
▁réduite	-12.8708
▁achevée	-12.8713
▁optimiser	-12.8713
its	-12.8716
▁jointe	-12.872
ages	-12.8724
emprisonnement	-12.8724
paiement	-12.8728
▁réussie	-12.873
actuel	-12.8739
▁asile	-12.8743
▁aidera	-12.8747
Désarmement	-12.8748
intervenir	-12.8752
▁caractéris	-12.8757
étoffer	-12.8758
manent	-12.8763
▁actives	-12.8764
éruption	-12.8768
▁injustifiée	-12.8775
▁pérennis	-12.8779
investigation	-12.8784
▁entériné	-12.8789
▁développent	-12.8794
▁terminée	-12.8797
nement	-12.8801
ras	-12.8809
ia	-12.8814
▁correspond	-12.8835
▁déroul	-12.8836
intéressé	-12.884
▁surcapacité	-12.8846
▁interprétée	-12.8846
uté	-12.8857
▁prolonge	-12.8872
mputation	-12.8877
tions	-12.8878
▁reflét	-12.8898
▁comporter	-12.8898
▁rés	-12.89
sert	-12.8917
offres	-12.8918
environnementale	-12.8919
outefois	-12.8929
▁routes	-12.8929
anc	-12.8932
▁exception	-12.8934
▁surexploité	-12.8935
arbitres	-12.8941
▁imp	-12.895
▁demeur	-12.8961
aut	-12.8964
orbit	-12.8965
▁trace	-12.8967
po	-12.8968
cevoir	-12.897
▁pacte	-12.897
▁désire	-12.8983
armi	-12.899
▁ressource	-12.9004
▁déstabilise	-12.9018
▁interdépendante	-12.902
▁frein	-12.9022
▁post	-12.9023
▁influe	-12.903
▁exécuté	-12.9038
▁prima	-12.9041
▁génér	-12.9046
▁Pre	-12.9056
classement	-12.9058
▁dispos	-12.9058
traitant	-12.9063
▁restrictive	-12.9071
▁candidat	-12.9074
▁dirigeant	-12.9075
▁nazi	-12.908
armement	-12.9085
▁flotte	-12.9089
▁interculturel	-12.9095
▁coopér	-12.9096
▁involontaire	-12.91
▁consécutive	-12.91
▁sommaire	-12.9101
▁consulaire	-12.9101
▁carrière	-12.9101
▁génitale	-12.9101
▁croyance	-12.9101
▁régulier	-12.9102
▁étudiant	-12.9107
▁perdu	-12.9112
▁Ville	-12.9113
▁carte	-12.9114
explosif	-12.9116
▁délit	-12.9118
▁réform	-12.9119
opèrent	-12.9128
roisième	-12.9128
urement	-12.9131
▁Préoccupé	-12.9137
▁aboutisse	-12.9152
pécialiste	-12.916
▁possède	-12.9173
▁simultané	-12.9173
▁résol	-12.9177
intersession	-12.9178
islam	-12.918
saharienne	-12.9181
albatros	-12.9181
▁Commonwealth	-12.9181
▁obstétriques	-12.9181
▁obéir	-12.9181
▁toxiques	-12.9181
homogénéi	-12.9181
▁courrier	-12.9181
▁dissémin	-12.9181
▁guère	-12.9181
▁antirétroviraux	-12.9181
▁impossible	-12.9181
▁détenteurs	-12.9181
▁Créer	-12.9181
ibéro	-12.9181
▁dissimulation	-12.9181
▁démobiliser	-12.9181
▁variété	-12.9181
▁ravage	-12.9181
▁restructurer	-12.9181
▁uniformisé	-12.9182
▁malades	-12.9182
raignant	-12.9182
▁promouvant	-12.9182
▁repérer	-12.9182
▁avance	-12.9183
▁punissable	-12.9183
XXXV	-12.9183
▁différée	-12.9184
▁Shan	-12.9184
▁recouvrer	-12.9185
▁normatif	-12.9185
▁correctives	-12.9185
▁consentent	-12.9185
▁aviaire	-12.9186
▁terminologie	-12.9186
▁suisse	-12.9187
▁masse	-12.9188
▁vitaux	-12.9188
▁investigations	-12.9189
▁composent	-12.9189
▁multiplier	-12.919
▁gratuitement	-12.9191
▁restreign	-12.9191
▁préoccuper	-12.9191
▁provoquent	-12.9192
▁réévaluer	-12.9193
▁conservent	-12.9193
▁cruelles	-12.9193
▁intensifiant	-12.9196
▁pulvérisation	-12.9196
▁matrice	-12.9196
ernement	-12.9197
▁épuisés	-12.9201
▁incorporées	-12.9205
▁pratiquées	-12.9207
ods	-12.9208
▁évitables	-12.9209
▁comptables	-12.9209
▁rappelé	-12.9211
▁traduites	-12.9228
▁assume	-12.9228
▁dues	-12.9229
▁qualifiées	-12.9232
▁opère	-12.9234
▁responsabili	-12.9235
▁découle	-12.9236
▁élaborée	-12.9237
▁détenue	-12.9237
▁éthique	-12.924
▁livre	-12.9246
▁généraliser	-12.9246
▁ponctuelle	-12.9247
▁conventionnels	-12.9249
▁libère	-12.9254
▁éminent	-12.9257
XXIII	-12.9262
▁contaminé	-12.9263
▁prénatals	-12.9264
▁transformé	-12.9264
▁précisant	-12.9269
▁mentionnée	-12.927
▁carrières	-12.927
▁appellent	-12.9276
▁Consultation	-12.9279
▁vert	-12.9289
▁prochainement	-12.9295
▁avenues	-12.93
hronique	-12.9301
▁explicati	-12.9301
▁opposée	-12.9305
k	-12.9312
▁aidé	-12.932
▁pair	-12.9322
▁inculque	-12.9322
▁rues	-12.9327
▁exclus	-12.9328
▁crédibles	-12.9333
▁habitat	-12.9341
atif	-12.9355
ni	-12.9355
onais	-12.9356
tress	-12.9358
▁ouvre	-12.9361
▁Ga	-12.9361
▁jugée	-12.9362
▁requêtes	-12.9364
▁destin	-12.9364
africaine	-12.937
▁majeures	-12.9371
▁intègrent	-12.9374
▁cohérents	-12.9375
▁régir	-12.9381
réna	-12.9388
▁conçue	-12.939
ualité	-12.9393
oté	-12.9395
Finlande	-12.9403
▁constata	-12.9405
▁excessives	-12.941
▁invitées	-12.941
▁explorer	-12.9413
implique	-12.9426
voyant	-12.9435
▁Mi	-12.9456
▁multipli	-12.9462
lliance	-12.9468
invent	-12.947
▁arrête	-12.9471
ablement	-12.9471
▁bord	-12.9472
▁vivres	-12.9491
▁nourri	-12.9493
grégat	-12.9494
▁Catégorie	-12.95
▁Sou	-12.9509
appliquera	-12.9516
▁résumés	-12.9526
▁systémique	-12.9529
atrices	-12.9532
▁traversé	-12.9534
nséquences	-12.9534
enregistrer	-12.9537
étroits	-12.9551
▁disproportionné	-12.9552
▁placée	-12.9579
enquêt	-12.9589
▁exceptionnels	-12.9591
berg	-12.96
▁existante	-12.9608
▁handicaps	-12.9609
nos	-12.9612
▁affaire	-12.9618
ptes	-12.9621
perçu	-12.9624
▁témoign	-12.9627
wa	-12.9629
XI	-12.9631
▁offres	-12.9645
▁stabilise	-12.9652
apprendre	-12.9653
armements	-12.9662
▁financièrement	-12.9662
indice	-12.9677
▁expresse	-12.9683
VI	-12.9696
▁étaye	-12.9696
▁intellectuelles	-12.9699
▁Sup	-12.97
attente	-12.9702
individu	-12.9702
actuelle	-12.9705
attitude	-12.9706
prennent	-12.9726
outil	-12.9728
inventaire	-12.973
hydrocarbures	-12.9738
engins	-12.9742
▁empêché	-12.9748
additif	-12.9753
intensité	-12.9753
opium	-12.9755
environ	-12.9756
▁origines	-12.9756
▁originale	-12.976
▁rencontr	-12.978
affin	-12.9787
▁théorie	-12.9789
incidents	-12.9791
▁Garanti	-12.9793
disproportionnée	-12.9797
expulsion	-12.98
▁faibles	-12.98
▁allégement	-12.9813
▁sanction	-12.982
▁socialiste	-12.9823
▁espè	-12.9827
unissent	-12.9831
signés	-12.9832
▁forment	-12.9842
for	-12.9858
nes	-12.9867
ignent	-12.9872
▁contrôlé	-12.9873
▁puissant	-12.9875
▁régis	-12.9877
▁Bien	-12.9878
tr	-12.9883
inspire	-12.9886
années	-12.9887
▁nul	-12.9888
archiv	-12.9889
position	-12.989
▁Hé	-12.9892
▁dialogues	-12.9892
Étud	-12.9894
▁remis	-12.9897
▁équivalente	-12.9897
aliment	-12.9901
▁solennel	-12.9902
▁Espa	-12.9917
▁Mobilis	-12.9922
▁viole	-12.9924
▁sanctionn	-12.9932
▁entendre	-12.9936
itère	-12.9941
▁évaluée	-12.9941
anciens	-12.9954
▁mentionne	-12.9956
▁viendra	-12.9956
▁ancien	-12.996
▁commencera	-12.9993
▁conserve	-12.9997
renouvelable	-13.0012
extraterritorial	-13.0034
▁ciblé	-13.0037
▁énergie	-13.0039
▁formé	-13.0051
duction	-13.0056
affectent	-13.0059
▁soumet	-13.0063
▁unitaire	-13.0071
▁mercenaire	-13.0072
droit	-13.0087
inter	-13.009
▁insoutenable	-13.0093
▁djiboutien	-13.0095
▁actuarielle	-13.0096
▁faiblesse	-13.0098
▁témoignage	-13.0099
▁fidèle	-13.0099
▁bref	-13.01
▁douane	-13.0101
▁tributaire	-13.0101
▁officieuse	-13.0101
▁séquestration	-13.0101
▁civique	-13.0103
▁requin	-13.0104
▁dons	-13.0104
▁somalienne	-13.0105
▁client	-13.0109
▁constatation	-13.0109
▁chance	-13.0111
▁mère	-13.0112
▁posé	-13.0117
tiendront	-13.012
▁devenue	-13.0127
▁sé	-13.0133
▁sectorielle	-13.0138
▁imminent	-13.014
▁rendement	-13.0143
seiz	-13.0143
▁insuffisant	-13.0144
am	-13.0145
▁infection	-13.0146
▁connue	-13.0146
▁Al	-13.0146
▁contract	-13.0154
ûreté	-13.016
▁ferai	-13.0162
▁Né	-13.017
▁actuariel	-13.017
▁génération	-13.0174
th	-13.0174
épenses	-13.0176
gues	-13.0179
inadmissib	-13.0181
islamophobie	-13.0181
Évian	-13.0181
▁Beyrouth	-13.0181
▁Conakry	-13.0181
▁FishCode	-13.0181
▁Ghounaym	-13.0181
▁Kampuch	-13.0181
▁Lisbonne	-13.0181
▁Mérida	-13.0181
▁Rafah	-13.0181
▁Reykjavik	-13.0181
▁Sarajevo	-13.0181
▁Shanghai	-13.0181
▁bouleversement	-13.0181
▁grossesse	-13.0181
▁hybride	-13.0181
▁mongol	-13.0181
▁postnatals	-13.0181
▁proximité	-13.0181
▁thaïlandais	-13.0181
extinction	-13.0181
▁Luanda	-13.0181
▁commémorative	-13.0181
▁inspecteurs	-13.0181
▁reconduction	-13.0181
▁appartiennent	-13.0181
▁démarrage	-13.0181
▁nuisibles	-13.0181
afg	-13.0181
Ancien	-13.0181
▁dispersion	-13.0181
▁impérieuse	-13.0181
▁Tribunaux	-13.0181
▁Ressources	-13.0181
▁quartier	-13.0181
▁Report	-13.0181
▁déboisement	-13.0181
stice	-13.0181
▁Formation	-13.0181
▁explosées	-13.0181
▁poly	-13.0182
▁régénération	-13.0182
▁usagers	-13.0182
indemniser	-13.0183
▁indirecte	-13.0184
▁généreux	-13.0184
▁circuler	-13.0184
▁prétendre	-13.0185
▁conduis	-13.0185
▁menacés	-13.0186
▁vitale	-13.0186
▁exagér	-13.0186
▁attentif	-13.0186
▁tests	-13.0186
▁conjonct	-13.0186
▁nettoy	-13.0187
▁montagnardes	-13.0187
▁dépassent	-13.0187
▁entravé	-13.0188
▁cultivées	-13.0188
▁reclassement	-13.0188
▁gratuité	-13.0189
▁neutre	-13.0189
▁rapts	-13.0189
▁invasi	-13.0189
▁tableaux	-13.019
tandis	-13.0191
▁attribuée	-13.0192
▁proclame	-13.0193
▁préoccupent	-13.0193
▁parole	-13.0193
▁onz	-13.0193
décentralisation	-13.0197
▁exigeantes	-13.0198
▁observés	-13.0198
▁vienne	-13.02
▁pairs	-13.0201
▁Donner	-13.0203
▁poursuivront	-13.0203
▁Lutte	-13.0206
ichier	-13.0207
▁inclus	-13.0208
▁contiendra	-13.0208
▁fronts	-13.021
▁répressives	-13.0211
▁inversement	-13.0213
▁différenciées	-13.0213
▁ferro	-13.0213
échéance	-13.0214
▁Respecter	-13.0214
▁susmentionnée	-13.0214
ctuaire	-13.0215
▁récoltes	-13.022
▁médecins	-13.022
ormes	-13.0221
▁remplacé	-13.0224
Introduction	-13.0231
▁aggravés	-13.0236
▁coordonn	-13.0236
▁satisfaisants	-13.024
bien	-13.024
▁exigées	-13.0256
▁accueillent	-13.0258
▁Contrôle	-13.026
▁obtienne	-13.026
▁confiée	-13.026
annonce	-13.026
▁brefs	-13.0262
▁comptabilisé	-13.0263
▁exigeant	-13.0271
▁Décisions	-13.0271
▁améliorent	-13.0271
DP	-13.0273
▁clandestins	-13.0274
▁subsiste	-13.0281
▁acceptée	-13.0288
▁résistant	-13.0295
dra	-13.0298
▁regagne	-13.0299
▁incapacités	-13.0306
▁cyclones	-13.0306
▁Science	-13.0307
▁représentatives	-13.0307
▁Élimin	-13.0308
▁parution	-13.0311
vironnementales	-13.0312
▁réacteur	-13.0314
▁litiges	-13.0315
▁réclamations	-13.0316
nium	-13.0316
▁agence	-13.0316
▁habilitée	-13.0318
ais	-13.0321
▁seuil	-13.0325
▁raci	-13.0327
▁constituera	-13.0327
▁élues	-13.0327
▁subven	-13.0334
▁comp	-13.0341
iz	-13.0342
▁révéler	-13.0342
▁creuse	-13.0343
▁sûre	-13.0344
RM	-13.0347
▁ouvrent	-13.036
▁erreur	-13.0361
▁antis	-13.0363
▁filières	-13.0366
▁ancienne	-13.0367
dommage	-13.0377
▁convenables	-13.0379
▁gagner	-13.0399
▁constituai	-13.0418
▁bénéficia	-13.0421
▁accept	-13.0429
▁satisfaites	-13.0431
▁équipe	-13.0433
dimensionnelle	-13.0434
▁commande	-13.0439
▁guides	-13.044
aci	-13.0449
▁opportune	-13.0451
France	-13.0452
▁adoptera	-13.0453
▁coordonne	-13.0459
▁annonc	-13.0461
Espagne	-13.0465
▁soudanaise	-13.0467
▁fréquent	-13.0468
mission	-13.0471
▁réputée	-13.0479
ifier	-13.0483
odèle	-13.0494
▁demandera	-13.0494
▁élargissement	-13.0497
▁humanité	-13.0506
▁pluriannuelle	-13.051
▁Objectifs	-13.0512
ravaux	-13.0512
hél	-13.0514
ix	-13.0522
▁hiérarchis	-13.0522
uvées	-13.0532
▁référendums	-13.054
▁déboucher	-13.0545
▁médecine	-13.055
▁salles	-13.0557
▁affirmée	-13.0561
▁retrouve	-13.0566
▁regrett	-13.0574
▁dépasser	-13.0587
Azerbaïdjan	-13.0591
nvoquer	-13.0591
équat	-13.0596
inces	-13.0623
os	-13.0631
nent	-13.0633
rées	-13.0636
▁orienté	-13.0639
▁diversifié	-13.0648
▁injustifié	-13.0649
effectif	-13.0663
rap	-13.0669
▁potentiels	-13.0673
tiennent	-13.0677
▁soign	-13.0679
▁parlement	-13.0701
durée	-13.0705
atteinte	-13.0706
lever	-13.0709
▁Premi	-13.0715
corrigé	-13.0745
▁développé	-13.0751
▁laisse	-13.0754
▁développe	-13.0756
bres	-13.0761
▁réserv	-13.0772
▁cité	-13.0774
mportant	-13.0776
expertise	-13.0778
▁appuyée	-13.0789
▁réactions	-13.0794
▁web	-13.0796
étend	-13.0797
Cadre	-13.0799
▁Or	-13.08
▁rédigé	-13.0804
▁suscite	-13.0804
apporte	-13.0805
▁exclusion	-13.0814
▁limitations	-13.0832
▁transmet	-13.0833
bou	-13.0834
▁rég	-13.0836
posant	-13.0836
avantages	-13.0849
bal	-13.0851
▁Adress	-13.0852
▁pire	-13.0852
▁grandissante	-13.0857
étudiants	-13.0861
LEG	-13.0864
accompagnent	-13.0869
exploitant	-13.0881
▁lourd	-13.0894
▁occasions	-13.0904
immenses	-13.0906
iberté	-13.0906
▁estimation	-13.0911
connaître	-13.0932
aines	-13.0938
▁mar	-13.0959
▁périodi	-13.096
▁prive	-13.0965
interventions	-13.097
onditions	-13.0971
▁adresser	-13.0979
▁expériences	-13.0996
▁réaffect	-13.1014
utre	-13.1029
abroge	-13.103
çant	-13.1048
tentiaires	-13.1049
régions	-13.1052
▁rationnel	-13.1072
▁réclam	-13.1073
▁é	-13.1074
▁reproduit	-13.1082
▁investi	-13.1083
ois	-13.1101
▁préserva	-13.1103
▁inspirer	-13.1104
▁équilibré	-13.1108
▁enquêt	-13.1116
▁ultérieur	-13.1119
nification	-13.112
itude	-13.1121
MS	-13.1121
▁définitions	-13.1128
▁accompagné	-13.1133
orienter	-13.1136
▁Agenda	-13.1139
▁promis	-13.1143
itre	-13.1146
▁programmée	-13.1156
▁diffusé	-13.1156
▁formel	-13.1158
▁mobilisé	-13.1164
rise	-13.1164
.»	-13.1175
▁prospecti	-13.1183
▁Caraïbe	-13.1187
AI	-13.1191
▁exhort	-13.1199
▁difficulté	-13.1202
▁rapproch	-13.1202
▁exposer	-13.1206
▁Opération	-13.1209
▁coopérative	-13.121
▁proclamés	-13.1211
▁aboli	-13.1211
▁énergétique	-13.1212
▁meurtre	-13.1212
▁présidentielle	-13.1213
▁multiple	-13.1219
achats	-13.1219
▁satisfaisante	-13.1221
▁repris	-13.1222
▁marginalisé	-13.1225
doption	-13.1226
▁correspondante	-13.1227
▁massacre	-13.1228
▁aveugl	-13.1231
▁suffi	-13.1232
injustice	-13.1245
cep	-13.1246
arrach	-13.1251
▁privilégié	-13.1252
▁acqui	-13.1259
viennent	-13.1263
palestiniens	-13.1266
scence	-13.1269
ynergies	-13.1271
allait	-13.1273
▁aspect	-13.1277
▁incendi	-13.1277
▁précède	-13.1281
▁poussé	-13.1284
▁Échange	-13.1284
▁tardive	-13.1284
extrade	-13.1289
▁cartographi	-13.1292
thérapies	-13.1292
▁Kampala	-13.1292
▁réfection	-13.1292
Holocauste	-13.1292
extrémisme	-13.1292
interrogatoire	-13.1292
▁Sensibilisation	-13.1292
▁alternatif	-13.1292
▁astronomique	-13.1292
▁brimades	-13.1292
▁diabète	-13.1292
▁divulgation	-13.1292
▁kanake	-13.1292
▁kazakh	-13.1292
▁minutes	-13.1292
▁riverains	-13.1292
▁stagiaires	-13.1292
▁sunnites	-13.1292
▁auparavant	-13.1292
▁impropre	-13.1292
▁nutritifs	-13.1292
▁inégaux	-13.1292
▁impunis	-13.1292
▁fiscaux	-13.1292
▁opportunistes	-13.1292
XXXVI	-13.1292
▁diagnostic	-13.1292
encadrement	-13.1292
▁séquelles	-13.1292
orld	-13.1292
▁réhabilitation	-13.1292
▁aquatique	-13.1292
▁compenser	-13.1292
▁persuadé	-13.1292
▁affiliés	-13.1293
▁canal	-13.1293
▁souscrire	-13.1294
▁centraliser	-13.1294
▁inédit	-13.1294
XXXVII	-13.1294
▁reliés	-13.1294
▁démobilisés	-13.1295
▁étatique	-13.1295
▁rassemblées	-13.1295
▁perpétuer	-13.1295
abstienne	-13.1295
▁ressortir	-13.1295
▁exclusif	-13.1295
amputation	-13.1296
▁recueillies	-13.1296
▁juifs	-13.1296
▁diminuer	-13.1297
▁détenir	-13.1297
▁référ	-13.1297
▁frauduleuses	-13.1298
▁séropositifs	-13.1298
▁montagneux	-13.1298
régularité	-13.1298
▁International	-13.1299
▁incorporant	-13.1299
▁détachement	-13.1299
▁vendre	-13.13
▁exportés	-13.13
ball	-13.1301
▁escomptés	-13.1301
▁appréciant	-13.1302
▁remplit	-13.1302
▁remboursable	-13.1303
▁haïtienne	-13.1303
▁justifiées	-13.1303
▁polluantes	-13.1305
instaure	-13.1306
▁dépassement	-13.1306
▁réclama	-13.1306
▁refusée	-13.1306
▁parasite	-13.1307
Art	-13.1308
▁judicieusement	-13.1309
▁habituellement	-13.1314
▁éduqu	-13.1315
▁monuments	-13.1317
▁acquittée	-13.1318
▁nomade	-13.1318
▁contractuelles	-13.1319
ainsi	-13.132
▁Législation	-13.132
ama	-13.132
▁antérieur	-13.1323
▁combiné	-13.1323
▁signalées	-13.1325
sistance	-13.1326
▁hôpitaux	-13.1326
▁Accroître	-13.1328
▁cultiv	-13.1329
▁motivées	-13.133
▁justification	-13.1331
▁regrouper	-13.1334
▁surveillée	-13.1335
licite	-13.1336
▁délibérées	-13.134
▁désarmementD	-13.1341
▁violés	-13.1345
▁avancée	-13.1348
▁réponda	-13.1349
▁quotas	-13.135
▁municipales	-13.135
▁autoris	-13.1353
▁OC	-13.1353
appelant	-13.1354
▁coopératifs	-13.1355
▁sauvages	-13.1355
uverture	-13.1365
▁temporairement	-13.1366
▁Demand	-13.1366
rage	-13.1367
▁réaffectation	-13.1371
▁irrégularité	-13.1377
▁Islamabad	-13.1377
▁location	-13.1383
téléenseignement	-13.1385
▁aggravante	-13.1387
ka	-13.1388
▁extrabudgétaire	-13.1389
▁fermes	-13.139
▁basée	-13.1398
exclu	-13.14
▁complice	-13.1402
▁Désign	-13.1404
▁déblo	-13.1409
inquiétant	-13.141
processus	-13.1416
rupt	-13.1418
idéa	-13.1422
▁innocents	-13.1434
▁insuffisantes	-13.1442
▁opérée	-13.1443
▁exhaustives	-13.1443
ves	-13.1446
▁Me	-13.1447
iguïté	-13.1451
associations	-13.1452
▁codifi	-13.1454
▁réagi	-13.1456
▁impératives	-13.1459
▁étudié	-13.1461
▁ordonnée	-13.1462
▁hydro	-13.1478
▁aéroport	-13.1481
▁Ku	-13.1483
ouis	-13.1489
▁capturé	-13.1491
ieux	-13.1491
▁Greffe	-13.1496
▁passées	-13.1507
approuvant	-13.151
▁immédiats	-13.1511
▁épaule	-13.152
▁promise	-13.152
▁décident	-13.1522
▁introduite	-13.1528
ofond	-13.1537
▁emprunt	-13.1539
▁soupçonnée	-13.154
▁nég	-13.1541
▁prêté	-13.1542
▁européens	-13.1548
▁Te	-13.1555
▁dot	-13.1568
user	-13.1573
▁réduits	-13.1575
rs	-13.1577
tabiliser	-13.1578
uré	-13.1583
▁industriels	-13.1583
▁affin	-13.1584
▁affront	-13.159
▁rembourse	-13.1599
▁accomplissent	-13.1599
ute	-13.1618
▁sortie	-13.1621
▁médic	-13.1621
▁instaur	-13.1622
national	-13.1635
▁heurts	-13.1639
▁cru	-13.1647
octobre	-13.1654
▁incont	-13.1662
▁concluant	-13.1663
acu	-13.1665
ilatéraux	-13.1669
▁faute	-13.167
privé	-13.1677
▁administrent	-13.1678
andat	-13.1702
▁Anguilla	-13.1703
▁Enfant	-13.1713
Australie	-13.1734
ispositif	-13.1746
▁grandissant	-13.176
▁mentales	-13.1761
▁Ji	-13.1763
▁impliqué	-13.1775
▁rempli	-13.1778
oubles	-13.1786
istes	-13.1793
ala	-13.1794
▁aisé	-13.1798
▁majorée	-13.1801
exprim	-13.1802
ibles	-13.1805
▁maison	-13.1809
▁inutile	-13.1812
ntégration	-13.182
▁jugements	-13.184
▁rendra	-13.1843
▁proclam	-13.1846
▁psychosocial	-13.1862
inistère	-13.1879
▁traductions	-13.1883
ouches	-13.189
▁START	-13.1892
▁ouvr	-13.1903
▁bi	-13.1905
▁parrainé	-13.1907
raz	-13.1909
rgouvernementaux	-13.1921
obsta	-13.1931
▁atte	-13.1935
▁Plu	-13.1936
Ouzbékistan	-13.1952
▁appréciation	-13.1954
▁franchi	-13.196
affermi	-13.1973
▁ob	-13.1986
accentue	-13.1987
▁adven	-13.1988
▁Oo	-13.1998
em	-13.2002
▁connaisse	-13.2004
Siège	-13.2019
abrog	-13.2023
eu	-13.2033
Paris	-13.2036
étroite	-13.2038
▁accroisse	-13.2062
▁administr	-13.2064
▁nui	-13.2074
paragraphe	-13.2075
▁majoré	-13.2076
XII	-13.209
étroites	-13.209
ratoire	-13.2094
▁polyvalent	-13.2099
▁soupçonne	-13.2102
intervalle	-13.2106
▁paritaire	-13.2107
approfondir	-13.211
Catégorie	-13.2112
▁existence	-13.2114
entraînent	-13.2116
équivalent	-13.2116
anglais	-13.212
emprunts	-13.2124
▁intensifié	-13.2125
analyses	-13.2134
iens	-13.2136
voient	-13.2139
if	-13.2144
▁parvenue	-13.2148
africain	-13.2149
▁consulte	-13.215
libérant	-13.2154
▁nécessiter	-13.2155
avancer	-13.2168
▁indiquée	-13.2169
▁abri	-13.2174
Appel	-13.2184
assimil	-13.2187
▁impunité	-13.2193
atteintes	-13.2207
▁déguis	-13.2215
épondre	-13.2242
astre	-13.2244
lais	-13.2247
▁jur	-13.2247
▁intensifi	-13.2254
alais	-13.2262
Conformément	-13.2269
Mis	-13.2272
ordonnent	-13.2272
▁scolaris	-13.2273
▁Ferme	-13.2285
▁coll	-13.2288
▁entreprend	-13.2294
▁tente	-13.2306
▁tend	-13.2308
▁siége	-13.231
▁caus	-13.2312
▁avanc	-13.2317
▁Médiat	-13.232
▁convoque	-13.2325
enaire	-13.2325
▁fonde	-13.2327
édifi	-13.2332
▁affronte	-13.2338
▁rapporter	-13.2342
▁abordé	-13.2347
▁ventil	-13.2359
allée	-13.2373
▁significati	-13.238
tombée	-13.2382
▁appréhende	-13.2385
considérer	-13.2388
▁ST	-13.2394
▁harmonisation	-13.2397
▁fra	-13.24
▁nation	-13.242
▁Invit	-13.2423
kh	-13.2426
▁and	-13.2428
ma	-13.2433
▁fil	-13.2435
▁fille	-13.2438
▁destinataire	-13.2441
▁image	-13.2446
▁sectoriel	-13.2448
TB	-13.2449
▁séparé	-13.2452
▁respectif	-13.2453
▁irrégulière	-13.2454
▁perturbation	-13.2455
▁négligeable	-13.2456
▁terroriste	-13.2458
▁potentielle	-13.246
▁forestière	-13.2461
▁indivisible	-13.2462
▁pharmaceutique	-13.2462
▁forestier	-13.2462
▁universitaire	-13.2462
▁migratoire	-13.2462
▁procureur	-13.2462
▁éducative	-13.2462
▁interactive	-13.2463
▁q	-13.2466
fforts	-13.2467
▁gérée	-13.2468
▁loisir	-13.2468
▁coopératif	-13.2473
▁concession	-13.2484
▁arbitrale	-13.2486
▁précédé	-13.2486
utilise	-13.249
▁convainc	-13.2494
▁oral	-13.2497
▁don	-13.2501
▁insist	-13.2503
▁expression	-13.2504
▁régie	-13.2509
▁assum	-13.2512
▁normale	-13.2515
férer	-13.252
▁contraint	-13.2522
▁contemporain	-13.2525
isions	-13.2529
▁coparrain	-13.2536
▁amendé	-13.2537
▁polluant	-13.2538
incarcération	-13.2538
igueur	-13.2541
▁Carthag	-13.2542
UNITAID	-13.2542
entreposage	-13.2542
excellence	-13.2542
▁Bagdad	-13.2542
▁Brazzaville	-13.2542
▁Bujumbura	-13.2542
▁Cabinet	-13.2542
▁Douchanbé	-13.2542
▁Guayaquil	-13.2542
▁Majuro	-13.2542
▁agriculteurs	-13.2542
▁brésilien	-13.2542
▁chilien	-13.2542
▁instantané	-13.2542
▁passionnels	-13.2542
▁retransmission	-13.2542
▁réputation	-13.2542
▁succinct	-13.2542
▁tarifs	-13.2542
▁épaves	-13.2542
▁équatorien	-13.2542
▁Kurdes	-13.2542
▁Malabo	-13.2542
▁archéologique	-13.2542
▁fécond	-13.2542
autorévision	-13.2542
▁spontané	-13.2542
▁district	-13.2542
▁bétail	-13.2542
▁survenance	-13.2542
▁combinaison	-13.2542
▁réversion	-13.2542
▁tacite	-13.2542
▁destructeurs	-13.2542
▁fidélisation	-13.2542
▁gracieux	-13.2542
▁descendants	-13.2542
▁Champ	-13.2542
▁pernicieux	-13.2542
▁contingentement	-13.2542
▁inaugurale	-13.2542
▁révélation	-13.2542
autisme	-13.2542
▁tournant	-13.2542
▁brutalités	-13.2542
▁multiplicateur	-13.2542
▁tropicales	-13.2542
▁recensées	-13.2542
▁Development	-13.2542
éloignement	-13.2542
▁portefeuille	-13.2543
▁Torture	-13.2543
▁stigmatisation	-13.2543
▁distorsion	-13.2543
▁évolué	-13.2543
▁passive	-13.2543
▁troublée	-13.2543
▁virtuel	-13.2543
▁stand	-13.2543
▁riz	-13.2543
▁électrique	-13.2544
▁fléaux	-13.2544
▁reculées	-13.2544
▁coefficient	-13.2546
▁Coprésidents	-13.2546
▁abordant	-13.2547
▁devises	-13.2547
▁votants	-13.2547
▁diplomates	-13.2547
▁commandement	-13.2548
▁déce	-13.2548
▁défavorisées	-13.2548
▁synergiques	-13.2548
▁mutations	-13.2549
▁Appliquer	-13.2549
christianophobie	-13.2549
▁justifie	-13.255
▁finaliser	-13.2551
▁libérales	-13.2551
▁Planification	-13.2552
▁entendue	-13.2552
▁nationalistes	-13.2552
▁contrôlent	-13.2553
▁Obligation	-13.2553
▁superviser	-13.2554
▁variés	-13.2554
▁décompte	-13.2554
▁tolérer	-13.2556
▁ratifiant	-13.2556
▁dissuasi	-13.2556
▁facilitera	-13.2557
▁contenir	-13.2558
lètes	-13.256
▁excédentaires	-13.2561
▁menacées	-13.2561
▁élabore	-13.2562
▁éprouvées	-13.2563
▁formulaire	-13.2563
session	-13.2563
ver	-13.2563
▁incitent	-13.2565
▁chaleur	-13.2565
feux	-13.2565
▁préservées	-13.2565
▁dépassé	-13.2567
uroméditerranéen	-13.2569
▁médiatiques	-13.257
Océans	-13.257
▁libanaises	-13.257
▁consultent	-13.2574
▁assument	-13.2575
▁laissés	-13.2578
▁orphelines	-13.258
▁indicatif	-13.258
▁réciprocité	-13.2581
▁Évaluation	-13.2581
▁identique	-13.2582
imf	-13.2583
▁exploités	-13.2583
encouragement	-13.2583
exposer	-13.2584
▁coûteuse	-13.2584
▁Ti	-13.2584
cage	-13.2584
▁investisseurs	-13.2586
ouvoirs	-13.2589
▁liquidités	-13.2592
▁assur	-13.2596
▁vérifiées	-13.2599
▁négociant	-13.2601
▁observation	-13.2602
▁tangibles	-13.2603
▁conven	-13.2604
▁réputés	-13.2607
auvegarde	-13.2607
▁postérieure	-13.261
▁Libér	-13.2611
▁échangent	-13.2618
▁administrations	-13.2623
▁ajust	-13.2624
▁quota	-13.2624
▁légaux	-13.2625
▁deviendr	-13.2626
pérer	-13.2628
▁apparaiss	-13.2635
▁retomb	-13.2637
▁retirées	-13.264
▁produise	-13.2642
▁rendements	-13.2646
▁Santé	-13.2646
▁fidèles	-13.2647
▁témoignages	-13.2647
▁déposée	-13.2649
ourses	-13.2651
▁instruction	-13.2668
▁estimations	-13.2671
▁The	-13.2672
▁préoccupante	-13.2678
▁garantiss	-13.2688
▁FO	-13.269
▁répand	-13.2692
▁accompagnées	-13.2694
▁reproduis	-13.2701
▁arrêtée	-13.2704
▁quantifi	-13.2709
tation	-13.2716
▁imputer	-13.2718
administr	-13.272
ccès	-13.2721
▁constatée	-13.2722
he	-13.273
▁exceptions	-13.273
▁admises	-13.2731
▁tuent	-13.2743
▁exemplaires	-13.2747
so	-13.2752
▁mena	-13.2753
▁régularis	-13.2753
▁rigoureuses	-13.2754
▁facilitée	-13.2755
▁affaibli	-13.2757
▁conditionnelle	-13.276
▁idé	-13.2764
▁Na	-13.2764
▁compar	-13.2766
▁licence	-13.2768
tations	-13.2769
▁régl	-13.277
avantage	-13.2772
attachent	-13.2775
▁rende	-13.2775
▁ve	-13.2776
▁jouit	-13.2778
▁suscité	-13.2779
▁ménage	-13.2779
▁interaction	-13.278
▁provinces	-13.2782
▁spécialisation	-13.2786
▁montr	-13.2788
▁importa	-13.2795
expériences	-13.2807
▁passée	-13.2819
▁maltraité	-13.2822
mettrait	-13.283
rer	-13.2831
Lou	-13.2846
Res	-13.2864
▁surplus	-13.288
▁commémor	-13.2882
▁répétition	-13.2884
çoivent	-13.2906
viola	-13.2911
▁hauturières	-13.2914
▁compromise	-13.2916
▁Radi	-13.2929
roupes	-13.2945
▁reflété	-13.2952
▁subordonnée	-13.2959
▁visiter	-13.296
trices	-13.2962
res	-13.2968
▁aspir	-13.2979
▁Ou	-13.2984
Unies	-13.2985
▁aggrav	-13.299
▁faux	-13.2992
▁transmise	-13.2993
écla	-13.3003
iant	-13.3016
▁orienter	-13.3018
▁travaille	-13.303
▁Plate	-13.303
ID	-13.3034
établissements	-13.3036
▁interprété	-13.3056
za	-13.3077
égale	-13.3087
achemine	-13.3089
▁explication	-13.3099
éminen	-13.3109
▁coïncide	-13.3112
▁ratifie	-13.3115
aff	-13.3116
édific	-13.3119
tendre	-13.3127
▁soutienne	-13.3141
essentiel	-13.3145
mporter	-13.3151
▁vén	-13.3161
▁Libert	-13.3165
▁étoffer	-13.3166
▁réglé	-13.3169
GE	-13.3169
▁pérenni	-13.3171
terparlementaire	-13.3175
▁form	-13.3189
▁recommand	-13.3196
▁ser	-13.3199
ines	-13.3199
▁évalue	-13.3221
▁imputé	-13.3224
▁prévau	-13.3227
▁tomb	-13.3234
▁tour	-13.3238
limitée	-13.3239
Capacité	-13.3255
roduits	-13.3266
▁symbol	-13.3269
▁décel	-13.328
▁remplisse	-13.328
▁Do	-13.3291
▁développée	-13.3291
▁gouvern	-13.3293
▁stimul	-13.3302
crivant	-13.3305
afin	-13.3308
▁retenu	-13.331
▁tiré	-13.3324
▁dépêch	-13.3334
administre	-13.3339
▁pareil	-13.3353
▁enrichisse	-13.3354
▁espér	-13.3367
▁clandestin	-13.3376
▁sévi	-13.3379
dération	-13.338
▁précéd	-13.3397
▁annulé	-13.3404
▁complétée	-13.3408
▁rapportées	-13.3427
oit	-13.3432
inquiétude	-13.3434
commission	-13.3435
endommage	-13.3436
▁conventionnel	-13.3439
président	-13.344
ville	-13.3441
▁collaborat	-13.3449
attentat	-13.3455
▁anticipé	-13.3457
rapatriement	-13.3463
rompre	-13.3469
ya	-13.3487
incident	-13.3487
▁éprouve	-13.3487
boisement	-13.3489
ultidimensionnel	-13.349
issu	-13.3497
incorporation	-13.35
Développement	-13.3507
quatorz	-13.3515
incrimination	-13.3517
▁instauré	-13.3518
anque	-13.352
génétiques	-13.353
extrascolaire	-13.3535
héritage	-13.3535
▁recteur	-13.3536
▁désign	-13.3537
administrent	-13.3538
Environnement	-13.354
relief	-13.3542
extrader	-13.3554
exigence	-13.3556
▁détach	-13.3557
archives	-13.356
tent	-13.3561
▁pratiqué	-13.3563
▁noyau	-13.3568
▁sollicitée	-13.3569
encourageant	-13.357
▁ménag	-13.3575
▁criminalis	-13.3576
▁nommée	-13.3579
▁maré	-13.3594
▁conjugué	-13.3595
▁inaugur	-13.3599
▁purge	-13.3606
ditions	-13.3613
▁prononce	-13.3641
▁immédiates	-13.3646
▁indi	-13.3651
céder	-13.3651
iffusion	-13.3654
▁Tr	-13.3658
▁aggrave	-13.3662
euro	-13.3664
ncés	-13.3669
▁décidée	-13.367
autorise	-13.368
portés	-13.3682
▁orientation	-13.3691
géostationnaires	-13.3696
aggrave	-13.3697
▁sélectionn	-13.3701
▁Greff	-13.371
▁Problème	-13.3718
upprimer	-13.3719
▁paixRésolution	-13.372
bi	-13.3724
onstitutionnelle	-13.3751
▁opportunité	-13.3755
▁remet	-13.3758
gère	-13.3762
protectionnistes	-13.3764
agro	-13.3764
▁déverse	-13.3771
arts	-13.3785
▁Institut	-13.3787
▁différent	-13.3789
▁centrer	-13.379
prise	-13.3797
▁marquant	-13.3798
gh	-13.3803
tages	-13.3803
ntravent	-13.3817
▁satisfaisant	-13.3819
▁préf	-13.3823
visibles	-13.3829
oursuivre	-13.3842
▁analys	-13.3855
nts	-13.3858
▁emprisonné	-13.3859
plément	-13.3859
▁animal	-13.3861
▁cargaison	-13.387
▁effectu	-13.387
▁produite	-13.3877
agressions	-13.3878
▁mexicain	-13.3879
▁avantageuse	-13.3882
▁statu	-13.3884
▁conjugu	-13.3885
▁néfaste	-13.3886
▁classique	-13.3886
▁bélizien	-13.3886
▁forêt	-13.3886
▁interactif	-13.3887
▁ministre	-13.3888
▁sauvage	-13.3888
▁tradition	-13.3889
▁comparable	-13.389
▁chose	-13.389
▁juvénile	-13.389
▁similaire	-13.389
▁doctrine	-13.389
▁adulte	-13.3891
▁élémentaire	-13.3896
▁confo	-13.39
▁délibéré	-13.3901
▁xénophobe	-13.3908
▁remplace	-13.391
▁éclairée	-13.3913
hostilité	-13.3919
▁transféra	-13.3919
ession	-13.392
unique	-13.392
▁minimale	-13.3925
▁schéma	-13.3933
▁Décision	-13.3937
▁consent	-13.3941
▁compose	-13.3944
industrialis	-13.3944
▁circu	-13.3948
tend	-13.3949
▁sécuri	-13.395
▁attest	-13.3951
onsolidation	-13.3951
▁entamé	-13.3952
prenant	-13.3957
émi	-13.3957
internationaux	-13.396
▁retirée	-13.3961
▁spécifiée	-13.3962
▁contienne	-13.3963
viaire	-13.3965
▁renonce	-13.3966
▁phyto	-13.397
nombr	-13.397
quérir	-13.397
meubles	-13.397
Circ	-13.397
adolescence	-13.397
assoupli	-13.397
astronomie	-13.397
héliophysique	-13.397
urbanise	-13.397
écotourisme	-13.397
élémédecine	-13.397
épanouir	-13.397
▁Gaborone	-13.397
▁Indemnité	-13.397
▁Kinshasa	-13.397
▁Minsk	-13.397
▁Olympiade	-13.397
▁antidumping	-13.397
▁automatisé	-13.397
▁autrichien	-13.397
▁ballast	-13.397
▁célérité	-13.397
▁décaissement	-13.397
▁géothermique	-13.397
▁hypothécaire	-13.397
▁insalubres	-13.397
▁néerlandais	-13.397
▁palangre	-13.397
▁prématuré	-13.397
▁pétrels	-13.397
▁reconversion	-13.397
▁tabagisme	-13.397
▁toxicomanes	-13.397
▁éolienne	-13.397
▁Alpes	-13.397
▁Insérer	-13.397
alourdi	-13.397
ysfonctionnement	-13.397
▁Incrimination	-13.397
▁citoyenneté	-13.397
▁multirisque	-13.397
▁compensatoire	-13.3971
▁praticien	-13.3971
▁victimisation	-13.3971
▁perpétration	-13.3971
▁privatisation	-13.3971
▁encourues	-13.3971
▁inexactes	-13.3971
▁journalière	-13.3971
▁remporté	-13.3971
expéditeur	-13.3971
▁Turin	-13.3971
▁agraire	-13.3971
▁Révision	-13.3971
▁Établir	-13.3971
▁animaux	-13.3971
thodo	-13.3971
▁irresponsable	-13.3971
▁juives	-13.3971
▁mobilières	-13.3971
▁provocation	-13.3971
▁ressentir	-13.3971
▁Reconnaissance	-13.3971
▁ordonnance	-13.3971
▁recevable	-13.3971
▁attir	-13.3971
▁détiennent	-13.3972
▁individualisé	-13.3972
▁format	-13.3972
▁successives	-13.3973
▁souffrir	-13.3973
▁Objet	-13.3974
▁variées	-13.3974
▁extradé	-13.3974
▁planifient	-13.3974
▁combiner	-13.3974
▁intentée	-13.3974
▁harmonisant	-13.3974
▁gêner	-13.3974
▁kirghize	-13.3974
▁qualitatif	-13.3974
▁salubre	-13.3974
▁immobilier	-13.3975
▁consignes	-13.3975
unod	-13.3975
▁Pension	-13.3976
▁Coopérer	-13.3976
endigue	-13.3977
▁Fonctionnaire	-13.3977
arraisonne	-13.3977
▁construit	-13.3978
▁Paix	-13.3978
▁conservatoires	-13.3978
▁hypothèses	-13.3978
▁conduisent	-13.3978
▁répertoire	-13.3978
▁nutritionnels	-13.3979
▁constitutive	-13.3979
▁vacataires	-13.3979
▁partiellement	-13.3979
▁condamnable	-13.3981
▁micro	-13.3984
▁tierce	-13.3985
MER	-13.3985
▁déduite	-13.3987
▁relier	-13.3987
▁plé	-13.399
go	-13.399
▁plaignants	-13.399
▁soviétiques	-13.399
▁concises	-13.3991
▁enrôl	-13.3995
interception	-13.3995
▁hor	-13.3995
▁pakistanais	-13.3996
▁quitté	-13.3997
▁violée	-13.3998
▁retrouv	-13.4
▁garage	-13.4002
▁salvadoriens	-13.4003
iste	-13.4005
oucieuse	-13.4006
▁retirera	-13.4007
▁réunisse	-13.4009
▁Meilleur	-13.4011
vention	-13.4012
▁sanctionné	-13.4014
▁rédiger	-13.4015
▁Tachkent	-13.4015
▁délégués	-13.4016
▁édifi	-13.4017
▁mentalité	-13.4019
▁omission	-13.4021
▁collections	-13.4025
▁saper	-13.4027
▁redresse	-13.4029
▁interrompu	-13.4029
▁harmonieuses	-13.403
aillent	-13.403
▁mobiles	-13.4035
▁frontaliers	-13.4042
▁touristiques	-13.4042
▁décisionnels	-13.4042
▁apolitique	-13.4043
ateurs	-13.4044
▁tabac	-13.4044
uand	-13.4045
ancés	-13.4046
▁rassemble	-13.4049
▁injuste	-13.4052
▁voi	-13.4054
phy	-13.4054
▁fiscales	-13.4056
▁formés	-13.4061
▁récapitula	-13.4063
▁rentrée	-13.4064
▁recherchée	-13.4066
▁survenue	-13.4068
▁déc	-13.4073
▁audiovisuelle	-13.4074
▁tax	-13.4074
remplaça	-13.4075
▁contribuerai	-13.4075
▁saint	-13.4077
NUD	-13.4083
▁employeur	-13.4084
▁foncières	-13.4089
▁redis	-13.4093
▁précédée	-13.4096
upule	-13.4097
▁inconditionnel	-13.4104
▁redout	-13.4112
▁toléré	-13.4113
▁app	-13.4115
▁Chambres	-13.412
▁Transmet	-13.4122
▁profess	-13.4126
▁évalu	-13.4129
ura	-13.4132
hr	-13.4136
entraînement	-13.4139
▁agression	-13.414
▁dispense	-13.4148
▁habitations	-13.4149
▁envisageable	-13.4158
uidée	-13.4162
▁rapporte	-13.4162
promettre	-13.4163
obte	-13.4163
tention	-13.4165
▁rationnels	-13.4165
mesur	-13.417
▁sain	-13.4171
▁promu	-13.4177
▁communiquée	-13.4178
ragraphe	-13.4181
▁décharge	-13.4184
▁alarmante	-13.4187
ogènes	-13.4194
▁discute	-13.4196
oirs	-13.4197
▁biotechnologies	-13.4197
▁Prise	-13.4198
▁Purp	-13.4201
confessionnelles	-13.4204
extorsion	-13.4209
▁fistules	-13.4209
▁reli	-13.4211
▁provoqués	-13.4215
▁intersectoriels	-13.4219
▁verr	-13.4221
nstitutionnelle	-13.4222
▁unité	-13.4223
▁collecter	-13.4227
▁investir	-13.4229
▁deviendra	-13.4229
▁versants	-13.423
ndues	-13.423
Fonds	-13.4236
émarginalisation	-13.4236
▁rejetée	-13.4238
▁Ba	-13.424
Conseil	-13.4242
▁intoléra	-13.4251
▁démontre	-13.4254
▁définisse	-13.4255
uxième	-13.4261
▁recommandant	-13.4268
▁terri	-13.4271
▁rangs	-13.4272
▁péri	-13.4274
▁défray	-13.4275
▁évité	-13.4276
Sommet	-13.4285
▁Dénonc	-13.4286
▁abris	-13.4289
▁jugés	-13.429
▁décentralisée	-13.4292
naître	-13.4295
MO	-13.4295
▁décisives	-13.4299
▁resserre	-13.4301
▁Assistan	-13.4305
▁redéploy	-13.4309
appelle	-13.4312
ko	-13.4331
ctes	-13.4341
▁licites	-13.4352
▁authentiques	-13.4352
▁dispens	-13.4358
▁démarc	-13.4366
insta	-13.4372
▁dura	-13.4376
ies	-13.4378
▁merc	-13.4382
▁cherche	-13.4396
▁dépl	-13.44
▁Rép	-13.4406
▁Liber	-13.4417
▁mett	-13.4423
▁héritage	-13.4426
▁extrascolaire	-13.4426
ajout	-13.4428
▁restitu	-13.4429
▁adhérera	-13.4432
stamment	-13.4447
▁incrimination	-13.4451
▁propagat	-13.4452
▁détourne	-13.4455
▁prélèver	-13.4456
▁bienfai	-13.4464
▁appelée	-13.4476
▁conce	-13.4477
▁actualisés	-13.4486
entrepreneur	-13.4489
▁Bel	-13.4493
▁combattu	-13.4499
▁ouvra	-13.4503
▁infligée	-13.4503
▁excédents	-13.4504
▁prétend	-13.4505
ales	-13.4506
▁honoré	-13.4508
oi	-13.4515
▁continentale	-13.452
▁volés	-13.4528
otection	-13.4534
méliorer	-13.4534
▁LEG	-13.4558
rgouvernemental	-13.4565
▁immenses	-13.4566
dol	-13.4573
ccroissement	-13.4576
▁accompagnent	-13.4576
igoureux	-13.4578
▁érig	-13.4582
▁créat	-13.4583
▁fer	-13.4588
▁décompose	-13.459
▁cruel	-13.4592
ck	-13.4597
▁accompagn	-13.4598
maré	-13.4611
Fédération	-13.4618
▁ratifiera	-13.462
uniformi	-13.462
▁intensité	-13.4633
▁soulignée	-13.4635
▁resp	-13.4638
nstatant	-13.4641
ence	-13.4658
xe	-13.4672
aki	-13.468
JA	-13.468
né	-13.4682
▁Dja	-13.4688
tifs	-13.4691
▁loya	-13.4693
▁noble	-13.4695
▁domin	-13.4703
be	-13.4704
▁décompos	-13.4711
industries	-13.4715
stauration	-13.4725
rices	-13.4729
activer	-13.4745
scite	-13.4758
▁provienne	-13.4769
▁revu	-13.4775
▁actualisation	-13.4779
▁lésée	-13.478
▁aboutiss	-13.4791
nterinstitutions	-13.4799
▁recens	-13.4808
alisées	-13.4816
yer	-13.4819
▁stabilis	-13.4827
▁inspir	-13.4834
Genève	-13.4849
changé	-13.4849
▁apportera	-13.4864
réparatifs	-13.4872
mbie	-13.4876
accompli	-13.4887
lier	-13.4893
pays	-13.4896
▁compt	-13.4896
▁Not	-13.4897
▁réaffirmée	-13.4897
▁apparu	-13.4909
hém	-13.4909
▁Contribution	-13.491
avai	-13.4911
sRésolution	-13.4914
▁saisies	-13.4915
▁évalué	-13.4917
marin	-13.4919
sme	-13.4924
▁proportionnée	-13.4925
▁envoi	-13.4925
Grenade	-13.4929
v	-13.494
▁pense	-13.4957
Société	-13.497
▁Appuy	-13.5
agr	-13.5002
▁capitales	-13.5003
▁Bi	-13.5006
▁stock	-13.5007
▁Deux	-13.5007
ible	-13.5008
spécificités	-13.5012
ec	-13.5014
appar	-13.5023
actif	-13.5026
stupéfiants	-13.5035
▁notifie	-13.5036
ulent	-13.5041
▁restrein	-13.5045
▁Ka	-13.5047
remier	-13.505
▁réside	-13.5057
internationales	-13.5061
▁nécessitera	-13.5063
▁or	-13.5073
ô	-13.5075
▁guidé	-13.5078
▁promulgué	-13.508
▁cellul	-13.5081
naires	-13.5089
doc	-13.509
▁batt	-13.5092
▁illustr	-13.5099
existent	-13.5108
Objectif	-13.5117
▁salaria	-13.5125
▁uni	-13.5126
ajoute	-13.513
solution	-13.5138
▁cr	-13.5145
arti	-13.5149
achève	-13.5152
événement	-13.5153
urbanisation	-13.5155
vol	-13.5158
op	-13.5159
▁ratt	-13.516
az	-13.5166
ption	-13.5167
▁décennies	-13.5167
élucid	-13.5173
assign	-13.5181
répétition	-13.519
événements	-13.519
avocats	-13.5192
▁ta	-13.5199
Prog	-13.5205
▁segment	-13.5205
attendre	-13.5208
explorer	-13.5209
▁affirm	-13.5211
▁fraction	-13.5212
mbien	-13.5216
▁observ	-13.5218
éventuels	-13.5222
exiger	-13.5227
énoncés	-13.524
▁prouvé	-13.524
accusation	-13.5241
enceinte	-13.5242
▁resserr	-13.5243
affecte	-13.5258
▁sélective	-13.5258
▁offrira	-13.5262
treiz	-13.5263
▁réparations	-13.5264
dépendants	-13.5267
▁biotechnologi	-13.5274
▁combatt	-13.5278
▁prépare	-13.528
▁cons	-13.5282
▁retarder	-13.5288
montré	-13.5294
▁tokélaouane	-13.5297
▁normalisée	-13.53
▁Ca	-13.53
CT	-13.5306
aboutiss	-13.5309
tif	-13.5309
▁dérog	-13.5316
ilan	-13.5319
juridictionnelle	-13.5322
▁creus	-13.5324
xant	-13.5337
omissions	-13.5338
accomplissent	-13.5339
▁inflige	-13.5343
arriérés	-13.5344
encouragent	-13.5345
▁chemin	-13.5347
▁notifications	-13.5352
▁charg	-13.5358
isent	-13.536
endant	-13.5363
alisation	-13.5364
▁accentu	-13.5367
▁propage	-13.5379
otes	-13.538
▁ra	-13.538
▁hérit	-13.5381
▁pl	-13.5383
inculque	-13.5396
▁indiqu	-13.5399
▁nécessit	-13.5401
édi	-13.5401
▁préoccupant	-13.5407
oire	-13.5409
▁palli	-13.5414
▁pauvre	-13.5415
▁déplace	-13.5416
ffirme	-13.5437
▁auxdit	-13.5438
▁géné	-13.5439
inn	-13.5451
hèque	-13.5461
écosystèmes	-13.5463
▁gén	-13.5471
▁possédai	-13.5476
▁accueill	-13.5477
▁généralisé	-13.5478
éminent	-13.5481
inconditionnelle	-13.5481
▁Sept	-13.5486
cadres	-13.5489
▁aggravé	-13.5491
▁vainc	-13.5493
▁efficient	-13.5498
ontinuer	-13.5502
▁crédi	-13.5502
▁connu	-13.5504
nage	-13.5509
atoire	-13.5512
▁Jo	-13.5513
▁Sui	-13.5515
▁valide	-13.5515
Adoptée	-13.5518
▁inclu	-13.5521
connaissance	-13.5526
issant	-13.5534
▁modalité	-13.5541
stitutionnaliser	-13.5541
▁décisionnel	-13.5543
▁minorité	-13.5544
▁réélu	-13.5545
tablement	-13.5545
ung	-13.5546
▁Franc	-13.5549
▁critère	-13.5551
▁rubrique	-13.5551
▁initi	-13.5551
▁brutale	-13.5552
▁partenaire	-13.5553
▁frontalier	-13.5554
▁touristique	-13.5554
▁tangible	-13.5554
▁mesurable	-13.5555
▁levée	-13.5555
▁représenté	-13.5556
▁prérogative	-13.5556
▁clause	-13.5557
▁témoin	-13.5557
▁vecteur	-13.5558
▁souffrance	-13.556
▁confisqué	-13.556
▁productive	-13.5561
américains	-13.5563
▁inadéquate	-13.5565
▁municipale	-13.557
▁pres	-13.5574
▁socio	-13.5575
▁rétablie	-13.5579
▁écoulé	-13.5583
▁éliminée	-13.5587
immens	-13.5588
▁ratifiés	-13.5588
opinions	-13.559
▁exacte	-13.5591
▁mettra	-13.5598
▁éclairé	-13.5599
illes	-13.5608
heureuse	-13.5613
aggrava	-13.5614
▁rappel	-13.5615
çue	-13.5618
courage	-13.5621
enrichiss	-13.5621
Am	-13.5621
▁adhère	-13.5629
▁traduise	-13.5629
▁simplifi	-13.5629
▁Cinq	-13.5634
orum	-13.5634
gique	-13.5635
▁chimi	-13.5636
▁régénér	-13.5636
▁intérim	-13.5636
crite	-13.5636
édicaments	-13.5637
▁néonazis	-13.5637
▁rayon	-13.5637
▁redeva	-13.5637
▁amoindri	-13.5637
▁intangible	-13.5637
▁vidéo	-13.5637
▁vêtements	-13.5637
Karabakh	-13.5637
SPIDER	-13.5637
Zonéco	-13.5637
infiltration	-13.5637
uinquenna	-13.5637
▁Athènes	-13.5637
▁Djénine	-13.5637
▁Kingston	-13.5637
▁Ouagadougou	-13.5637
▁Skopje	-13.5637
▁branche	-13.5637
▁bureaucratiques	-13.5637
▁frauduleux	-13.5637
▁imbriquées	-13.5637
▁indissoluble	-13.5637
▁innovantes	-13.5637
▁logiciels	-13.5637
▁lynchages	-13.5637
▁mêlé	-13.5637
▁ouzbek	-13.5637
▁plurilatéral	-13.5637
▁rehauss	-13.5637
▁révèle	-13.5637
▁tracasseries	-13.5637
▁DDT	-13.5637
▁juguler	-13.5637
▁sincère	-13.5637
embauch	-13.5637
▁immatériel	-13.5637
▁polythérapies	-13.5637
▁recyclage	-13.5637
▁recèle	-13.5637
connectivité	-13.5637
impasse	-13.5637
▁bioéthique	-13.5637
▁onéreux	-13.5637
▁vivrière	-13.5637
▁antidrogue	-13.5637
▁médicamenteuse	-13.5637
▁fraude	-13.5637
▁soustraction	-13.5637
▁épidémiques	-13.5637
▁Karen	-13.5637
uatre	-13.5637
▁circons	-13.5637
▁curatif	-13.5637
▁Danube	-13.5637
▁canaliser	-13.5637
▁donatrices	-13.5637
amiable	-13.5637
▁Golfe	-13.5637
▁rechange	-13.5638
▁quantitatif	-13.5638
enjeu	-13.5638
▁Lima	-13.5638
▁journaux	-13.5638
▁réparatrice	-13.5638
▁comparaison	-13.5638
mangan	-13.5638
▁compagnie	-13.5638
▁retentissement	-13.5638
▁désespoir	-13.5638
▁Indices	-13.5639
▁lointaines	-13.5639
▁exécutoire	-13.5639
▁sinistrées	-13.5639
▁ébranler	-13.5639
▁actionnaires	-13.564
▁expliquant	-13.564
▁déplor	-13.564
ppaa	-13.5641
▁comparative	-13.5641
couver	-13.5641
▁automatique	-13.5642
▁ambassad	-13.5642
▁subventionné	-13.5642
▁diligenter	-13.5642
▁présession	-13.5643
cybercriminalité	-13.5643
atastrophes	-13.5643
ronautique	-13.5643
oppression	-13.5643
▁tort	-13.5644
▁exactement	-13.5646
▁coûteux	-13.5647
▁simplifiées	-13.5647
▁scolarisés	-13.5647
▁découvert	-13.5648
▁déplorable	-13.5652
▁restructuré	-13.5653
▁Chef	-13.5653
▁identifiées	-13.5655
altération	-13.5655
▁collégiale	-13.5657
▁division	-13.566
▁sécurisé	-13.566
▁repères	-13.566
▁mobilisées	-13.5661
▁boursiers	-13.5661
▁malheur	-13.5661
▁cambodgiennes	-13.5663
▁quotidiens	-13.5664
▁occupe	-13.5664
▁ajouté	-13.5666
▁soustrait	-13.5667
▁privent	-13.567
▁révélées	-13.5671
▁jalons	-13.5673
▁exigée	-13.5673
▁animé	-13.5675
▁supporté	-13.5676
▁médiateurs	-13.5676
▁élucidé	-13.5677
▁glo	-13.5679
▁marginaliser	-13.5679
importe	-13.568
▁adapt	-13.5682
▁supprimés	-13.5684
▁leçons	-13.5686
▁incluse	-13.5687
▁Déterminé	-13.5693
▁parquet	-13.5695
▁subséquentes	-13.5699
sociohumanitaire	-13.5701
▁quasi	-13.5702
▁arides	-13.5708
▁restantes	-13.5713
▁bleu	-13.5713
▁Texte	-13.5717
▁satisfasse	-13.5718
Arta	-13.5719
▁mesurables	-13.5721
oordination	-13.5727
▁factuelle	-13.573
▁statue	-13.5731
▁préoccupants	-13.5731
▁constitueront	-13.5732
▁Van	-13.5733
uniform	-13.5735
▁éliminées	-13.5738
▁béliziens	-13.5738
assemblement	-13.5739
▁vit	-13.5742
▁concord	-13.5743
▁surviennent	-13.5743
▁dévastée	-13.5743
colonisation	-13.5743
▁confirmée	-13.5744
nésien	-13.5744
▁certifiée	-13.5744
expulser	-13.575
▁détournée	-13.575
▁généralisés	-13.5755
érie	-13.5756
ab	-13.5757
rève	-13.5758
▁consignés	-13.5758
▁fragilis	-13.5759
▁étayé	-13.5763
▁inex	-13.5765
▁Harare	-13.577
▁incertitude	-13.577
▁efficience	-13.5773
▁civiques	-13.578
▁euro	-13.5784
▁faiblesses	-13.5785
asse	-13.5799
CO	-13.58
▁Sec	-13.5816
▁immunité	-13.5817
▁observées	-13.5823
▁financent	-13.5823
▁informels	-13.5825
ono	-13.5834
▁traverse	-13.5837
▁différenc	-13.5838
ntrée	-13.5839
▁minées	-13.5847
▁évoluer	-13.585
▁marquante	-13.5851
▁entreprenne	-13.5854
▁payer	-13.586
▁significatifs	-13.5861
▁échangée	-13.5861
▁pragmatiques	-13.5861
▁élargie	-13.5867
dan	-13.5869
iniqu	-13.5874
▁report	-13.5877
▁présider	-13.5878
▁mono	-13.5881
▁connues	-13.5883
nces	-13.5888
▁comptant	-13.5888
▁libéralis	-13.5893
multisectorielle	-13.5898
▁française	-13.591
▁iraquiens	-13.5914
▁affecte	-13.5916
▁édition	-13.5919
▁intellectuels	-13.5922
▁manquements	-13.5925
▁équipé	-13.5933
▁ventilé	-13.5935
▁multiethniques	-13.5939
rgentin	-13.5948
Ge	-13.5953
▁spirituelle	-13.5954
▁dispensé	-13.5955
▁enceinte	-13.5963
▁doute	-13.5967
ttent	-13.5973
▁confirmer	-13.5974
▁sexospécificité	-13.5986
▁maximal	-13.5988
▁suspendue	-13.6004
nditions	-13.6005
▁épuiser	-13.6007
ulgari	-13.6013
▁ConventionIbid	-13.6013
émo	-13.6013
confessionnelle	-13.602
▁progressi	-13.6022
▁interprétation	-13.6028
▁cor	-13.6042
▁énonc	-13.6044
▁déplac	-13.6044
sez	-13.6046
▁turkmènes	-13.6048
ena	-13.6053
▁incident	-13.6059
ition	-13.6064
bert	-13.6089
droits	-13.6095
UA	-13.6096
▁détruis	-13.6102
▁appare	-13.6103
▁nettes	-13.6105
▁stéril	-13.6108
▁assisté	-13.6112
▁Adopter	-13.6112
▁réduise	-13.6123
▁négociée	-13.6124
▁garanti	-13.6125
▁signifi	-13.6127
▁préven	-13.6128
▁Rejet	-13.6133
▁gratuite	-13.6134
▁stockée	-13.6134
▁pou	-13.6142
uel	-13.6152
achèvent	-13.6153
▁abrog	-13.6158
AutoritéI	-13.6158
▁résida	-13.6162
attaqu	-13.6174
▁différe	-13.6185
▁secondes	-13.6197
▁analysé	-13.6199
emp	-13.6203
▁structurés	-13.6209
Fi	-13.621
ider	-13.6217
ants	-13.6227
lue	-13.6228
▁habituelles	-13.6237
▁profite	-13.6243
▁appendices	-13.6247
▁dévers	-13.625
▁agisse	-13.6251
▁réaffirmées	-13.6252
▁prêche	-13.6252
rotéger	-13.6253
▁rurale	-13.6254
da	-13.6261
TE	-13.6263
▁décents	-13.6265
▁forge	-13.6266
▁suscit	-13.6279
omme	-13.6302
▁évoluti	-13.6305
▁retourné	-13.6306
erner	-13.6308
onnent	-13.6311
▁appliquera	-13.6311
▁sports	-13.6323
rainte	-13.6338
or	-13.6346
▁bat	-13.635
▁Respons	-13.6353
▁introdui	-13.6354
▁faciliteront	-13.6361
▁Ras	-13.6363
potentia	-13.6367
▁Popula	-13.637
▁néglige	-13.637
▁effectue	-13.6377
missions	-13.6382
nsibiliser	-13.6393
pertoire	-13.6404
▁oblige	-13.641
posent	-13.6411
lore	-13.6418
▁regretta	-13.6422
▁fina	-13.6428
▁réexaminé	-13.643
Missiles	-13.6437
Plan	-13.6441
erait	-13.6442
▁industries	-13.6442
llement	-13.6444
▁salué	-13.6445
▁invitée	-13.6447
conflit	-13.6447
▁documentaire	-13.6451
▁Bas	-13.6452
aster	-13.6459
▁expédi	-13.6463
▁cont	-13.6467
▁pouss	-13.6478
▁apprendre	-13.6479
exportations	-13.6483
▁primordiales	-13.6485
forts	-13.6487
▁inc	-13.6497
ivité	-13.6501
▁afr	-13.6501
▁Ri	-13.6503
▁attribu	-13.6507
▁bailleur	-13.6508
oppos	-13.6509
sentir	-13.6527
▁due	-13.6529
sexiste	-13.6534
▁exploite	-13.6538
▁donnés	-13.6541
Bureau	-13.6547
IS	-13.655
▁Sur	-13.6557
tement	-13.6568
ière	-13.6568
Adh	-13.6574
▁ital	-13.6574
▁Organis	-13.6578
▁unifiée	-13.6579
Maroc	-13.6581
Thaïlande	-13.6583
oindre	-13.6585
aveu	-13.6587
▁dépos	-13.6602
▁accroît	-13.6603
cteurs	-13.6607
▁corrigé	-13.6621
▁intens	-13.6626
▁justifi	-13.6635
▁obten	-13.6652
indre	-13.666
▁sépare	-13.6664
gences	-13.667
sservis	-13.6673
Panama	-13.668
▁mixtes	-13.6695
▁Dj	-13.6696
▁supervis	-13.6697
▁introduis	-13.6698
▁Engagement	-13.6702
▁ax	-13.6703
fecti	-13.6717
oute	-13.6726
timement	-13.6738
Géorgie	-13.6742
▁Protecti	-13.675
ali	-13.6754
▁Tokélaouans	-13.6762
nteur	-13.6765
▁crédité	-13.6771
donateurs	-13.678
Politique	-13.6782
affirme	-13.6786
illi	-13.6788
▁persévéran	-13.6789
▁compromettrai	-13.679
▁perfectionn	-13.6794
bler	-13.6795
Ham	-13.6801
emière	-13.6804
rité	-13.6811
▁Offr	-13.6826
corde	-13.6841
fonctionnaires	-13.6841
gr	-13.6844
▁ressortissante	-13.6847
▁Ar	-13.6859
▁IndienD	-13.686
tirées	-13.6874
▁recrute	-13.6881
affich	-13.6889
▁critiques	-13.6896
▁enlèvement	-13.6911
▁engendrée	-13.6915
cèdent	-13.6917
▁palestinienD	-13.6917
épaule	-13.693
inscri	-13.6934
▁promeu	-13.6935
▁infligé	-13.6935
adoptés	-13.6936
▁réputé	-13.6937
impliquer	-13.6946
évisions	-13.6946
onde	-13.6952
laboration	-13.6953
équivalence	-13.6954
uvement	-13.6959
débat	-13.6962
▁renver	-13.6963
▁féminis	-13.6967
enveloppe	-13.6967
▁assurera	-13.6974
introdui	-13.6986
East	-13.6987
▁féminisa	-13.6988
llier	-13.6991
▁écla	-13.7007
▁professionnalis	-13.7016
uni	-13.7019
▁reclasse	-13.702
cca	-13.7026
éventuelle	-13.7032
éd	-13.7033
rine	-13.7049
▁réexaminée	-13.7053
atisfaite	-13.7056
ola	-13.7058
eng	-13.7064
ps	-13.7067
ermettre	-13.7069
Amendement	-13.708
▁mesurée	-13.7083
iscriminatoires	-13.7087
▁totales	-13.7087
vocation	-13.7093
▁perçoi	-13.7094
▁conf	-13.7096
Principes	-13.7105
▁enfin	-13.7106
religieux	-13.7109
▁prom	-13.7124
expédition	-13.713
▁réinstallé	-13.7137
obal	-13.714
▁imprégn	-13.7147
▁procure	-13.7149
▁subordonné	-13.7153
▁Min	-13.716
▁incon	-13.7167
Abkhazie	-13.7168
Inter	-13.7172
▁provoqu	-13.7172
allonge	-13.7182
tsunami	-13.7185
acquis	-13.7187
▁migr	-13.7192
imprimer	-13.7194
alisme	-13.72
intègrent	-13.7203
épuiser	-13.7204
médicale	-13.7207
OP	-13.721
ho	-13.7212
▁priver	-13.7216
▁Stra	-13.722
dénommé	-13.7223
indigen	-13.7224
▁suspendu	-13.7227
économique	-13.7234
ell	-13.7234
▁associa	-13.7242
▁surgi	-13.7244
▁identifi	-13.7245
olan	-13.7255
immédiat	-13.7261
nées	-13.7265
raci	-13.7268
conseils	-13.7279
major	-13.728
appliqueront	-13.7284
▁Souscri	-13.729
▁exister	-13.7292
affaibli	-13.7293
lu	-13.7301
Objectifs	-13.7309
aw	-13.7312
▁cess	-13.7314
sorti	-13.733
ives	-13.7335
nsidérant	-13.7335
▁doubl	-13.7355
SS	-13.7365
ommes	-13.7366
▁Mal	-13.7376
▁subis	-13.7382
▁multicultur	-13.7386
excédents	-13.7399
▁interaméricain	-13.7401
ution	-13.7404
avion	-13.7405
▁redéfini	-13.7405
▁suscitée	-13.7434
▁gagne	-13.7434
ism	-13.7434
réglementation	-13.7438
énoncées	-13.7439
▁paraît	-13.7442
▁renumérot	-13.7446
▁ac	-13.7449
▁audiovisuel	-13.7455
gmentation	-13.7455
▁localis	-13.7478
Autr	-13.7489
VIII	-13.7504
▁invoqué	-13.7509
clusion	-13.7531
▁conclue	-13.7534
suicide	-13.7539
▁harmonieuse	-13.7545
▁parallèle	-13.7545
▁multipartite	-13.7551
▁récolte	-13.7556
▁exemplaire	-13.7556
▁qualification	-13.7556
▁chrétien	-13.7556
▁liquidité	-13.7556
▁apatride	-13.7556
▁coupable	-13.7556
ta	-13.7556
▁massif	-13.7556
▁corporel	-13.7557
▁affiliée	-13.7557
▁planétaire	-13.7558
▁débouché	-13.7558
▁collection	-13.7563
omp	-13.7564
▁Th	-13.7566
ergouvernemental	-13.7568
▁temp	-13.757
ccueillant	-13.7571
▁gouverneur	-13.7573
reb	-13.7576
▁vérifiée	-13.7577
publi	-13.7579
▁arbitral	-13.7581
▁déménage	-13.7582
▁prépondérant	-13.7585
▁renvoi	-13.7588
▁greff	-13.7589
▁éliminé	-13.7589
▁portugais	-13.7596
exhorte	-13.7596
▁Je	-13.7605
▁reprendr	-13.7606
medi	-13.761
▁Effect	-13.7613
telier	-13.7616
▁interlocuteur	-13.7617
▁mobile	-13.762
arrestations	-13.7621
▁dépass	-13.7624
▁présidentiel	-13.7628
▁protège	-13.7629
élébration	-13.763
▁remédi	-13.7631
▁Veille	-13.7631
▁détect	-13.7631
organigramme	-13.7632
▁mutati	-13.7633
uvrer	-13.7633
▁otage	-13.7633
▁censé	-13.7634
▁Lors	-13.7634
ccident	-13.7636
éthodes	-13.7637
emploiera	-13.7637
▁mutil	-13.7637
▁Carpates	-13.7637
▁MEPC	-13.7637
Djamena	-13.7637
Salaam	-13.7637
Thomas	-13.7637
astronautique	-13.7637
sahariens	-13.7637
▁Barcelone	-13.7637
▁Cyberseek	-13.7637
▁Galaxy	-13.7637
▁Hébron	-13.7637
▁Identifier	-13.7637
▁Kisangani	-13.7637
▁Noblemaire	-13.7637
▁Signature	-13.7637
▁Srpska	-13.7637
▁bermudien	-13.7637
▁bidonvilles	-13.7637
▁captivité	-13.7637
▁convivial	-13.7637
▁dissidents	-13.7637
▁délictueu	-13.7637
▁démolition	-13.7637
▁déontologiques	-13.7637
▁dévastatrices	-13.7637
▁erronée	-13.7637
▁incarcérés	-13.7637
▁insurrectionnel	-13.7637
▁nicaraguayen	-13.7637
▁panaméricaine	-13.7637
▁philosophie	-13.7637
▁philosophique	-13.7637
▁photographiques	-13.7637
▁péruvien	-13.7637
▁surendetter	-13.7637
▁tutelle	-13.7637
▁braille	-13.7637
▁cahier	-13.7637
▁palliatif	-13.7637
▁progiciel	-13.7637
▁semences	-13.7637
▁approximative	-13.7637
▁enjeux	-13.7637
▁innovants	-13.7637
▁rigid	-13.7637
▁télétraduction	-13.7637
▁Dayton	-13.7637
▁déraisonnable	-13.7637
▁mutandis	-13.7637
▁affrét	-13.7637
TION	-13.7637
fascisme	-13.7637
▁acquiert	-13.7637
▁loyauté	-13.7637
▁maintenance	-13.7637
▁endommagées	-13.7637
▁falsification	-13.7637
▁marquage	-13.7637
▁adversaires	-13.7637
▁prendr	-13.7637
▁sanguin	-13.7637
▁renferme	-13.7637
▁Message	-13.7637
▁Nouba	-13.7637
▁sexisme	-13.7637
informaticien	-13.7637
▁omniprésent	-13.7637
▁contestée	-13.7637
▁endommagés	-13.7637
▁agg	-13.7637
▁traumatisées	-13.7638
▁homogène	-13.7638
mpere	-13.7638
▁mardi	-13.7638
▁dépointa	-13.7638
▁forfait	-13.7638
HCR	-13.7639
▁refouler	-13.7639
▁Incite	-13.7639
▁Tort	-13.7639
écédents	-13.7639
▁couramment	-13.7639
▁Réparation	-13.7639
Tok	-13.7639
▁quotidienne	-13.7639
▁Volont	-13.7639
▁IOC	-13.7639
▁découvrir	-13.764
▁efforcerons	-13.764
▁choisissent	-13.764
▁commandant	-13.764
rug	-13.764
uchement	-13.764
Inco	-13.7641
▁contestation	-13.7641
▁itinérant	-13.7642
▁commémoratif	-13.7642
▁émergent	-13.7642
▁parrainage	-13.7642
lobal	-13.7643
▁contrarie	-13.7643
▁catalogue	-13.7644
▁diminue	-13.7645
▁accréditaire	-13.7646
▁intervient	-13.7646
▁grec	-13.7647
▁Enquête	-13.7647
▁dégrader	-13.7647
MI	-13.7647
▁réexamin	-13.7647
▁gêné	-13.7648
▁efforcé	-13.7648
▁injustement	-13.7648
▁Clin	-13.7648
▁lusophones	-13.7648
▁ravivé	-13.7649
▁géo	-13.7649
▁tranchée	-13.7649
▁sinistrés	-13.7649
▁externalisées	-13.765
tawa	-13.7651
▁crucia	-13.7651
▁dégagés	-13.7651
▁modestes	-13.7652
▁ininterrompue	-13.7652
emploieront	-13.7652
▁Violation	-13.7652
▁attribuable	-13.7653
▁pén	-13.7654
▁perdure	-13.7654
▁exactions	-13.7657
▁suspectes	-13.7657
isco	-13.7658
▁manqué	-13.7658
▁tardivement	-13.7659
▁méthodique	-13.7659
articul	-13.7659
▁coentreprises	-13.766
lom	-13.7661
▁spécifier	-13.7662
▁plaines	-13.7663
▁thé	-13.7663
▁couronné	-13.7664
onnes	-13.7664
▁désavantagés	-13.7665
▁prétexte	-13.7666
▁concessionnels	-13.7669
▁suggéré	-13.7671
▁confidentielle	-13.7671
ctifs	-13.7674
▁Traitement	-13.7675
écrire	-13.7676
▁consentir	-13.7677
▁Recherche	-13.7677
▁défendeur	-13.7678
baï	-13.7678
pproche	-13.7679
ac	-13.768
▁protégée	-13.7682
▁inculpés	-13.7684
▁Sensibiliser	-13.7684
▁skinheads	-13.7686
inquante	-13.7687
xi	-13.7688
appoint	-13.7689
▁pédophile	-13.7694
▁bélarussienne	-13.7697
▁illustré	-13.7698
décembre	-13.7699
▁délé	-13.77
épreuve	-13.7703
▁Cess	-13.7704
▁déclin	-13.7705
▁consolidé	-13.7706
tères	-13.7706
▁exploitées	-13.7707
▁attendues	-13.7708
terminant	-13.7708
▁offensive	-13.7712
▁regrettable	-13.7715
▁détourné	-13.7715
ciaire	-13.7722
▁multipartites	-13.7724
as	-13.773
iques	-13.773
▁nomme	-13.7733
visage	-13.7737
▁méthodologi	-13.7741
urvey	-13.7742
▁rubriques	-13.7743
kis	-13.7744
▁Principe	-13.7745
▁Ha	-13.7749
▁inadéquates	-13.775
▁rédui	-13.7755
▁varier	-13.7756
▁intrarégional	-13.7757
érations	-13.7759
ine	-13.776
▁étoffé	-13.7764
▁prévienne	-13.7764
▁interactifs	-13.7764
▁agenda	-13.7767
▁sonore	-13.7773
odernis	-13.7777
▁Rénov	-13.7777
undi	-13.7778
▁désignent	-13.7778
▁négligeables	-13.7782
sbourg	-13.7788
▁améliore	-13.7789
▁restreint	-13.7789
autorités	-13.7791
▁fréquents	-13.7792
éme	-13.7793
▁exclue	-13.7797
lissements	-13.78
connexion	-13.7803
▁annexées	-13.7805
▁privilégiés	-13.781
ud	-13.7817
▁djiboutiens	-13.782
▁Communication	-13.7822
▁vé	-13.7827
▁confor	-13.7832
▁réglés	-13.7835
▁francophone	-13.7838
▁tribune	-13.7841
▁interculturels	-13.7844
▁postconfli	-13.7846
▁ajustement	-13.7847
▁inflig	-13.7847
▁histoire	-13.7856
chées	-13.7856
imput	-13.7859
▁corromp	-13.7859
▁rura	-13.7862
▁échec	-13.7863
▁supporte	-13.7873
uba	-13.788
▁clairs	-13.7881
sous	-13.7883
▁Polic	-13.7892
▁Sé	-13.7894
▁restrictives	-13.7898
▁amplifier	-13.7898
▁courante	-13.7898
notamment	-13.7899
▁Six	-13.7899
▁élargies	-13.79
▁mill	-13.79
▁ajuster	-13.7904
entrave	-13.7905
▁rééchelonn	-13.7915
▁multiculturel	-13.7933
▁catastrophiques	-13.7938
gresser	-13.795
▁mortes	-13.7953
▁prévoira	-13.7958
▁figurera	-13.7959
▁Mala	-13.796
▁entour	-13.7961
▁déterminera	-13.7968
▁major	-13.7968
ème	-13.797
▁amendée	-13.7972
▁rétro	-13.7974
ul	-13.7974
▁Dar	-13.7982
▁conventionnelle	-13.7983
erra	-13.7985
rga	-13.7987
▁ju	-13.7992
▁industrie	-13.7999
▁mensuel	-13.7999
▁produ	-13.8
▁défendu	-13.8
▁immatriculé	-13.8002
▁harmonisé	-13.8007
▁audience	-13.8008
▁persévérant	-13.8012
▁démographiques	-13.8013
▁réactiv	-13.8014
rgence	-13.8018
EM	-13.8019
▁transporter	-13.8027
▁Fai	-13.8031
▁renforcera	-13.8032
▁révis	-13.8035
rruption	-13.8049
▁délibér	-13.8052
géta	-13.8053
▁référent	-13.8053
▁composant	-13.8056
▁yeux	-13.8065
▁partageant	-13.8067
▁interprètes	-13.8071
▁amende	-13.8071
institutionnalis	-13.8072
▁affectations	-13.8074
▁exista	-13.8079
anifeste	-13.8082
▁utilisera	-13.8108
▁logique	-13.8111
▁perturb	-13.8113
év	-13.8151
▁profil	-13.8154
▁utilisable	-13.8155
▁courts	-13.8163
▁sûretés	-13.8163
cerné	-13.8164
▁avise	-13.817
cription	-13.8172
atives	-13.8176
▁Jé	-13.8187
inscrive	-13.8188
▁limita	-13.8191
▁légalement	-13.8195
▁détermin	-13.8196
▁estimée	-13.8197
▁étend	-13.8216
uquel	-13.8217
▁approchent	-13.822
agas	-13.8234
▁concentr	-13.8239
assidu	-13.8245
arché	-13.825
▁super	-13.8251
actions	-13.8256
▁prélevé	-13.8258
▁médi	-13.8261
▁desservi	-13.8265
▁Union	-13.8265
▁croître	-13.8271
▁Facilite	-13.8277
▁remboursé	-13.8287
▁oubli	-13.8294
▁annoncés	-13.8295
ctées	-13.8297
ransnistrie	-13.83
ransfert	-13.83
Ba	-13.8308
▁relevée	-13.831
▁identités	-13.8316
▁signifie	-13.8318
▁environs	-13.8319
▁dur	-13.8324
▁flagrant	-13.8329
▁expédition	-13.8332
usa	-13.8335
▁poursuivr	-13.8335
▁plaido	-13.8335
▁conjuguée	-13.8339
mises	-13.834
bourg	-13.8342
afficha	-13.835
▁orbit	-13.8371
▁accumulée	-13.8378
assemblées	-13.8381
▁pilot	-13.8382
▁efforç	-13.8385
dresse	-13.8404
▁présidée	-13.841
parti	-13.8416
▁expansion	-13.8416
infirmité	-13.8418
▁polyvalente	-13.842
immeubles	-13.8426
co	-13.843
ppression	-13.8435
▁Bo	-13.8437
▁engendré	-13.8445
passés	-13.8463
▁environnementa	-13.8463
git	-13.8467
arbitre	-13.847
plan	-13.847
▁néglig	-13.8475
▁négoci	-13.8478
▁dresse	-13.8485
escence	-13.8506
▁di	-13.851
▁acheminé	-13.8516
▁recouvre	-13.8517
euvent	-13.8526
▁Cet	-13.8528
arbitr	-13.853
▁conserv	-13.8555
démilitarisation	-13.8555
▁école	-13.8588
OM	-13.8593
eront	-13.86
articulièrement	-13.8605
rapport	-13.8605
▁rev	-13.8619
▁entérinée	-13.8622
▁Déclara	-13.8625
▁rembours	-13.8625
érées	-13.8629
uisent	-13.8637
▁judic	-13.8637
▁datée	-13.8651
▁fomente	-13.8653
▁favorisera	-13.8653
autonomis	-13.8662
▁bis	-13.8671
▁je	-13.8672
▁déplora	-13.8678
▁constituées	-13.8692
▁réitérée	-13.8693
▁inhumaine	-13.8697
▁Société	-13.8699
▁affili	-13.8708
nte	-13.8732
▁sollicité	-13.8734
▁pay	-13.8737
accéléra	-13.8738
acteurs	-13.8743
ites	-13.8753
obst	-13.8754
▁débar	-13.8759
éph	-13.8765
iolence	-13.8776
secteur	-13.8776
▁administre	-13.8782
▁démarr	-13.8784
▁radi	-13.8785
▁tendre	-13.8786
▁caractérisée	-13.8803
▁conduira	-13.8805
▁enrichiss	-13.8823
▁transpos	-13.8838
dis	-13.8848
Renforce	-13.885
▁Développe	-13.885
▁approfondis	-13.8851
ude	-13.8864
▁contraignante	-13.8873
▁cumul	-13.8877
sion	-13.8878
▁Intégr	-13.8888
▁contr	-13.8894
etour	-13.8898
nsolidation	-13.8901
lus	-13.8911
▁prudence	-13.8912
agu	-13.8914
▁habitée	-13.8917
▁ratifi	-13.8921
mis	-13.8928
▁sach	-13.8949
verb	-13.895
Ou	-13.8957
▁caractérisé	-13.8958
vent	-13.8961
install	-13.8972
extr	-13.8976
exacti	-13.8983
▁alphabéti	-13.8987
▁stag	-13.8988
▁serai	-13.8996
▁rémunérée	-13.8997
rente	-13.9002
▁agiss	-13.9002
rgouvernementale	-13.9003
ord	-13.9005
Estonie	-13.902
.»,	-13.9033
abal	-13.9042
▁honorera	-13.9042
▁annulation	-13.9043
▁indic	-13.9059
trice	-13.9062
éduire	-13.9068
gnent	-13.9071
▁interdi	-13.9086
▁groupement	-13.9086
▁détache	-13.909
lgérie	-13.9105
suivre	-13.9106
rmes	-13.9111
résider	-13.9113
▁mobilier	-13.9118
ethnie	-13.9133
▁tira	-13.9147
▁anticip	-13.9168
▁consensuel	-13.9171
▁Conf	-13.9172
▁In	-13.9176
aliser	-13.9176
Arab	-13.9188
▁renseigne	-13.919
plans	-13.9191
▁rattache	-13.9197
ouvrent	-13.9197
▁prescri	-13.9211
illennium	-13.9217
car	-13.9219
Représentant	-13.9222
▁défende	-13.9234
▁insé	-13.9246
▁terr	-13.925
▁provincia	-13.9253
▁offici	-13.9257
▁aspire	-13.926
rice	-13.9264
▁allége	-13.9264
▁présenteront	-13.9273
sponsabilisation	-13.9275
▁caractères	-13.9279
▁hydr	-13.9281
confessionnel	-13.929
Vienne	-13.9296
puissance	-13.9305
▁fui	-13.9307
éna	-13.9312
▁danois	-13.9315
▁attei	-13.9316
▁dépendant	-13.9318
En	-13.9335
▁constitu	-13.9342
gents	-13.9345
ccélère	-13.937
▁administrateur	-13.9377
▁restrei	-13.9377
▁gui	-13.9382
▁fauss	-13.939
fi	-13.9393
▁Li	-13.9425
▁antiterroristes	-13.9426
▁tortures	-13.9438
dixième	-13.945
aya	-13.9454
exposition	-13.946
utilis	-13.9462
carbur	-13.9465
▁respectera	-13.9476
humain	-13.9476
obstacles	-13.9486
▁Jos	-13.9487
wit	-13.9495
▁résultera	-13.9498
itali	-13.9514
▁perpétu	-13.9514
lle	-13.9514
ourir	-13.9515
marines	-13.9534
XVI	-13.9541
▁Continu	-13.9544
finir	-13.9545
▁flexib	-13.9546
immense	-13.9547
intéresse	-13.9547
tection	-13.9548
estime	-13.9552
▁ma	-13.9558
▁prés	-13.9567
▁immatricul	-13.9578
légales	-13.9578
ha	-13.9586
▁situ	-13.959
▁facult	-13.9595
▁graduel	-13.9596
▁amen	-13.9596
appliquant	-13.9602
▁Entre	-13.9604
▁courte	-13.9607
assistant	-13.9615
munitions	-13.9616
▁décentralisé	-13.9618
énorme	-13.962
atelier	-13.962
Information	-13.9621
st	-13.9621
▁emplacement	-13.9631
anthropiques	-13.9634
excellente	-13.9635
▁dépasse	-13.9637
▁Dix	-13.964
▁Ham	-13.9641
index	-13.9641
▁renouvel	-13.9645
▁station	-13.9649
sh	-13.965
collectivement	-13.965
rables	-13.9651
Ac	-13.9651
consommation	-13.9659
agissait	-13.966
Andijan	-13.9662
universitaires	-13.9664
portant	-13.9669
erreur	-13.9673
nationale	-13.9676
Helsinki	-13.9676
infantile	-13.9679
bre	-13.9679
audience	-13.9681
exposé	-13.9684
Commerce	-13.9685
douz	-13.969
utilisateurs	-13.969
ancienne	-13.9692
▁ca	-13.9693
Alger	-13.9693
aéroport	-13.9695
quinze	-13.9695
adéquat	-13.9695
inadéquat	-13.9695
Africains	-13.9696
avancées	-13.9697
investir	-13.9702
interprètes	-13.9703
▁assurance	-13.9703
université	-13.9705
envoyé	-13.9706
traire	-13.9715
▁Com	-13.9718
▁mercena	-13.9723
▁déployé	-13.9728
éminentes	-13.9729
▁mille	-13.9734
▁cibl	-13.9736
▁occasionné	-13.974
▁exécut	-13.974
riat	-13.9751
tée	-13.9751
▁alarmant	-13.9755
▁comportera	-13.9757
gy	-13.9757
▁contrôl	-13.9777
▁Autr	-13.9777
▁représentera	-13.9778
veillant	-13.9779
▁diffuse	-13.9783
mera	-13.9785
▁introduit	-13.9787
icité	-13.9789
▁matérialis	-13.9799
▁renvoy	-13.98
▁handicapé	-13.98
rés	-13.9816
fact	-13.9822
accumul	-13.9823
employé	-13.9829
ressement	-13.983
scolaire	-13.9835
▁arrestation	-13.9845
départementale	-13.985
▁Mada	-13.9854
eff	-13.9856
id	-13.9871
▁généra	-13.9873
interprét	-13.9884
▁joint	-13.989
▁spécifi	-13.9893
▁réexamine	-13.9905
ccession	-13.9906
domin	-13.9912
affl	-13.9914
entraînera	-13.9916
oud	-13.992
▁média	-13.9922
▁définitifs	-13.9926
système	-13.9934
▁indiquera	-13.9936
mbée	-13.9947
ifficultés	-13.9952
▁explic	-13.9975
alité	-13.9975
ana	-13.9981
ordination	-13.9982
▁signalé	-13.999
▁tuteur	-13.9996
▁citoyen	-13.9999
▁achet	-14.0001
gal	-14.0001
▁progressiv	-14.0006
▁légère	-14.0007
provisionnement	-14.0011
▁évoque	-14.0017
▁intellectuel	-14.0023
▁nutritionnelle	-14.0036
▁inéquitable	-14.004
dront	-14.0042
xploitation	-14.0044
▁attaquer	-14.0044
▁endetté	-14.0045
endre	-14.0049
▁radioactive	-14.0052
ogène	-14.0053
▁magistrat	-14.0053
▁text	-14.0053
▁délégué	-14.0054
▁délinquant	-14.0054
▁village	-14.0055
▁vacant	-14.0055
▁évitable	-14.0056
▁bourse	-14.0056
▁répressive	-14.0056
▁réglementaire	-14.0056
▁avocat	-14.0057
▁sportif	-14.0057
▁comptable	-14.0059
Par	-14.006
jacente	-14.006
▁certifié	-14.0062
▁idéologique	-14.0063
▁aspiration	-14.0064
alis	-14.0064
▁ressent	-14.0064
ju	-14.0065
vec	-14.0067
▁original	-14.0067
▁attendue	-14.0071
▁alli	-14.0073
▁Addi	-14.0074
▁survivant	-14.0076
▁violé	-14.0078
ester	-14.0078
▁motivée	-14.0081
▁massacr	-14.0083
▁subséquente	-14.0085
▁poli	-14.0086
▁découler	-14.0094
iba	-14.0098
▁export	-14.0098
▁révélé	-14.0099
▁maîtres	-14.0102
général	-14.0102
mes	-14.0106
omission	-14.0106
▁altér	-14.011
▁carcéral	-14.0116
our	-14.0117
▁informatisé	-14.0118
ogue	-14.012
▁montagnard	-14.012
ctrices	-14.0121
▁stéréotyp	-14.0121
▁trouvé	-14.0123
jacents	-14.0126
▁minimal	-14.0126
volution	-14.0126
▁répète	-14.0128
▁catalog	-14.0129
▁Apporte	-14.0129
aractère	-14.013
êche	-14.0131
▁convoqu	-14.0131
ivilisation	-14.0131
▁conservera	-14.0132
ntinuer	-14.0132
ritères	-14.0133
balance	-14.0133
diction	-14.0133
ttribution	-14.0133
mmunité	-14.0134
orient	-14.0134
▁spécialiste	-14.0135
▁pernicieu	-14.0137
▁Fournit	-14.0137
▁vœu	-14.0137
ffermi	-14.0137
▁falsifi	-14.0137
▁littéra	-14.0137
ASEAN	-14.0137
CyberSchoolBus	-14.0137
Intranet	-14.0137
adjudication	-14.0137
artémésinine	-14.0137
autodiscipline	-14.0137
hernobyl	-14.0137
honnêteté	-14.0137
indivisibilité	-14.0137
ébauche	-14.0137
▁Baltique	-14.0137
▁Brasilia	-14.0137
▁Depayin	-14.0137
▁Dépositaire	-14.0137
▁Islamique	-14.0137
▁Keith	-14.0137
▁Kigali	-14.0137
▁Murahaleen	-14.0137
▁Varsovie	-14.0137
▁Vingt	-14.0137
▁Zagreb	-14.0137
▁albanais	-14.0137
▁alluviaux	-14.0137
▁alternative	-14.0137
▁anomalie	-14.0137
[...]
