<unk>	0
<s>	0
</s>	0
,	-2.65486
▁the	-2.71096
▁of	-3.12313
▁	-3.30092
▁and	-3.35409
▁to	-3.72989
.	-3.95498
2	-4.071
▁in	-4.08136
1	-4.08199
0	-4.10337
/	-4.45604
5	-4.53084
-	-4.58731
▁on	-4.70862
9	-4.72317
;	-4.82529
▁for	-4.84509
ed	-4.93786
3	-4.95433
6	-5.00797
4	-5.04948
7	-5.18425
▁with	-5.19588
▁that	-5.20184
▁Nations	-5.25788
▁its	-5.27435
▁a	-5.29167
8	-5.29255
▁as	-5.34733
▁by	-5.36041
ing	-5.41751
▁Unit	-5.4349
▁(	-5.44986
▁States	-5.5775
s	-5.66949
▁at	-5.67572
▁all	-5.81531
▁international	-5.88948
▁resolution	-5.90095
)	-5.92908
▁their	-5.95631
General	-6.03398
▁report	-6.06535
▁December	-6.07008
▁Secretary	-6.09187
▁including	-6.11338
▁development	-6.14063
▁Committee	-6.15267
A	-6.17389
▁or	-6.17854
▁A	-6.21822
▁Assembly	-6.25416
▁Republic	-6.2768
▁General	-6.31991
▁session	-6.38582
▁countries	-6.39086
▁other	-6.41043
▁rights	-6.44144
▁implementation	-6.4615
▁be	-6.47273
▁organizations	-6.4984
▁human	-6.50784
▁from	-6.50789
▁International	-6.53258
▁Convention	-6.54784
▁which	-6.55861
▁S	-6.56713
:	-6.61756
▁efforts	-6.63789
▁relevant	-6.65196
▁this	-6.67968
▁an	-6.69184
▁cooperation	-6.7022
),	-6.70346
▁particular	-6.74503
▁No	-6.76207
▁continue	-6.79378
▁national	-6.81694
▁well	-6.82288
▁Conference	-6.82431
▁are	-6.82603
▁annex	-6.84736
d	-6.85468
▁support	-6.86403
▁Recalling	-6.88626
▁Development	-6.88667
▁is	-6.88764
▁regional	-6.88807
▁measures	-6.89085
al	-6.89592
▁system	-6.90378
▁Commission	-6.92522
▁upon	-6.9282
▁assistance	-6.93648
y	-6.94246
▁through	-6.94353
▁also	-6.94564
▁activities	-6.94628
See	-6.95961
▁Organization	-6.9689
▁I	-6.97701
▁Council	-6.99104
▁Requests	-7.00687
▁work	-7.01187
▁information	-7.02948
▁such	-7.03078
▁developing	-7.03444
▁Rights	-7.03491
▁Declaration	-7.03576
ted	-7.0394
▁ensure	-7.04248
c	-7.06505
▁further	-7.06569
▁resolutions	-7.06664
▁Member	-7.0716
▁under	-7.0754
▁appropriate	-7.07645
▁have	-7.07722
▁need	-7.07777
▁note	-7.08351
▁into	-7.08365
▁meeting	-7.10387
▁law	-7.11694
'	-7.12294
▁importance	-7.13426
▁against	-7.13561
▁World	-7.1365
▁Human	-7.14115
▁C	-7.14364
ly	-7.14886
e	-7.14978
ance	-7.15427
▁economic	-7.16971
▁accord	-7.17632
▁"	-7.19512
▁regard	-7.19658
out	-7.21061
▁Uni	-7.21962
▁non	-7.23138
▁it	-7.23467
▁resources	-7.23899
▁Programme	-7.24127
▁programmes	-7.27094
▁women	-7.27682
▁take	-7.28239
▁effective	-7.29458
▁between	-7.30589
a	-7.33043
▁not	-7.33149
▁Africa	-7.33882
▁within	-7.34541
▁State	-7.34875
▁humanitarian	-7.36673
▁financial	-7.37214
▁draft	-7.37576
▁shall	-7.3968
▁parties	-7.42862
▁full	-7.42979
▁E	-7.43373
ose	-7.43398
▁inter	-7.446
▁para	-7.4461
▁Special	-7.44626
▁th	-7.45362
▁Economic	-7.45431
▁promote	-7.4588
▁New	-7.46477
▁Governments	-7.46661
▁should	-7.46714
▁Calls	-7.46716
▁The	-7.46751
t	-7.46935
▁Action	-7.47676
▁provide	-7.47704
▁security	-7.48006
▁RESOLUTION	-7.48234
▁plenary	-7.48323
▁special	-7.4893
▁peace	-7.49056
▁requests	-7.49402
▁social	-7.49416
lso	-7.49918
th	-7.50471
▁vote	-7.50519
▁respect	-7.50609
▁order	-7.51934
▁made	-7.52039
▁Supplement	-7.52451
▁Government	-7.52814
▁persons	-7.53475
▁was	-7.53838
▁adopted	-7.55625
▁protection	-7.56063
▁present	-7.56208
▁Decides	-7.5631
▁Social	-7.56745
▁fifty	-7.57086
▁necessary	-7.57225
▁November	-7.57296
▁paragraph	-7.57335
▁role	-7.57427
▁Welcomes	-7.57558
▁Office	-7.58408
▁held	-7.58505
I	-7.59221
▁community	-7.59245
▁entitled	-7.59992
▁nuclear	-7.60657
▁among	-7.61392
▁B	-7.61843
▁any	-7.63686
▁To	-7.64127
▁children	-7.64553
▁recommendation	-7.64829
The	-7.65642
▁use	-7.66677
governmental	-7.66827
▁Record	-7.67619
▁consider	-7.68098
▁programme	-7.6866
▁chap	-7.68769
▁recommendations	-7.68835
▁African	-7.69014
▁South	-7.70056
▁Arab	-7.70414
▁Treaty	-7.70456
▁bodies	-7.70487
on	-7.7091
▁recommended	-7.71411
▁Ireland	-7.71866
▁action	-7.71882
▁right	-7.72452
▁Session	-7.72654
▁account	-7.72879
▁Noting	-7.73111
n	-7.73516
▁progress	-7.73871
▁strengthen	-7.7397
▁so	-7.74801
▁out	-7.74891
▁institutions	-7.75013
▁II	-7.75165
▁sustainable	-7.75486
▁basis	-7.75719
▁Notes	-7.75995
▁alia	-7.76089
▁agencies	-7.7651
▁management	-7.77083
▁process	-7.77105
▁High	-7.79151
▁t	-7.79974
hose	-7.80135
▁people	-7.80497
▁Fund	-7.80578
▁related	-7.80605
▁Encourages	-7.81494
▁Urges	-7.81617
▁Tak	-7.81791
▁Security	-7.81827
▁levels	-7.81914
o	-7.821
).	-7.82826
▁encourages	-7.82852
▁Democrati	-7.83092
▁appreciation	-7.83101
Unit	-7.83283
▁provisions	-7.84048
▁review	-7.84976
▁concern	-7.85676
▁decision	-7.86266
sponsored	-7.86591
▁include	-7.86736
Resolution	-7.87059
▁taking	-7.8746
▁has	-7.87576
▁vol	-7.87744
▁capacity	-7.88081
▁Adopt	-7.88469
▁will	-7.88973
▁implement	-7.89549
▁context	-7.90054
▁poverty	-7.90099
▁promotion	-7.90626
▁September	-7.91543
▁his	-7.92927
▁sixty	-7.93171
▁public	-7.94512
▁Guinea	-7.94519
▁Recognizing	-7.94677
▁America	-7.94774
▁Commissioner	-7.94809
▁make	-7.94854
b	-7.95495
▁article	-7.95764
▁possible	-7.95819
▁view	-7.96018
▁them	-7.96082
▁June	-7.96273
▁participation	-7.96437
▁Invites	-7.96663
▁where	-7.96964
▁submit	-7.97117
▁Summit	-7.97515
▁political	-7.97804
▁Parties	-7.97829
▁disarmament	-7.98386
▁calls	-7.98427
▁education	-7.9881
▁Congo	-7.99366
▁gender	-7.9973
▁policies	-8.00123
▁July	-8.0053
▁may	-8.0167
▁reports	-8.01875
▁global	-8.01907
▁Charter	-8.02634
▁contributions	-8.04173
▁concerned	-8.04247
▁technical	-8.04334
▁services	-8.0453
▁members	-8.04546
▁Afghanistan	-8.04812
▁world	-8.05389
▁needs	-8.05497
S	-8.05891
▁access	-8.05954
▁Reaffirms	-8.06233
▁Millennium	-8.06488
▁Take	-8.06798
▁item	-8.0685
▁fully	-8.07316
▁issues	-8.07489
▁Corr	-8.07605
▁agenda	-8.07613
▁coordination	-8.0786
▁areas	-8.08016
▁field	-8.08061
▁Palestinian	-8.08801
▁relating	-8.08906
▁Reaffirming	-8.09081
▁consideration	-8.09281
▁new	-8.0937
▁strengthening	-8.09655
▁principles	-8.09702
ern	-8.10315
bid	-8.10625
".	-8.10693
▁society	-8.12648
▁towards	-8.12765
▁violence	-8.12849
E	-8.13814
▁M	-8.1437
▁high	-8.14404
▁exist	-8.14935
▁Implementation	-8.16022
▁Welcoming	-8.16243
▁comprehensive	-8.16652
▁dollars	-8.17006
▁mandate	-8.17287
▁country	-8.17358
ic	-8.17612
▁Korea	-8.17712
▁set	-8.17871
▁request	-8.17925
▁Information	-8.18272
▁weapons	-8.1839
▁situation	-8.18479
▁Law	-8.19292
▁legal	-8.19751
▁People	-8.20017
▁In	-8.20065
▁fundamental	-8.20076
▁O	-8.20105
▁taken	-8.20129
▁publication	-8.20545
▁enhance	-8.20627
▁mind	-8.2073
▁promoting	-8.2078
▁Group	-8.21015
▁Territory	-8.21353
▁important	-8.21455
▁established	-8.21986
▁Department	-8.22262
▁Countries	-8.22549
▁level	-8.22611
▁means	-8.23359
▁address	-8.23415
▁contain	-8.23903
▁Non	-8.24393
▁part	-8.24514
▁region	-8.24542
▁establishment	-8.2464
▁Stresses	-8.25186
▁Secretariat	-8.25224
▁trade	-8.25659
▁urges	-8.25729
▁personnel	-8.25815
Add	-8.25834
es	-8.26739
▁contribute	-8.26897
▁Un	-8.26976
▁Israel	-8.27843
▁forms	-8.28029
ited	-8.2816
▁civil	-8.28312
▁Sales	-8.28427
▁training	-8.28479
▁obligations	-8.29066
▁provided	-8.2917
▁Agreement	-8.29249
▁Trade	-8.29707
▁T	-8.29812
▁Official	-8.29947
▁more	-8.30038
▁health	-8.30576
▁Crime	-8.30805
▁Cooperation	-8.30908
se	-8.30962
▁conflict	-8.3116
▁Protocol	-8.31922
▁staff	-8.32014
▁Italy	-8.321
first	-8.32392
▁Sudan	-8.32652
▁discrimination	-8.32713
▁P	-8.33092
up	-8.33215
▁Islands	-8.33285
▁goals	-8.33438
▁developed	-8.33534
▁France	-8.33547
▁outcome	-8.33662
▁budget	-8.33771
▁Territories	-8.33772
▁April	-8.34103
▁arrangements	-8.34262
▁Add	-8.34369
▁U	-8.34405
building	-8.34625
▁North	-8.34844
▁refugees	-8.34941
ambia	-8.34975
▁prevention	-8.35268
ustainable	-8.35268
▁F	-8.35274
▁increase	-8.35304
▁Plan	-8.35359
▁Dominica	-8.35921
▁Central	-8.35927
▁initiatives	-8.36026
▁Germany	-8.36035
▁agreed	-8.36177
yan	-8.36324
▁during	-8.36711
▁commitment	-8.37797
▁Agency	-8.37817
▁Great	-8.37889
nited	-8.37967
▁October	-8.38237
▁Portugal	-8.38472
▁Greece	-8.38588
▁follow	-8.38662
▁Spain	-8.38705
▁Austria	-8.39092
so	-8.39144
▁Fift	-8.39146
▁Kingdom	-8.39178
▁framework	-8.39201
▁one	-8.39225
seventh	-8.39396
▁former	-8.3956
▁period	-8.39767
▁specialized	-8.3978
▁facilitate	-8.40121
▁welcomes	-8.40158
▁peoples	-8.40256
▁number	-8.40263
▁been	-8.40287
",	-8.40346
▁natural	-8.40375
▁funds	-8.40712
▁sect	-8.40826
Official	-8.40938
▁meetings	-8.40997
▁twenty	-8.411
▁Canada	-8.41219
▁Recognizes	-8.4134
▁private	-8.41383
▁Weapons	-8.41408
▁Hav	-8.41563
▁continuing	-8.41854
▁mechanisms	-8.41914
▁Netherlands	-8.42182
▁considered	-8.4226
▁impact	-8.4249
▁continued	-8.42558
▁voluntary	-8.42638
▁Mexico	-8.42674
▁child	-8.42815
▁provisional	-8.4291
▁Women	-8.42997
▁practices	-8.43142
▁Finland	-8.43283
▁assist	-8.43545
▁develop	-8.43951
eighth	-8.43983
▁who	-8.44077
▁Belgium	-8.44149
▁Sweden	-8.44397
third	-8.44464
▁Japan	-8.45146
▁Bangladesh	-8.45276
ary	-8.45435
▁Egypt	-8.45524
▁Denmark	-8.45652
▁strategies	-8.45654
tergovernmental	-8.46163
▁Norway	-8.46544
▁aimed	-8.46562
l	-8.4663
▁trafficking	-8.4664
▁Cuba	-8.46791
▁adequate	-8.46871
▁Rapporteur	-8.46999
▁instruments	-8.47056
▁August	-8.47211
▁Luxembourg	-8.47308
▁Indonesia	-8.47313
▁prevent	-8.4732
▁submitted	-8.47708
▁Guatemala	-8.47834
▁El	-8.48044
▁Federation	-8.48211
▁cooperate	-8.48278
▁terrorism	-8.48315
▁Expresses	-8.48362
▁can	-8.48366
▁conditions	-8.4837
▁freedoms	-8.48437
▁biennium	-8.48524
▁Russian	-8.48756
▁concerning	-8.48968
▁force	-8.49211
▁affected	-8.49214
▁while	-8.49384
▁Chile	-8.49387
▁contribution	-8.49972
▁Cyprus	-8.50036
▁major	-8.5017
▁groups	-8.5127
▁priority	-8.51275
▁status	-8.51366
▁environment	-8.51473
▁end	-8.51546
▁Advisory	-8.51639
▁available	-8.51723
▁cultural	-8.51991
ninth	-8.52126
▁East	-8.52181
▁adoption	-8.53024
▁justice	-8.53127
▁question	-8.53192
▁Malta	-8.5325
▁achieve	-8.5352
▁Morocco	-8.53525
▁agreements	-8.53711
▁Croatia	-8.53935
▁sector	-8.54005
▁Board	-8.54032
▁Poland	-8.54073
▁Romania	-8.54347
▁Ecuador	-8.54347
▁Argentina	-8.54355
▁Rica	-8.54482
▁Senegal	-8.54623
ch	-8.54686
▁Slovenia	-8.54762
▁two	-8.5483
▁dialogue	-8.55263
C	-8.55357
▁subregional	-8.55775
▁ensuring	-8.55893
▁Brit	-8.55943
▁arms	-8.55963
▁Malaysia	-8.56013
▁Ukraine	-8.56014
▁Series	-8.56152
▁March	-8.56435
ealand	-8.56531
▁particularly	-8.56697
▁Brazil	-8.56714
▁Yugoslav	-8.56714
about	-8.56729
second	-8.57048
▁commitments	-8.5712
▁Macedonia	-8.5714
▁Algeria	-8.57145
CONF	-8.57235
▁both	-8.57278
▁control	-8.57544
ain	-8.5773
▁Party	-8.57744
▁small	-8.57797
sixth	-8.5788
▁objectives	-8.57884
▁May	-8.58601
▁Myanmar	-8.58708
▁improve	-8.58709
▁multilateral	-8.58796
▁invites	-8.58933
Report	-8.58985
▁satisfaction	-8.58998
▁Disarmament	-8.59017
▁India	-8.5929
▁Peace	-8.59403
▁Hungary	-8.59429
▁Scientific	-8.59867
▁Thailand	-8.60303
▁Australia	-8.6031
▁technology	-8.60517
▁fisheries	-8.60596
▁illicit	-8.60608
▁Nigeria	-8.60908
armed	-8.60928
▁future	-8.61041
▁establish	-8.61114
▁Nuclear	-8.61166
▁China	-8.6118
▁responsibility	-8.61189
▁Cambodia	-8.61484
▁attention	-8.61778
▁Palestine	-8.61927
▁Bulgaria	-8.6222
▁providing	-8.62316
▁implementing	-8.62336
te	-8.62486
▁Slovakia	-8.62518
▁interest	-8.62582
▁Emphasizes	-8.62821
▁acts	-8.62863
▁Salvador	-8.62967
▁Public	-8.62979
st	-8.63307
▁purposes	-8.6354
▁Bosnia	-8.63568
▁Jordan	-8.63719
"	-8.64113
▁Herzegovina	-8.64176
ve	-8.64336
▁Criminal	-8.64489
▁debt	-8.64885
▁transition	-8.64933
▁Lithuania	-8.65091
▁additional	-8.65316
▁time	-8.65451
▁Peru	-8.65546
▁eradication	-8.65563
▁undertaken	-8.65606
▁Education	-8.65698
▁manner	-8.65704
▁actions	-8.65816
in	-8.65912
self	-8.66007
▁victims	-8.6605
▁problems	-8.66235
▁Iceland	-8.66478
▁Turkey	-8.66633
er	-8.6668
▁Centre	-8.66949
▁reduction	-8.67116
▁some	-8.67125
▁official	-8.67138
▁Belarus	-8.67572
▁Monaco	-8.67886
▁Prevention	-8.67993
▁notes	-8.68013
▁Kenya	-8.68042
▁space	-8.68113
▁respective	-8.68143
aint	-8.68596
▁systems	-8.68606
▁Colombia	-8.68714
▁D	-8.69346
▁Mission	-8.69479
▁Decade	-8.69484
▁effectively	-8.69606
▁Ethiopia	-8.69636
▁Reiterates	-8.69798
▁safety	-8.69811
▁policy	-8.6995
▁Mali	-8.69954
dopted	-8.70004
▁mandates	-8.70201
▁Work	-8.70263
▁Tunisia	-8.70279
▁being	-8.71094
▁least	-8.71097
▁based	-8.7119
▁Iran	-8.71249
▁provision	-8.71326
▁do	-8.71407
▁Pakistan	-8.71423
▁displaced	-8.71582
▁Namibia	-8.71742
▁Marin	-8.71744
▁each	-8.71811
▁local	-8.72036
▁Sierra	-8.72399
▁Leone	-8.72563
▁Djibouti	-8.72566
▁achievement	-8.72575
▁assessment	-8.72728
▁Latvia	-8.72895
yrian	-8.72909
▁Moldova	-8.73062
ze	-8.73096
▁working	-8.73585
▁steps	-8.73626
▁Tribunal	-8.73892
▁done	-8.73968
▁achieving	-8.74079
▁conferences	-8.74142
level	-8.74261
▁Uruguay	-8.74398
▁Estonia	-8.74399
▁Panama	-8.74435
▁Angola	-8.74903
▁Cameroon	-8.74905
▁subject	-8.7497
▁V	-8.75001
kina	-8.75039
▁Armenia	-8.75073
▁Bur	-8.75261
▁All	-8.75469
▁Environment	-8.75632
L	-8.75646
▁girls	-8.75666
▁Haiti	-8.75716
▁Philippines	-8.75755
▁equal	-8.76447
▁first	-8.76729
▁serious	-8.76954
▁III	-8.7699
▁plan	-8.77323
▁essential	-8.77474
▁section	-8.77705
▁corrigendum	-8.77822
▁enable	-8.77866
▁stresses	-8.78001
▁disaster	-8.78027
▁procedures	-8.78135
▁Madagascar	-8.78171
▁Nicaragua	-8.7852
▁rule	-8.78537
▁criminal	-8.79102
▁operations	-8.79188
▁Liechtenstein	-8.79225
▁close	-8.79269
ation	-8.79286
▁protect	-8.79521
▁recorded	-8.79603
▁Kazakhstan	-8.79779
▁crime	-8.79965
Ivoire	-8.80064
▁decisions	-8.8007
▁follows	-8.80079
▁Bolivia	-8.80109
▁rehabilitation	-8.80115
▁Further	-8.80367
▁Caribbean	-8.80467
▁Venezuela	-8.80646
▁Benin	-8.80822
▁above	-8.80823
▁specific	-8.80826
▁combat	-8.80847
▁no	-8.80857
▁Mongolia	-8.80864
▁would	-8.81001
▁Agenda	-8.81004
▁Review	-8.81123
▁marine	-8.81183
▁Azerbaijan	-8.81185
▁increased	-8.81411
▁San	-8.81681
ory	-8.81682
▁domestic	-8.81717
weapon	-8.81914
▁standards	-8.8199
▁ye	-8.82023
atar	-8.82086
▁internationally	-8.82192
▁Lebanon	-8.82454
▁Kuwait	-8.82651
▁Discrimination	-8.82901
▁Europe	-8.83183
▁amount	-8.83227
▁over	-8.83499
▁drug	-8.83809
▁Rwanda	-8.83851
▁violations	-8.84228
▁consistent	-8.84241
▁economies	-8.8448
▁Sea	-8.84747
▁regarding	-8.85089
▁sessions	-8.85388
▁when	-8.85558
▁universal	-8.85815
▁freedom	-8.86211
▁purpose	-8.86542
▁Court	-8.86543
▁R	-8.86573
▁proposals	-8.86667
▁Justice	-8.86954
▁Mauritius	-8.86961
▁most	-8.87114
▁Georgia	-8.87116
▁give	-8.87217
▁Tanzania	-8.87308
▁issue	-8.87411
▁Arabia	-8.87502
▁common	-8.87558
term	-8.87637
▁financing	-8.88293
▁Global	-8.88346
▁representatives	-8.88402
▁approach	-8.88415
▁disasters	-8.88658
▁HIV	-8.88665
ra	-8.88903
▁growth	-8.89066
▁Union	-8.89421
▁Power	-8.89492
▁Fa	-8.89776
▁Ghana	-8.89824
▁Honduras	-8.90024
▁administer	-8.90038
▁integration	-8.90083
based	-8.90117
▁enhancing	-8.90433
▁required	-8.90707
▁pursuan	-8.9089
i	-8.91006
▁increasing	-8.91075
▁Lib	-8.91083
▁January	-8.91219
▁thereon	-8.91301
▁G	-8.91326
▁Geneva	-8.91417
▁forty	-8.91558
▁Timor	-8.91613
▁equality	-8.91692
▁Switzerland	-8.91811
▁understanding	-8.91899
▁response	-8.92097
able	-8.92233
▁play	-8.92253
Islam	-8.92302
▁matter	-8.92314
nei	-8.92424
uestions	-8.92606
▁Mozambique	-8.92817
▁aspects	-8.9283
▁recent	-8.92955
▁requested	-8.92965
AIDS	-8.93011
▁Albania	-8.93017
▁Bru	-8.93215
▁Darussalam	-8.93222
▁early	-8.93532
▁awareness	-8.93747
▁d	-8.93763
▁person	-8.93774
▁Yemen	-8.93829
▁Somalia	-8.93842
▁plans	-8.93843
▁since	-8.93847
▁Jamahiriya	-8.94037
▁Administrative	-8.9404
▁Institute	-8.94291
determination	-8.94359
II	-8.94405
or	-8.94718
▁following	-8.9483
▁Togo	-8.94855
▁years	-8.94913
▁containe	-8.94941
▁Protection	-8.95142
▁application	-8.95147
▁risk	-8.9525
▁annual	-8.95682
▁participate	-8.95747
ially	-8.95821
▁Comoros	-8.95895
▁technologies	-8.95905
▁peacekeeping	-8.95925
▁paragraphs	-8.96186
espec	-8.96282
▁sixtieth	-8.96322
▁maintain	-8.96511
▁racial	-8.96564
▁Cap	-8.96722
▁Jamaica	-8.96943
▁Verde	-8.97152
▁Emirates	-8.97578
▁Eritrea	-8.98003
▁previous	-8.98645
▁Year	-8.98678
▁Mauritania	-8.9886
▁final	-8.98885
▁transfer	-8.98893
▁relief	-8.99186
▁Covenant	-8.9929
▁views	-8.99386
▁Meeting	-8.99412
▁Persons	-9.00158
▁realization	-9.00161
▁treatment	-9.00347
▁un	-9.0035
▁Cost	-9.00532
▁Bahra	-9.00891
▁ways	-9.01095
▁Express	-9.01187
▁Viet	-9.01248
▁Gu	-9.0143
▁Nam	-9.01464
▁proposed	-9.01505
▁re	-9.01872
▁Uganda	-9.0192
▁Food	-9.01983
Part	-9.02413
many	-9.02696
▁carry	-9.02804
▁call	-9.03072
▁rules	-9.03224
▁Inter	-9.03427
▁fact	-9.03481
▁peaceful	-9.03645
▁challenges	-9.03776
▁effectiveness	-9.03902
▁property	-9.03938
ri	-9.04118
ion	-9.04139
▁Yugoslavia	-9.04155
▁conference	-9.04276
▁disabilities	-9.04381
▁reconstruction	-9.04382
▁see	-9.04478
▁Nepal	-9.04603
▁negotiations	-9.04659
▁Other	-9.04828
▁authorities	-9.04846
imbabwe	-9.05247
▁Lanka	-9.05288
▁racism	-9.0532
III	-9.05461
▁meet	-9.05638
▁post	-9.05753
▁elimination	-9.05754
▁food	-9.05861
audi	-9.05966
▁consultation	-9.0613
▁fishing	-9.06226
▁Sa	-9.06339
▁addressing	-9.06535
bearing	-9.06858
▁Burundi	-9.06907
▁good	-9.07035
V	-9.07098
▁area	-9.07134
▁substantive	-9.07142
▁regular	-9.07143
▁torture	-9.07154
▁Affairs	-9.07374
▁Suriname	-9.07374
▁Singapore	-9.07375
▁encourage	-9.07432
▁problem	-9.07508
fifth	-9.07526
▁Belize	-9.07607
▁Lesotho	-9.07608
▁sexual	-9.07627
earing	-9.07633
▁origin	-9.0765
▁population	-9.07747
▁missions	-9.07858
Govern	-9.08095
▁her	-9.08238
▁Barbados	-9.08314
▁if	-9.08357
▁Ho	-9.0837
going	-9.0841
▁Representative	-9.0844
▁centres	-9.08631
▁urgent	-9.08783
▁Ad	-9.08849
▁Malawi	-9.09024
▁Financ	-9.09127
▁Cultur	-9.0922
▁result	-9.09359
▁general	-9.09438
▁intolerance	-9.09556
ive	-9.09602
▁current	-9.09687
▁timely	-9.09842
f	-9.09886
▁refugee	-9.09895
▁Israeli	-9.10019
▁data	-9.10217
▁reaffirms	-9.10644
Leste	-9.1066
▁open	-9.10826
▁Emphasizing	-9.10949
▁organization	-9.11164
▁Use	-9.11358
▁Beijing	-9.11431
▁Refugees	-9.11465
▁thereto	-9.11469
▁due	-9.11475
iji	-9.11662
▁Botswana	-9.1192
▁opportunities	-9.11923
▁globalization	-9.11934
▁facilities	-9.12167
▁Samoa	-9.12408
▁consequences	-9.12429
▁per	-9.12436
▁Space	-9.12628
national	-9.12668
▁Forum	-9.12681
▁treaty	-9.13169
▁return	-9.13169
▁noting	-9.13228
▁place	-9.13545
▁Framework	-9.1366
▁free	-9.13687
▁approved	-9.13692
▁results	-9.13741
ua	-9.13787
▁La	-9.13926
▁military	-9.13987
▁combating	-9.14115
▁than	-9.1426
▁operational	-9.143
▁For	-9.14492
▁democracy	-9.14673
elf	-9.14724
▁Pap	-9.14874
▁life	-9.14896
fourth	-9.14973
▁entities	-9.15156
▁Executive	-9.15409
▁improving	-9.15418
▁Re	-9.15441
▁integrated	-9.15531
▁deep	-9.15545
▁stability	-9.15672
▁performance	-9.15762
▁Serbia	-9.15914
▁entry	-9.15935
▁L	-9.1599
related	-9.16015
▁compliance	-9.16038
▁host	-9.16067
▁agreement	-9.16099
▁mine	-9.16111
▁group	-9.16127
▁Assistance	-9.16208
▁situations	-9.1629
▁President	-9.16312
▁matters	-9.16337
▁conformity	-9.16428
▁priorities	-9.16429
▁Partnership	-9.16451
▁conclusions	-9.16614
▁Tobago	-9.16938
▁Trin	-9.16948
▁Children	-9.16952
▁equitable	-9.17047
▁languages	-9.17121
▁bilateral	-9.17134
▁enjoyment	-9.172
▁eliminate	-9.17221
▁Grenada	-9.17527
▁We	-9.17558
▁religion	-9.17642
▁subsequent	-9.17663
▁territorial	-9.17779
▁monitoring	-9.17941
▁Co	-9.18165
▁processes	-9.18202
▁York	-9.1823
ccupied	-9.18486
▁committed	-9.18578
▁communication	-9.18727
▁research	-9.18788
▁environmental	-9.18858
▁crimes	-9.18983
▁Kyrgyzstan	-9.19022
▁Agriculture	-9.19028
▁preparation	-9.19232
▁legislation	-9.19286
▁living	-9.19367
▁administrative	-9.19553
▁Report	-9.19619
▁associated	-9.1963
▁Tajikistan	-9.19813
▁consultations	-9.19933
▁Iraq	-9.20605
▁after	-9.20776
▁significant	-9.21084
▁collaboration	-9.21149
▁exploitation	-9.21192
▁referr	-9.21225
▁text	-9.21319
▁Small	-9.21411
▁Gabon	-9.21412
▁objective	-9.21627
▁migrants	-9.21675
▁mus	-9.21915
▁respond	-9.2192
▁Lucia	-9.21951
▁destruction	-9.2196
▁Coordination	-9.21972
▁Johannesburg	-9.2215
▁remain	-9.22294
▁territory	-9.22499
▁internally	-9.22534
▁up	-9.2272
▁Montenegro	-9.2277
▁Vienna	-9.22803
▁year	-9.22901
▁Liberia	-9.23042
▁Drugs	-9.23211
▁Joint	-9.23362
▁decides	-9.23364
▁partners	-9.23621
▁Jerusalem	-9.23867
▁Stressing	-9.23872
▁long	-9.23909
▁diversity	-9.24159
▁Political	-9.24168
▁knowledge	-9.24184
▁exercise	-9.24194
ndor	-9.24201
▁fulfil	-9.24334
▁vulnerable	-9.24421
▁Community	-9.24421
▁organs	-9.24486
▁emergency	-9.24495
▁Micronesia	-9.24698
▁abuse	-9.24751
id	-9.24787
▁exchange	-9.24814
▁constitute	-9.24831
▁Swaziland	-9.24976
▁achieved	-9.24992
▁undertake	-9.25174
▁Peoples	-9.25426
▁funding	-9.25484
▁recognizing	-9.25541
light	-9.2563
▁projects	-9.25705
▁perspective	-9.25764
cially	-9.25833
IV	-9.25874
▁capacities	-9.26099
▁applicable	-9.26107
▁effects	-9.26161
▁At	-9.26183
▁favour	-9.2625
▁parts	-9.26318
▁become	-9.26328
▁o	-9.26484
▁land	-9.26549
espe	-9.26664
r	-9.2673
▁three	-9.2704
▁Members	-9.27332
▁used	-9.27335
▁could	-9.27515
▁Bhutan	-9.27516
▁greater	-9.2753
▁regions	-9.27658
▁sources	-9.27738
▁Antigua	-9.27804
▁religious	-9.27895
▁conduct	-9.27949
▁Eliminati	-9.28045
▁Barbuda	-9.28091
▁primary	-9.28102
▁strategy	-9.28118
bstentions	-9.28196
▁bring	-9.28372
▁better	-9.28383
▁governance	-9.28449
▁documents	-9.28701
▁requirements	-9.28736
▁there	-9.28785
▁effect	-9.28938
▁concrete	-9.28959
▁study	-9.29242
▁Recalls	-9.29266
▁pay	-9.29331
▁Article	-9.29342
Proliferation	-9.29497
▁benefits	-9.29536
▁Niger	-9.29537
▁expressed	-9.29634
▁help	-9.29886
▁culture	-9.29903
▁experts	-9.30025
▁reform	-9.3006
▁v	-9.30266
▁Prohibition	-9.30541
▁indigenous	-9.307
▁Developing	-9.30732
▁seek	-9.30795
▁donor	-9.30998
▁Platform	-9.31012
▁transparency	-9.3102
▁xenophobia	-9.31026
▁settlement	-9.31291
▁illegal	-9.31381
▁best	-9.31394
est	-9.31467
▁before	-9.31621
▁reduce	-9.31787
▁Child	-9.31934
▁sub	-9.31991
▁preventing	-9.32096
▁making	-9.32097
▁threat	-9.32146
▁Forms	-9.32249
▁Afghan	-9.32409
arious	-9.32455
▁administration	-9.32509
olom	-9.32604
▁document	-9.3286
▁adopt	-9.32866
▁jurisdiction	-9.3306
▁production	-9.3312
▁responsible	-9.33171
▁Pacific	-9.33341
▁Nauru	-9.33407
free	-9.34446
▁employment	-9.34482
▁cent	-9.34611
▁dissemination	-9.34636
▁conflicts	-9.34678
ity	-9.34873
▁fields	-9.352
▁principle	-9.35533
▁enforcement	-9.35565
▁second	-9.35594
ines	-9.35653
▁Grenad	-9.3578
▁youth	-9.35866
▁intensify	-9.3588
▁Management	-9.37104
▁Bahamas	-9.37119
▁Protocols	-9.37133
▁counter	-9.37204
▁safe	-9.37429
▁organiz	-9.37475
▁independent	-9.37506
▁Bank	-9.37748
▁media	-9.37802
▁fish	-9.38446
▁actors	-9.38475
▁given	-9.38542
ultural	-9.38628
▁third	-9.38673
▁behalf	-9.38707
▁Convinced	-9.38716
▁active	-9.38789
▁affect	-9.38884
▁outcomes	-9.39022
▁recognizes	-9.39198
▁mutual	-9.39284
▁Fourth	-9.39493
man	-9.39614
▁February	-9.39672
▁economy	-9.39673
▁Uzbekistan	-9.39673
▁Abst	-9.39691
aining	-9.39744
▁physical	-9.39877
▁scientific	-9.40008
▁democratic	-9.40044
the	-9.40232
▁date	-9.40427
(	-9.40441
▁recovery	-9.40649
▁enhanced	-9.40796
▁benefit	-9.40801
▁nature	-9.41006
▁terms	-9.41101
▁Al	-9.41377
▁goal	-9.41622
making	-9.41623
▁developments	-9.41873
▁stakeholders	-9.41965
▁Second	-9.41974
▁instrument	-9.42052
▁extent	-9.42296
▁Grant	-9.42319
▁care	-9.4232
▁legislative	-9.42352
▁sustained	-9.42401
▁Legal	-9.42532
▁Document	-9.42604
omic	-9.42614
▁practical	-9.42626
ready	-9.42649
.,	-9.427
▁obligation	-9.42957
▁apply	-9.42973
▁Asia	-9.43543
▁efficiency	-9.43629
Federat	-9.43641
▁income	-9.43665
▁relations	-9.43858
▁form	-9.43885
▁partnerships	-9.43902
▁Colonial	-9.443
▁emphasizes	-9.4434
▁therein	-9.44411
▁evaluation	-9.44702
▁corruption	-9.44781
▁Subcommittee	-9.44967
▁Division	-9.44995
▁al	-9.45072
▁treaties	-9.45323
▁advisory	-9.45327
item	-9.45334
▁reporting	-9.45458
▁total	-9.4559
▁coordinated	-9.45894
an	-9.46136
▁convention	-9.46177
responsibilities	-9.46407
proliferation	-9.4644
arian	-9.4648
▁H	-9.46545
▁island	-9.46645
▁joint	-9.46649
▁negative	-9.467
▁planning	-9.46702
▁Maldives	-9.47045
▁every	-9.47056
▁conservation	-9.47401
▁create	-9.47657
▁involvement	-9.47747
▁men	-9.47888
▁individuals	-9.48035
▁competent	-9.48096
▁Strategy	-9.48119
▁Civil	-9.48358
▁Endorses	-9.48446
▁large	-9.48514
▁communications	-9.48631
▁gross	-9.48796
▁young	-9.48796
▁involved	-9.48874
▁communities	-9.4916
▁material	-9.49179
▁declaration	-9.49179
▁laws	-9.49181
▁targets	-9.497
▁Chairman	-9.49789
▁different	-9.49849
▁critical	-9.49884
▁functions	-9.50054
Boliv	-9.50184
▁Tonga	-9.50222
▁stocks	-9.50264
▁Force	-9.5036
▁supporting	-9.50483
▁way	-9.50672
▁causes	-9.50693
▁cases	-9.51278
▁Tokelau	-9.51308
▁family	-9.51404
▁Principles	-9.51687
▁guidelines	-9.51702
▁secretariat	-9.51706
▁Process	-9.52037
▁maintenance	-9.52039
▁identify	-9.52067
▁case	-9.52078
▁Universal	-9.52096
▁rural	-9.52129
▁actively	-9.52132
▁assessments	-9.52415
▁workers	-9.52449
▁convening	-9.52566
▁Para	-9.52648
▁positive	-9.52739
▁Monterrey	-9.52804
▁grave	-9.52812
▁soon	-9.53082
▁Rome	-9.53161
▁act	-9.53251
▁sectors	-9.53313
CN	-9.53493
▁Resolutions	-9.53493
▁summits	-9.53632
▁potential	-9.53882
▁belief	-9.53918
▁investment	-9.53921
guay	-9.5409
▁member	-9.54114
▁cost	-9.54187
ment	-9.54226
▁same	-9.54256
▁commissions	-9.54386
▁functioning	-9.54503
▁Turkmenistan	-9.55007
▁keep	-9.55084
▁Region	-9.55191
▁carried	-9.55389
▁initiative	-9.55429
▁migrant	-9.55431
▁migration	-9.55437
▁assisting	-9.5567
▁W	-9.55707
▁Service	-9.55806
▁occupied	-9.55835
ida	-9.5602
▁System	-9.56185
▁transit	-9.56634
▁conventions	-9.56847
▁Situation	-9.56908
▁authority	-9.5691
T	-9.57058
▁enabl	-9.57235
▁circumstances	-9.57301
▁Goals	-9.57348
▁enter	-9.57394
▁abstention	-9.57509
▁sea	-9.57602
economic	-9.57777
B	-9.57813
ial	-9.57931
▁service	-9.5801
▁European	-9.5815
▁establishing	-9.5834
▁efficient	-9.58409
but	-9.58722
▁pursue	-9.58803
▁methods	-9.58877
▁opinion	-9.58896
▁infrastructure	-9.58935
▁strategic	-9.58938
▁net	-9.5936
iddle	-9.59593
▁officials	-9.59668
▁ethnic	-9.59711
▁aim	-9.59891
▁own	-9.59936
▁visit	-9.59949
▁Fin	-9.59978
▁practice	-9.60145
le	-9.6034
▁six	-9.60345
▁improvement	-9.60512
▁reintegration	-9.60842
▁effort	-9.60865
▁Trust	-9.61105
▁dignity	-9.61222
▁creation	-9.61227
g	-9.61264
▁broad	-9.61304
▁fight	-9.61307
▁Raci	-9.61447
▁Reduction	-9.61717
▁offices	-9.61822
▁institutional	-9.61895
▁prepare	-9.62018
▁Vanuatu	-9.62024
▁individual	-9.62031
▁forth	-9.62202
South	-9.62317
▁external	-9.62466
▁observance	-9.6251
▁recognized	-9.62526
▁share	-9.62705
▁successful	-9.62774
▁duty	-9.62833
▁families	-9.62837
▁societies	-9.62838
▁populations	-9.63009
▁socio	-9.63252
▁de	-9.6326
incent	-9.633
▁partnership	-9.6334
ous	-9.6337
▁("	-9.63445
AC	-9.63523
Habitat	-9.63632
▁were	-9.63657
▁capital	-9.63671
▁strong	-9.63847
arshall	-9.63863
▁trans	-9.63954
▁Services	-9.64017
▁confidence	-9.64068
▁civilian	-9.64151
Uni	-9.6417
▁extend	-9.64197
▁operation	-9.64234
▁tolerance	-9.64282
▁integrity	-9.6448
▁malaria	-9.64484
▁together	-9.64486
▁distribution	-9.645
▁Commends	-9.64528
▁ratification	-9.64588
▁only	-9.64787
▁Budget	-9.64803
▁drugs	-9.64808
▁him	-9.64892
▁Durban	-9.64892
▁comply	-9.64912
▁accountability	-9.64914
▁basi	-9.65045
▁National	-9.65092
▁million	-9.65316
Rev	-9.65317
▁themselves	-9.65325
▁fair	-9.65355
▁mass	-9.65362
▁remains	-9.65385
sta	-9.65429
▁mission	-9.65533
llicit	-9.65653
▁costs	-9.65661
▁examine	-9.65686
▁Option	-9.65688
▁mechanism	-9.65813
▁articles	-9.65955
▁West	-9.65996
▁central	-9.66036
▁another	-9.66195
▁questions	-9.66339
▁complete	-9.66397
▁focus	-9.6651
▁reaffirm	-9.6657
▁geographical	-9.66604
▁preparat	-9.66644
▁independence	-9.66654
▁approaches	-9.66696
▁recruitment	-9.66998
year	-9.67035
▁adverse	-9.67076
h	-9.67077
▁fund	-9.67097
▁quality	-9.67238
▁market	-9.67239
udgetary	-9.67445
▁fulfilment	-9.67474
▁five	-9.67785
▁De	-9.67929
▁wide	-9.68225
▁Palau	-9.68274
▁introduced	-9.683
▁Disaster	-9.6839
▁multi	-9.68459
▁Staff	-9.68705
▁Director	-9.68721
▁regulations	-9.68815
▁Ki	-9.69072
▁materials	-9.69112
▁delivery	-9.69159
▁movement	-9.69241
▁judicial	-9.69248
▁scale	-9.69367
ight	-9.69413
▁holding	-9.69679
ii	-9.6984
▁VII	-9.69912
echnical	-9.7027
▁allow	-9.70514
conflict	-9.70812
▁war	-9.70829
▁transparent	-9.70894
▁Latin	-9.71202
▁Aware	-9.71335
▁Settlements	-9.71363
▁arising	-9.71385
▁lack	-9.716
Bissau	-9.71738
▁encouraging	-9.71806
nd	-9.72068
▁signing	-9.721
▁loss	-9.72167
▁facilitating	-9.72256
▁Arms	-9.72276
▁IV	-9.72283
▁Internal	-9.72322
▁key	-9.72339
▁change	-9.72516
▁energy	-9.72679
▁connection	-9.7279
▁procedure	-9.72807
▁hold	-9.72814
▁build	-9.72951
▁statements	-9.73
▁convene	-9.73038
▁Fisheries	-9.735
▁labour	-9.73574
▁interests	-9.73611
▁grow	-9.73617
ce	-9.7363
▁delay	-9.73685
▁needed	-9.73827
▁foreign	-9.73866
▁experience	-9.73984
▁affairs	-9.74032
▁chapter	-9.74166
▁Thir	-9.7419
▁Head	-9.74345
tic	-9.74449
▁Safety	-9.74485
being	-9.74601
▁resulting	-9.74665
ended	-9.74787
▁building	-9.74859
▁Against	-9.74953
▁Energ	-9.75043
▁statement	-9.75079
▁conclusion	-9.75094
Ib	-9.75118
ies	-9.75153
▁elections	-9.75527
▁integrate	-9.75804
▁Authority	-9.75871
▁climate	-9.75879
▁Unity	-9.75995
▁elements	-9.76029
▁civilizations	-9.7638
▁And	-9.76418
▁balance	-9.767
um	-9.76746
▁analysis	-9.76803
▁manifestations	-9.76812
▁thirty	-9.76852
▁summary	-9.77272
▁Acknowledging	-9.77332
▁detention	-9.77394
Maritime	-9.77717
▁vessels	-9.77805
▁punishment	-9.77864
▁containing	-9.77873
▁discussions	-9.77956
▁Trans	-9.78099
▁Diversity	-9.78217
▁vulnerability	-9.78219
▁threats	-9.78272
▁obstacles	-9.7829
▁mutually	-9.78311
itarian	-9.78496
▁sanctions	-9.78708
uay	-9.78716
▁Parag	-9.78864
▁posts	-9.78867
▁relation	-9.78868
▁language	-9.78898
▁anniversary	-9.79669
heads	-9.79912
▁leading	-9.79945
▁decided	-9.802
▁University	-9.80222
▁implications	-9.80626
▁expresses	-9.80643
▁internal	-9.8065
▁Red	-9.80738
▁"(	-9.8075
▁reached	-9.80933
▁age	-9.81064
▁resolve	-9.8108
▁concerns	-9.81099
▁Tuvalu	-9.81106
▁systematic	-9.81165
▁Serious	-9.81623
▁position	-9.81653
▁preparations	-9.81737
▁representation	-9.81799
▁party	-9.82246
▁scope	-9.82438
▁revised	-9.82626
▁options	-9.82668
▁body	-9.82707
▁events	-9.82829
▁Islam	-9.82979
▁electronic	-9.83086
▁empowerment	-9.83108
▁character	-9.83262
▁appeals	-9.83353
▁crisis	-9.83581
▁certain	-9.83592
▁welcoming	-9.83612
▁contributing	-9.83622
▁occupy	-9.83668
▁others	-9.83697
▁Island	-9.83755
▁acced	-9.83832
";	-9.83957
▁donors	-9.84145
▁govern	-9.84275
▁ratifying	-9.84309
▁Vi	-9.84472
▁otherwise	-9.84591
▁demand	-9.8461
▁Congress	-9.84635
▁expert	-9.84764
▁science	-9.84801
▁Support	-9.84814
▁far	-9.84913
▁offences	-9.84921
▁beyond	-9.85096
▁medium	-9.85096
▁solution	-9.85125
agency	-9.85229
▁flag	-9.85261
▁water	-9.85604
▁Aspects	-9.85613
▁fac	-9.85662
▁resource	-9.85814
▁arbitrar	-9.85827
International	-9.8613
▁reducing	-9.86148
▁transport	-9.86155
▁zone	-9.86184
▁identified	-9.86188
▁Status	-9.86213
▁mobilize	-9.86246
▁annexes	-9.86252
▁Operation	-9.86307
trongly	-9.86576
inisterial	-9.8661
▁possibility	-9.86638
▁tenth	-9.86681
▁Deep	-9.8683
▁violation	-9.86835
▁strict	-9.8725
▁Biological	-9.87309
verall	-9.87454
▁assets	-9.87778
to	-9.88079
▁Concerned	-9.88205
▁sound	-9.88208
▁Ocean	-9.88225
▁proposal	-9.88398
);	-9.88427
▁signed	-9.88482
▁inhuman	-9.8849
▁solutions	-9.88491
▁VI	-9.88693
▁durable	-9.88725
▁territories	-9.88728
▁comments	-9.88752
▁foster	-9.8893
▁Labour	-9.89252
▁sustainability	-9.89281
▁race	-9.89322
▁stressing	-9.89332
▁thus	-9.89343
▁subsidi	-9.89423
▁Drug	-9.89446
▁offence	-9.89458
▁Research	-9.89787
▁participating	-9.89834
▁representative	-9.90008
ndependence	-9.90088
▁educational	-9.90313
▁having	-9.90367
▁nationality	-9.90489
▁Narcotic	-9.90653
▁web	-9.9066
▁nations	-9.90944
▁diseases	-9.90952
▁assessed	-9.91184
▁risks	-9.91184
▁prepared	-9.9134
▁Health	-9.91421
▁government	-9.91697
▁great	-9.91959
▁improved	-9.92483
▁perpetrators	-9.92496
▁attacks	-9.9254
▁lead	-9.92723
▁Organiz	-9.92888
▁coordinate	-9.9297
▁Control	-9.93086
at	-9.93384
▁project	-9.93541
▁appendix	-9.9359
▁Mindful	-9.93592
▁thereby	-9.93617
▁Combat	-9.9375
▁core	-9.9399
▁Acknowledges	-9.94151
▁forward	-9.94206
▁caused	-9.94286
▁avoid	-9.9449
▁main	-9.94627
▁necessity	-9.94707
▁membership	-9.94708
▁Transition	-9.94775
ach	-9.94917
▁Powers	-9.9517
▁coast	-9.95268
▁Principe	-9.95272
▁Equa	-9.95757
▁damage	-9.95771
▁Relief	-9.95829
▁Dialogue	-9.95831
▁Chad	-9.95831
▁decolonization	-9.95834
ry	-9.96136
▁serve	-9.96145
▁seas	-9.96173
▁Vic	-9.96183
▁relationship	-9.9624
▁cruel	-9.964
▁again	-9.96401
▁trust	-9.96458
▁strengthened	-9.96466
▁reach	-9.96564
ixty	-9.96681
▁business	-9.96914
▁minorities	-9.96971
▁Initiative	-9.96974
▁Recommends	-9.96982
▁degrading	-9.96984
▁Out	-9.9704
▁thereof	-9.97052
▁prejudice	-9.97061
ts	-9.97076
▁receive	-9.97351
▁Part	-9.9743
▁Financi	-9.97482
▁therefore	-9.97566
ite	-9.97628
▁reaffirming	-9.97986
▁informal	-9.98001
▁equipment	-9.98124
▁reiterates	-9.98148
▁Doha	-9.98324
▁put	-9.98356
▁Bri	-9.98385
▁completion	-9.98706
▁Developed	-9.98744
▁continues	-9.99087
▁modalities	-9.9929
▁Underlines	-9.99294
ng	-9.99318
▁Om	-9.99504
▁unilateral	-9.99814
▁freely	-10.0004
Former	-10.0006
▁deal	-10.0013
Align	-10.0036
▁Facility	-10.0047
▁Day	-10.0047
▁next	-10.0047
▁value	-10.0065
▁alternative	-10.0076
▁anti	-10.009
▁Consultati	-10.0097
▁preventive	-10.0112
▁Regulations	-10.0113
▁complement	-10.0126
▁departments	-10.0169
▁once	-10.0181
▁Cross	-10.0193
▁explore	-10.0212
▁paras	-10.0222
tain	-10.0226
▁approval	-10.0227
▁Headquarters	-10.0229
▁Considering	-10.0247
▁burden	-10.0259
▁mandated	-10.0265
▁Fi	-10.0268
▁civilians	-10.0275
▁Promotion	-10.028
▁impunity	-10.0287
▁emphasis	-10.0287
▁acceptance	-10.029
▁Administration	-10.029
▁sufficient	-10.0292
▁interim	-10.0292
▁mobilization	-10.0295
▁submission	-10.0318
▁i	-10.034
▁cultures	-10.0356
coming	-10.037
▁regime	-10.0376
▁changes	-10.0396
▁competence	-10.041
side	-10.0414
▁inform	-10.0415
▁inclusive	-10.0427
▁safeguards	-10.0427
▁Govern	-10.0431
▁addressed	-10.0436
▁displacement	-10.0439
active	-10.0454
▁Reiterating	-10.0472
▁direct	-10.0473
▁observations	-10.0476
▁executions	-10.0486
▁hundred	-10.0507
▁transmit	-10.0509
▁organize	-10.0529
▁worldwide	-10.0536
▁settlements	-10.0541
▁oceans	-10.0558
▁clear	-10.0577
▁expand	-10.0582
▁Statute	-10.0588
int	-10.0589
▁constructive	-10.0589
▁raise	-10.0591
▁hunger	-10.0596
▁Nairobi	-10.0596
▁Torture	-10.0596
▁past	-10.0597
▁forces	-10.0616
▁target	-10.0616
▁invitation	-10.0623
▁Sixt	-10.0631
▁expertise	-10.0659
▁extreme	-10.066
▁Appeal	-10.0668
▁protocols	-10.0669
▁proceedings	-10.0675
▁designed	-10.0707
▁accede	-10.0737
▁implemented	-10.0746
▁estimate	-10.0752
▁mainstreaming	-10.0755
▁requires	-10.0758
▁immediate	-10.078
▁Approves	-10.0786
▁Auditors	-10.0786
▁event	-10.079
▁elected	-10.0803
▁our	-10.0825
▁Prevent	-10.0831
all	-10.0837
▁permanent	-10.0846
▁constitutional	-10.0856
▁Corruption	-10.0858
▁unti	-10.0859
▁League	-10.0867
▁Preparat	-10.0878
▁conduc	-10.0885
▁reconciliation	-10.0914
▁recognize	-10.0932
▁expression	-10.0946
▁Desertification	-10.0979
▁identification	-10.0979
▁predictable	-10.098
▁inclusion	-10.0981
▁expenses	-10.0981
▁solidarity	-10.0985
▁require	-10.0999
▁advance	-10.1
torial	-10.1034
▁substantial	-10.1038
▁Consensus	-10.1045
▁integral	-10.1047
▁directly	-10.1053
ieth	-10.106
ension	-10.1072
▁w	-10.1073
▁signature	-10.1076
▁poor	-10.1082
org	-10.1106
▁capabilities	-10.111
▁Underlining	-10.1111
▁consolidate	-10.1114
▁enhancement	-10.1117
▁disputes	-10.1132
ir	-10.1147
▁office	-10.1151
▁Be	-10.1164
▁monitor	-10.1167
▁sex	-10.1169
▁opportunity	-10.1177
▁hoc	-10.1178
▁emerg	-10.1187
▁Paris	-10.1189
▁received	-10.1196
▁mines	-10.1204
sharing	-10.1224
▁accession	-10.1227
▁refrain	-10.1243
▁vital	-10.1246
▁utilization	-10.126
▁guarantee	-10.1263
Agency	-10.1266
▁involving	-10.1268
▁invite	-10.1268
▁girl	-10.1276
▁contract	-10.1285
oriented	-10.1307
▁rate	-10.1317
▁participants	-10.132
▁adopting	-10.1322
ty	-10.1343
▁eradicate	-10.136
▁Minister	-10.1362
ers	-10.137
▁continuation	-10.138
▁four	-10.139
▁innovati	-10.1407
ally	-10.1423
▁secure	-10.1438
▁identifying	-10.144
▁whether	-10.1446
▁technological	-10.1446
▁Chernobyl	-10.1449
▁trad	-10.1451
forced	-10.1451
▁whole	-10.1453
▁determination	-10.1457
ting	-10.1486
▁pre	-10.149
▁Treatment	-10.1514
▁coordinating	-10.1518
▁allocation	-10.153
▁factors	-10.1535
▁respectively	-10.1545
ngoing	-10.155
▁using	-10.1552
▁Committe	-10.1558
D	-10.1564
▁commodity	-10.1586
▁organizational	-10.1592
ization	-10.1594
lock	-10.1606
personnel	-10.161
▁commercial	-10.1616
▁payment	-10.1625
▁War	-10.1632
▁Movement	-10.1636
Chairman	-10.1639
▁proclaim	-10.1653
▁Rules	-10.1654
▁Affirm	-10.1654
▁point	-10.1668
▁Caledonia	-10.1691
▁Eliminat	-10.1693
iii	-10.171
▁measure	-10.1714
▁Internet	-10.1723
▁corrigenda	-10.1723
▁elaboration	-10.1725
▁consolidation	-10.1726
▁detail	-10.1728
▁creating	-10.1732
▁had	-10.1732
▁continuous	-10.1733
▁how	-10.1739
▁Habitat	-10.1745
▁considering	-10.1771
▁severe	-10.1784
▁defenders	-10.1793
▁authorized	-10.1795
▁rates	-10.1796
▁Training	-10.1797
"),	-10.1798
▁sharing	-10.1809
▁governmental	-10.1819
ious	-10.1822
▁examined	-10.1826
▁traditional	-10.1829
▁estimates	-10.183
▁belong	-10.1832
▁success	-10.1835
▁ad	-10.1844
▁UN	-10.1854
▁discharge	-10.186
led	-10.1898
▁reflected	-10.1899
▁mainstream	-10.1902
▁enforce	-10.191
▁site	-10.1931
▁auspices	-10.1935
▁outstanding	-10.1936
▁Association	-10.1937
▁documentation	-10.1943
▁flows	-10.1967
▁asylum	-10.2007
▁Racism	-10.2007
▁extended	-10.2008
▁base	-10.2019
▁radio	-10.203
▁reference	-10.2069
▁protecting	-10.2076
wide	-10.2112
▁supplement	-10.2118
▁values	-10.2121
▁phase	-10.2127
me	-10.2152
▁coherence	-10.2153
▁underline	-10.2155
laundering	-10.2155
▁informed	-10.2166
▁limited	-10.2178
▁accelerate	-10.219
▁devote	-10.2204
▁la	-10.2217
▁difficulties	-10.2227
▁consensus	-10.2228
▁desp	-10.2229
▁findings	-10.2236
▁money	-10.2246
▁emphasizing	-10.2246
▁undertaking	-10.2272
▁design	-10.2295
▁ratified	-10.2301
▁preparedness	-10.2307
▁range	-10.2308
lasting	-10.2321
▁Guid	-10.2323
▁aid	-10.2336
▁discussion	-10.2343
▁later	-10.2351
▁Federa	-10.2358
▁appointment	-10.2369
resumed	-10.2373
▁Golan	-10.2375
▁procurement	-10.2375
▁Intolerance	-10.2375
▁products	-10.2392
▁Code	-10.2406
ley	-10.2421
▁just	-10.2433
▁offer	-10.2433
▁disseminate	-10.2438
▁spirit	-10.2443
▁Genocide	-10.245
▁recognition	-10.245
▁contrary	-10.245
▁sovereignty	-10.2451
▁interpretation	-10.2454
▁leaders	-10.2455
▁skills	-10.2456
valuable	-10.2458
▁proportion	-10.246
▁covered	-10.2468
still	-10.2469
▁observers	-10.2475
▁ratify	-10.2492
m	-10.2502
calling	-10.2502
▁line	-10.2508
▁Conventions	-10.2524
▁liberty	-10.2526
▁availability	-10.2534
▁consolidat	-10.2552
▁seminars	-10.2558
▁applications	-10.2573
▁productive	-10.26
▁medical	-10.2602
▁ministerial	-10.2603
▁restrictions	-10.2606
▁supply	-10.2611
▁advancement	-10.2624
▁dealing	-10.2638
▁structure	-10.2641
▁con	-10.2644
▁according	-10.2677
▁eliminating	-10.2683
▁norms	-10.269
round	-10.2701
▁p	-10.2707
▁provides	-10.2713
rd	-10.2729
▁co	-10.2741
▁forest	-10.2747
▁standard	-10.2748
▁similar	-10.275
▁collective	-10.2751
▁rapid	-10.2756
▁Decisions	-10.2761
▁statute	-10.2764
▁formal	-10.2772
)/	-10.2782
▁budgetary	-10.2787
taining	-10.2816
▁vari	-10.2825
one	-10.2826
egional	-10.2831
▁expansion	-10.2835
▁repatriation	-10.2859
▁task	-10.2885
▁add	-10.2891
▁investigate	-10.2905
▁century	-10.2913
▁legitimate	-10.2914
▁minimize	-10.2919
▁Lea	-10.2925
x	-10.2964
▁candidates	-10.2996
▁Production	-10.2997
▁generous	-10.2998
▁formulation	-10.2999
▁Chief	-10.3003
by	-10.3004
▁collection	-10.3005
▁seminar	-10.3039
▁Operations	-10.3044
ixtieth	-10.305
▁favourabl	-10.3056
▁determine	-10.3062
▁Madrid	-10.3073
▁Destruction	-10.3073
▁Constitution	-10.3074
▁reinforcing	-10.3077
▁guidance	-10.3077
▁search	-10.3086
▁warning	-10.3105
raising	-10.3106
▁presented	-10.3107
▁finance	-10.3112
pending	-10.3115
k	-10.3129
discriminatory	-10.315
▁Nevis	-10.3153
▁Copenhagen	-10.3154
▁pollution	-10.3154
▁road	-10.3155
▁imposed	-10.3163
ndigenous	-10.317
▁engaged	-10.3183
▁Relat	-10.3185
▁tasks	-10.3188
▁Asian	-10.3194
▁Suppress	-10.3194
▁terrorist	-10.3202
ST	-10.3208
commends	-10.321
▁professional	-10.3233
▁master	-10.3235
▁leadership	-10.3235
▁diplomat	-10.3244
▁stations	-10.3247
▁records	-10.3248
▁defined	-10.3254
▁shared	-10.3266
of	-10.3267
▁amendment	-10.3283
dlock	-10.3294
▁addition	-10.3309
vailable	-10.3325
▁immediately	-10.3325
▁committee	-10.3332
▁Transit	-10.3343
▁harmoniz	-10.3351
▁Land	-10.3363
▁segment	-10.3366
▁N	-10.3366
▁appraisal	-10.3372
▁Seychelles	-10.3399
▁Prosecution	-10.3399
▁activity	-10.3402
▁namely	-10.3404
▁tools	-10.343
▁Hyogo	-10.3432
omprehensive	-10.3445
▁Activities	-10.3464
▁renew	-10.3477
▁prior	-10.3478
▁heritage	-10.3483
▁Change	-10.3483
▁Stockpiling	-10.3483
▁unreported	-10.3483
▁intimidation	-10.3483
▁Coordinator	-10.3483
▁travel	-10.3486
▁headquarters	-10.3488
▁strongly	-10.3499
▁step	-10.3501
▁nationals	-10.3505
▁recall	-10.3516
▁Six	-10.3521
▁Conferences	-10.3523
older	-10.3524
▁Population	-10.3532
ations	-10.3552
▁mobiliz	-10.3558
▁criteria	-10.3567
▁emergencies	-10.3567
▁expected	-10.3569
▁If	-10.3571
▁reservations	-10.3574
▁network	-10.3584
▁investigation	-10.362
▁tool	-10.3624
▁conducted	-10.3633
Human	-10.3636
▁traffic	-10.365
▁extradition	-10.3652
▁immuno	-10.3652
▁directed	-10.3655
uch	-10.3667
▁contributes	-10.3676
▁ocean	-10.3703
▁Fina	-10.3705
▁debate	-10.3706
▁examination	-10.371
enophobia	-10.3734
▁grant	-10.3735
tioned	-10.3739
▁urgently	-10.376
▁ecosystems	-10.3763
▁places	-10.3766
ful	-10.3773
▁either	-10.3773
▁humanity	-10.3775
less	-10.378
▁release	-10.3786
▁issued	-10.3804
▁registration	-10.3823
▁ownership	-10.3827
▁giving	-10.3829
▁types	-10.3829
▁trends	-10.3832
▁thematic	-10.3847
▁assignment	-10.3877
▁positions	-10.3882
▁balanced	-10.3891
ulated	-10.39
▁he	-10.3901
NP	-10.3907
▁Near	-10.391
and	-10.3925
ermanent	-10.3941
▁invited	-10.3953
▁Fish	-10.3957
▁pension	-10.3982
▁cooperative	-10.3993
RES	-10.3995
▁unreg	-10.3995
▁paid	-10.4003
▁proceeds	-10.4011
▁expressing	-10.4019
▁initial	-10.4036
▁appeal	-10.4053
▁course	-10.4054
ji	-10.4058
action	-10.4061
▁secretariats	-10.4079
limate	-10.4082
▁Right	-10.4094
▁assess	-10.4112
▁goods	-10.4128
▁commit	-10.4129
▁extrajudicial	-10.4176
▁brought	-10.4176
▁agriculture	-10.4176
▁adherence	-10.4176
▁months	-10.4182
Johannesburg	-10.4183
▁outline	-10.419
z	-10.4201
ily	-10.4201
▁list	-10.4204
▁function	-10.4219
mber	-10.4234
▁coherent	-10.4266
versight	-10.4273
▁reflect	-10.4283
▁lives	-10.4287
▁map	-10.429
▁sport	-10.4304
▁impacts	-10.4331
▁visits	-10.4335
▁formulate	-10.4344
▁twent	-10.4347
▁crucial	-10.4356
▁Fifth	-10.4373
▁significantly	-10.4378
▁supportive	-10.4386
▁links	-10.4387
▁forums	-10.439
▁cease	-10.4398
▁Account	-10.4406
▁proliferation	-10.441
▁fourth	-10.4413
▁mountain	-10.4414
▁render	-10.4415
▁transmitt	-10.4426
▁reinforce	-10.443
▁proper	-10.4441
▁harassment	-10.4452
▁stable	-10.4453
▁complex	-10.4454
▁Trafficking	-10.4461
▁diamonds	-10.4464
▁determined	-10.4469
▁condemns	-10.4476
SP	-10.4485
▁extra	-10.4492
▁construction	-10.4501
▁maxim	-10.4503
▁presence	-10.4506
▁indicator	-10.4508
▁association	-10.4516
▁power	-10.453
▁periodic	-10.4559
▁accessible	-10.4566
▁ten	-10.4566
▁grounds	-10.457
▁urban	-10.4576
posed	-10.4578
▁structures	-10.4584
▁Independen	-10.4585
▁included	-10.4591
▁occupation	-10.4606
▁Tourism	-10.4634
▁Outcome	-10.4634
▁urgency	-10.4637
▁updated	-10.4643
▁higher	-10.4655
▁religions	-10.4661
▁Time	-10.4663
▁state	-10.4695
▁respecting	-10.47
▁f	-10.4704
▁reviews	-10.4713
▁mitigate	-10.4716
▁becom	-10.4717
atory	-10.4719
▁advice	-10.4728
▁Chemical	-10.4728
▁lessons	-10.4729
▁eleventh	-10.473
CC	-10.4735
▁forum	-10.475
▁letter	-10.4755
▁Works	-10.4764
gional	-10.4765
▁industrial	-10.4785
▁Consider	-10.4786
▁harm	-10.4787
▁Ministers	-10.4788
▁element	-10.4791
▁commission	-10.4797
▁arrangement	-10.4798
▁continent	-10.4798
▁ability	-10.4815
▁agricultural	-10.4822
▁Viol	-10.4822
▁enshrined	-10.4824
▁Inspection	-10.4824
▁everyone	-10.4825
▁Experts	-10.4831
▁limitation	-10.4837
ability	-10.4845
▁perform	-10.4881
▁An	-10.4884
▁relative	-10.4896
▁Eradicat	-10.4901
▁impartial	-10.4932
▁Network	-10.4933
▁expenditures	-10.4935
ech	-10.4936
▁items	-10.4941
▁condemn	-10.4946
ities	-10.4953
▁prosecution	-10.4984
▁day	-10.4986
is	-10.5008
▁J	-10.5015
▁Relations	-10.5015
▁senior	-10.5016
▁biodiversity	-10.5017
▁existence	-10.502
▁engage	-10.5029
."	-10.5036
nt	-10.5043
▁indicators	-10.5052
▁maximiz	-10.5057
▁consult	-10.5064
dvancement	-10.5066
▁bear	-10.5083
▁name	-10.5087
▁supported	-10.5089
ES	-10.5094
▁Eradicati	-10.511
")	-10.5113
▁Democracy	-10.5115
▁Ageing	-10.5118
▁constraints	-10.5119
cy	-10.5126
▁Olympic	-10.5132
▁link	-10.5137
▁industry	-10.515
▁death	-10.5181
deficienc	-10.5189
▁centre	-10.519
▁markets	-10.5192
▁guid	-10.52
▁debtor	-10.52
▁observe	-10.5202
▁Panel	-10.5214
▁Stocks	-10.5214
▁Society	-10.5214
▁Conflict	-10.5219
▁learned	-10.522
ility	-10.522
▁integrating	-10.5222
▁accountable	-10.5242
rett	-10.5247
▁export	-10.5269
▁genuine	-10.5271
▁summit	-10.528
heir	-10.5282
▁enforc	-10.5292
▁principal	-10.5307
▁Guam	-10.5314
▁minimum	-10.5314
▁harmful	-10.5314
▁apportionment	-10.5316
Ban	-10.5318
▁Agrees	-10.5319
▁achievements	-10.5319
▁sale	-10.5331
ness	-10.5336
▁includes	-10.534
▁Terrorism	-10.5346
▁Guidelines	-10.535
▁peacebuilding	-10.5361
mmunities	-10.5379
iv	-10.5381
ask	-10.5387
▁off	-10.5388
▁interaction	-10.5389
▁maritime	-10.5415
▁prostitution	-10.5415
▁macroeconomic	-10.5415
▁Under	-10.5417
▁relevance	-10.542
▁Property	-10.5424
▁dispute	-10.5484
▁experiences	-10.5491
▁low	-10.5496
▁Culture	-10.5505
▁debris	-10.5517
▁entire	-10.5517
▁liberalization	-10.5517
▁Punishment	-10.5518
▁banks	-10.5524
▁described	-10.5525
▁widely	-10.5528
▁progressive	-10.5529
▁regulatory	-10.5535
▁dimensions	-10.5545
▁kind	-10.5546
▁challenge	-10.5562
▁assignee	-10.5586
▁observer	-10.559
▁flow	-10.5596
▁Almaty	-10.562
▁identity	-10.562
▁mercenaries	-10.562
▁degradation	-10.562
▁composition	-10.562
▁envisaged	-10.5621
▁recalls	-10.5627
▁police	-10.5627
▁eradicat	-10.5631
▁campaigns	-10.5634
ntergovernmental	-10.5634
stated	-10.5649
▁increasingly	-10.5654
▁agree	-10.5668
ver	-10.5669
▁setting	-10.567
▁sever	-10.5715
▁judiciary	-10.5724
▁returnees	-10.5724
▁equity	-10.5725
▁withdraw	-10.5726
▁resident	-10.5729
▁tourism	-10.573
CD	-10.5732
▁substances	-10.5732
▁intention	-10.5739
▁object	-10.5757
W	-10.5762
▁c	-10.577
▁now	-10.5777
discriminate	-10.5786
esponsible	-10.5789
▁Measures	-10.5804
COP	-10.5827
▁entrust	-10.5829
▁soldiers	-10.5829
▁verification	-10.583
▁mitigation	-10.5831
▁deliberations	-10.5832
▁useful	-10.5833
▁interdependence	-10.5835
▁engagement	-10.5836
▁Poverty	-10.5839
▁Effects	-10.5847
▁components	-10.5853
▁networks	-10.5871
▁stra	-10.5931
▁Kosovo	-10.5936
▁duties	-10.5936
▁compensation	-10.5936
▁latest	-10.5936
▁Commitment	-10.5936
▁promptly	-10.5942
▁deployment	-10.5945
▁It	-10.5953
east	-10.5999
Easter	-10.6
▁zones	-10.6006
▁website	-10.6009
▁replace	-10.6015
▁enact	-10.6018
▁endors	-10.6027
▁Industrial	-10.6029
▁boys	-10.6043
▁Counter	-10.6044
j	-10.6051
▁beings	-10.6066
▁involve	-10.6067
oods	-10.6087
▁courses	-10.6089
▁sites	-10.6091
▁VIII	-10.6091
▁publications	-10.6099
stablishment	-10.6124
▁able	-10.6134
▁separate	-10.614
▁K	-10.6148
▁sanitation	-10.6152
▁demobilization	-10.6152
▁incidents	-10.6159
▁covering	-10.6172
▁First	-10.6181
ifty	-10.6197
▁heavi	-10.6204
ten	-10.6209
U	-10.6219
▁ecosystem	-10.6233
▁gap	-10.6241
▁aims	-10.6249
▁Janeiro	-10.6262
▁Register	-10.6262
▁Francophonie	-10.6262
▁psychological	-10.6262
▁plight	-10.6264
human	-10.628
▁biennial	-10.628
special	-10.6288
▁broaden	-10.6292
▁regularly	-10.6292
▁punish	-10.6326
▁fly	-10.633
trengthening	-10.6354
▁prompt	-10.6367
▁disability	-10.6373
friendly	-10.6374
▁disseminating	-10.6375
▁Anti	-10.638
sensitive	-10.6381
▁face	-10.6382
▁speed	-10.6383
▁coerci	-10.6385
▁reforms	-10.6386
▁foundations	-10.6399
▁threaten	-10.6407
▁Stand	-10.6409
▁round	-10.6413
▁investigations	-10.6418
▁submissions	-10.6434
udi	-10.6438
▁advantage	-10.6453
▁declarations	-10.6478
onservation	-10.6481
▁Family	-10.6485
▁Institutions	-10.6488
▁evidence	-10.6498
▁factor	-10.6499
▁biological	-10.6501
▁closer	-10.6503
▁accepted	-10.6513
▁Personnel	-10.6515
▁arrest	-10.6519
▁www	-10.6574
▁Chapter	-10.6599
▁hope	-10.6614
▁currently	-10.6634
▁owing	-10.664
▁treat	-10.6648
▁we	-10.6651
▁look	-10.6652
▁permit	-10.6661
ordin	-10.6666
▁explosive	-10.6674
▁reviewing	-10.6681
▁firm	-10.6706
lack	-10.6709
tropic	-10.6712
▁pornography	-10.6714
▁executive	-10.6714
▁Open	-10.6715
▁reductions	-10.6732
▁fullest	-10.6732
▁personal	-10.6744
▁safeguard	-10.6753
ever	-10.6799
▁sentence	-10.68
▁court	-10.6802
Implementation	-10.6808
▁temporary	-10.6822
▁outreach	-10.6831
▁consent	-10.6834
▁launched	-10.6867
temporary	-10.6879
▁contributed	-10.689
▁Thi	-10.6896
▁protected	-10.69
▁cross	-10.6906
▁acting	-10.691
▁drought	-10.6915
dditional	-10.6916
▁itself	-10.6928
Convention	-10.6936
▁navigation	-10.694
▁Conscious	-10.6948
▁extensive	-10.6948
▁tuberculosis	-10.6948
▁conclude	-10.6948
▁Condemns	-10.6948
▁unless	-10.6949
▁applied	-10.695
▁oversight	-10.6954
▁Bangkok	-10.6958
East	-10.6975
im	-10.6983
State	-10.6994
▁indebted	-10.6998
▁Act	-10.7005
▁root	-10.701
▁points	-10.7029
▁preserve	-10.7054
▁beginning	-10.7067
Women	-10.7069
▁might	-10.707
▁studies	-10.7071
▁categories	-10.7072
▁duplication	-10.7084
▁Table	-10.7102
▁content	-10.7156
▁Brussels	-10.7187
▁Tlatelolco	-10.7187
ence	-10.719
discrimination	-10.7193
▁deprived	-10.7194
▁Instruments	-10.7197
▁suffering	-10.7212
▁amended	-10.7227
▁reasonabl	-10.7256
ocal	-10.726
vi	-10.7269
▁pursuit	-10.7271
▁none	-10.7294
dependent	-10.7303
▁Hague	-10.7309
▁Gaza	-10.7309
▁Paragraph	-10.731
ruel	-10.7314
▁Liber	-10.7314
▁concluded	-10.7324
for	-10.7326
▁limits	-10.7341
▁pr	-10.7341
▁Abs	-10.7353
▁hosting	-10.7355
▁agrees	-10.7357
▁Strengthen	-10.7368
nuclear	-10.7397
▁dimension	-10.74
▁frameworks	-10.7411
cal	-10.7416
▁table	-10.7421
P	-10.7424
▁defence	-10.7431
▁sovereign	-10.7432
▁Malaria	-10.7432
▁genocide	-10.7433
▁affordable	-10.7433
▁impartiality	-10.7434
▁rape	-10.7434
▁honour	-10.7438
▁specifically	-10.7438
▁interdependent	-10.7438
▁assignor	-10.7439
▁twelfth	-10.7441
▁longer	-10.7442
▁source	-10.7446
▁exceed	-10.7447
▁mid	-10.7453
▁topics	-10.7465
rivileges	-10.7469
▁recommends	-10.7481
scale	-10.7502
GC	-10.7508
▁inadequate	-10.7513
▁b	-10.7517
▁recipient	-10.7521
▁failure	-10.7522
▁disappearance	-10.7524
▁cause	-10.7534
▁Ta	-10.7536
▁phenomenon	-10.7558
▁Civilizations	-10.7558
CP	-10.7558
▁revitalization	-10.7558
▁selection	-10.7559
▁concluding	-10.756
▁expeditiously	-10.7564
▁hazards	-10.7564
▁Yearbook	-10.7574
▁sides	-10.758
▁interrelated	-10.7582
ioned	-10.7585
▁Gra	-10.7605
▁mental	-10.7606
Terrorism	-10.7638
sponsible	-10.7643
▁ground	-10.7656
▁Peacekeep	-10.7666
▁Library	-10.7685
▁doing	-10.7688
▁binding	-10.769
▁overcome	-10.7692
▁alleviate	-10.7708
▁last	-10.7734
▁regret	-10.7736
▁intended	-10.7756
ad	-10.7806
▁Subcommission	-10.7812
bringing	-10.7818
▁judges	-10.7822
▁operating	-10.7824
▁election	-10.7827
▁underlining	-10.7837
▁allocate	-10.7841
▁Professional	-10.7863
▁Bonn	-10.7863
aso	-10.7868
specific	-10.7873
▁manufacture	-10.7879
▁translation	-10.7893
ar	-10.79
▁Envoy	-10.7905
▁original	-10.7915
ncent	-10.7915
▁difficult	-10.7941
▁smuggling	-10.7942
▁indispensable	-10.7942
▁destination	-10.7942
▁microfinance	-10.7943
▁supplies	-10.7943
▁thought	-10.7946
▁Technology	-10.7949
▁exceptional	-10.7949
▁delegations	-10.7951
▁workshops	-10.7955
vely	-10.7955
▁generations	-10.796
▁individually	-10.7963
▁conducting	-10.7964
▁lan	-10.7969
▁Mode	-10.7971
▁Role	-10.799
▁Ri	-10.8016
▁subjected	-10.8022
▁e	-10.8027
▁live	-10.8033
▁abs	-10.8035
▁Whi	-10.8041
uter	-10.8051
▁Overs	-10.8061
▁expeditious	-10.8067
▁hatred	-10.8073
▁female	-10.8074
▁Taliban	-10.8074
▁Twenty	-10.8074
▁Poor	-10.8075
▁issuance	-10.8075
▁acceptable	-10.8076
▁Arrangements	-10.8076
▁known	-10.8079
▁universality	-10.8079
▁programming	-10.8095
ertification	-10.8103
▁annually	-10.8115
▁Mediterranean	-10.8121
▁limit	-10.8129
▁exert	-10.8131
▁days	-10.8131
▁adequately	-10.8155
)).	-10.8158
▁operate	-10.8161
▁incorporate	-10.8163
▁Transfer	-10.8164
▁ageing	-10.8165
dad	-10.8173
▁proceeding	-10.8195
▁cultivation	-10.8207
▁desertification	-10.8207
Violence	-10.821
▁term	-10.8214
umanitarian	-10.8214
rgin	-10.8224
▁pro	-10.8255
▁Fishing	-10.826
ana	-10.8273
▁apportion	-10.8294
▁theme	-10.8304
▁elaborate	-10.8305
▁chemical	-10.8308
▁endeavour	-10.8308
▁accomplishment	-10.8309
▁appropriation	-10.8318
▁discuss	-10.8322
case	-10.8325
▁manage	-10.8338
▁single	-10.8342
▁microcredit	-10.8342
▁commensurate	-10.8342
▁preservation	-10.8342
▁surveillance	-10.8343
▁aspirations	-10.8344
▁less	-10.8345
▁show	-10.836
▁reliable	-10.8365
▁sign	-10.837
▁statistics	-10.8371
▁financed	-10.8376
re	-10.8386
▁assessing	-10.8396
▁faith	-10.8401
▁resolved	-10.8402
Un	-10.8422
▁Sai	-10.8425
▁fostering	-10.8427
effective	-10.8439
▁Mechanism	-10.8441
he	-10.8448
most	-10.8449
▁guide	-10.8461
▁pertain	-10.8471
▁diversification	-10.8479
▁likely	-10.848
▁incompatib	-10.8481
▁wishes	-10.8481
▁regulation	-10.8482
▁succession	-10.8485
▁structural	-10.8485
leventh	-10.8486
▁Su	-10.8487
▁Personal	-10.8488
▁placed	-10.8499
▁audit	-10.85
▁outlin	-10.8512
▁start	-10.8513
▁Mines	-10.8515
▁credit	-10.8518
▁even	-10.8521
▁deposit	-10.8526
▁assigned	-10.8531
▁committees	-10.8532
evel	-10.8536
elecommunication	-10.8537
Cooperation	-10.8545
▁appointed	-10.855
▁responses	-10.8576
▁receivable	-10.859
income	-10.86
▁Contract	-10.8605
▁urg	-10.8608
▁undermine	-10.8613
▁utilize	-10.8615
▁conscience	-10.8618
▁occasion	-10.8618
▁attainment	-10.8619
▁narcotic	-10.8619
▁Tom	-10.8624
▁assembly	-10.8634
▁pose	-10.8643
▁accomplishments	-10.8653
▁concer	-10.8656
online	-10.866
▁elaborat	-10.8663
rmed	-10.8679
▁met	-10.8681
▁devot	-10.8692
▁foc	-10.8707
▁execution	-10.8726
▁analytical	-10.8759
▁possibilities	-10.8759
▁democratization	-10.8759
▁viable	-10.8759
▁accurate	-10.8761
▁hazardous	-10.8765
etary	-10.8773
▁extrabudgetar	-10.8795
▁Mon	-10.881
▁collect	-10.8814
▁amendments	-10.8817
dep	-10.8818
▁prohibit	-10.882
men	-10.8879
▁concept	-10.8894
▁Strip	-10.8901
▁Scheme	-10.8901
▁Cartagena	-10.8902
▁penalty	-10.8902
▁misuse	-10.8902
▁racist	-10.8914
lf	-10.8932
▁cooperatives	-10.8951
▁equally	-10.8955
▁offers	-10.8962
▁encouraged	-10.9003
▁Threat	-10.9007
▁deem	-10.9031
▁curb	-10.9046
▁Conduct	-10.9046
▁acquisition	-10.9047
▁conjunction	-10.9047
▁southern	-10.9047
▁injury	-10.9051
▁Istanbul	-10.9053
rought	-10.9056
▁victim	-10.9058
▁declared	-10.9065
▁half	-10.9066
Parliament	-10.9072
▁inalienable	-10.909
▁border	-10.911
▁Deplor	-10.9126
M	-10.9134
▁institution	-10.9145
▁endorse	-10.9154
▁adjustment	-10.916
▁foundation	-10.9161
▁virus	-10.9193
▁Experienc	-10.9194
▁productivity	-10.9194
▁Issues	-10.9194
▁remedies	-10.9195
▁restoration	-10.9195
▁prospects	-10.9197
▁ideas	-10.9198
▁Transport	-10.9201
lying	-10.9212
▁representing	-10.9219
▁reading	-10.9223
VI	-10.9225
▁appropriations	-10.9231
▁r	-10.9241
▁elector	-10.9253
io	-10.9254
▁renewed	-10.9258
▁prepar	-10.9259
▁GC	-10.9264
tanding	-10.9275
▁subregion	-10.9284
▁exclusion	-10.9298
World	-10.932
▁infrastructures	-10.9321
sectoral	-10.9322
▁realiz	-10.9328
▁initiate	-10.9335
▁Dakar	-10.9342
▁welfare	-10.9343
▁significance	-10.9343
▁kidnapping	-10.9343
▁distinction	-10.9346
▁formulating	-10.935
▁interregional	-10.935
▁corporate	-10.9351
ative	-10.9362
▁fifth	-10.9365
use	-10.9369
▁Diploma	-10.938
▁rendered	-10.9409
▁expedite	-10.9449
▁motivat	-10.9458
▁occur	-10.9458
▁component	-10.9461
▁notification	-10.9462
▁requirement	-10.9463
▁negotiation	-10.9471
▁fo	-10.9493
▁Index	-10.9494
▁immigration	-10.9494
▁confiscation	-10.9494
▁unhindered	-10.9494
▁consultati	-10.9495
▁journalists	-10.9495
▁Stability	-10.9495
▁alleged	-10.9498
▁immunities	-10.9499
Federa	-10.9501
▁withdrawal	-10.9506
▁administered	-10.9512
▁migrat	-10.9525
▁designate	-10.9528
government	-10.9528
▁Resources	-10.953
▁impede	-10.9533
not	-10.9543
▁Follow	-10.9578
://	-10.9591
America	-10.9594
▁focused	-10.9594
ographic	-10.9598
▁update	-10.9599
▁corrupt	-10.9646
▁wrongful	-10.9648
▁linguistic	-10.9648
▁methodology	-10.9648
▁Alliance	-10.9649
▁Victims	-10.9649
▁collaborative	-10.9649
▁parents	-10.965
▁Section	-10.965
▁sections	-10.9653
▁targeted	-10.966
cross	-10.9668
▁pursu	-10.9668
▁breach	-10.968
▁Practices	-10.9681
VII	-10.9684
▁she	-10.9692
servicing	-10.9702
▁express	-10.971
▁preparing	-10.9715
▁Relationship	-10.9717
▁condition	-10.9718
▁plays	-10.9728
ddl	-10.9737
▁diversion	-10.9744
xtension	-10.9748
▁Practice	-10.9772
▁statistic	-10.9778
onetary	-10.9787
▁investments	-10.9788
▁topic	-10.9799
▁housing	-10.9804
▁Adviser	-10.9804
▁conviction	-10.9804
▁hostilities	-10.9804
▁psycho	-10.9805
▁specified	-10.9807
▁depositary	-10.9807
▁collaborate	-10.9807
▁attract	-10.9817
G	-10.9821
▁uphold	-10.9821
▁inputs	-10.9829
very	-10.984
▁format	-10.9847
dling	-10.9854
▁deaths	-10.9857
▁terrorists	-10.9868
▁endorses	-10.9868
cknowledging	-10.9901
▁sustain	-10.9901
▁convince	-10.9906
ological	-10.991
nergy	-10.9911
▁product	-10.9925
▁shelter	-10.9929
sustainable	-10.9942
PR	-10.996
DEC	-10.9961
▁attempt	-10.9963
▁syndrome	-10.9963
▁thirteen	-10.9963
▁libraries	-10.9963
▁remuneration	-10.9963
▁Migration	-10.9964
▁suitabl	-10.9966
▁gra	-10.9969
▁Injur	-10.9975
▁affects	-10.9978
▁read	-11.0002
dependence	-11.0007
▁declare	-11.0013
▁abide	-11.0015
▁created	-11.0033
Government	-11.0037
▁expanding	-11.0047
▁states	-11.0049
w	-11.0061
▁subparagraph	-11.009
tt	-11.0091
Palestinian	-11.0093
▁improvements	-11.01
▁air	-11.0113
uartet	-11.0122
idespread	-11.0125
▁abduction	-11.0126
izing	-11.0128
▁written	-11.0131
tion	-11.0152
▁option	-11.0154
▁waste	-11.0158
eaceful	-11.0159
▁ships	-11.017
Se	-11.0171
titude	-11.0174
keeping	-11.0178
teering	-11.0197
▁suffer	-11.0209
▁UNI	-11.0215
▁transfers	-11.0218
▁Commend	-11.0228
▁orally	-11.0234
▁enjoy	-11.0239
▁juvenile	-11.0253
▁attend	-11.0268
▁remove	-11.0283
▁Punish	-11.0287
▁feasible	-11.0288
▁clarify	-11.0288
▁Monitoring	-11.0288
▁Colonialism	-11.0288
▁resettlement	-11.0288
nants	-11.0288
▁prisoners	-11.0289
▁facilitation	-11.0289
▁notably	-11.0292
▁prohibition	-11.0298
▁removal	-11.0298
▁With	-11.0298
▁receiving	-11.0299
▁resumption	-11.0302
▁dangers	-11.032
▁Rwandan	-11.0325
▁deriv	-11.0328
▁presentation	-11.0332
▁located	-11.0344
Neighbour	-11.0354
▁size	-11.0394
ual	-11.0397
▁Arabs	-11.0403
▁Migrant	-11.0422
▁Somali	-11.0446
▁crises	-11.0455
▁devices	-11.0455
▁arrears	-11.0455
▁commodities	-11.0455
▁inhabitants	-11.0455
▁mobility	-11.0455
▁radiation	-11.0455
▁Pact	-11.0456
▁Contributions	-11.0456
▁mankind	-11.0458
▁Where	-11.0462
▁teams	-11.0467
ndebted	-11.0473
▁afford	-11.0474
▁borders	-11.0493
rading	-11.0508
▁neighbour	-11.0509
▁suppress	-11.0515
ble	-11.0518
▁ending	-11.0519
▁mu	-11.0519
▁respected	-11.053
tory	-11.0537
▁violen	-11.055
▁conven	-11.0577
Treaty	-11.0579
▁var	-11.0585
▁Mine	-11.06
▁prosecute	-11.0617
▁normal	-11.0624
▁deterioration	-11.0624
▁real	-11.0624
▁indivisible	-11.0626
▁produce	-11.0626
▁excessive	-11.0626
▁intersessional	-11.0626
▁platforms	-11.0634
▁entity	-11.064
▁moral	-11.0644
▁publish	-11.0647
▁volunteering	-11.0648
▁organizing	-11.0653
shall	-11.0654
▁contains	-11.0682
▁associations	-11.0686
▁welcome	-11.0689
▁drawing	-11.0697
kj	-11.0703
▁m	-11.0706
▁circulate	-11.0718
productive	-11.0742
▁recommend	-11.0761
▁claim	-11.0776
ivilian	-11.0777
ent	-11.0782
welfth	-11.0783
▁Ten	-11.0786
▁commence	-11.0789
▁acquire	-11.0791
cause	-11.0792
bound	-11.0793
▁French	-11.0796
▁Youth	-11.0796
▁duration	-11.0797
▁imperative	-11.0797
▁residence	-11.0797
▁moratorium	-11.0797
▁modernization	-11.0797
▁Ni	-11.0797
▁Bureau	-11.0802
▁detained	-11.0802
▁infectious	-11.0803
iolations	-11.0813
▁livelihoods	-11.0816
▁spheres	-11.0817
▁units	-11.0823
▁efficiently	-11.0825
▁evaluate	-11.0826
▁learning	-11.0826
▁Sahara	-11.0826
▁perspectives	-11.083
▁adjustments	-11.0836
▁texts	-11.0837
p	-11.0839
▁endeavours	-11.084
▁City	-11.0841
ertain	-11.0864
emocratic	-11.0868
▁Associat	-11.0883
acquired	-11.0905
catch	-11.0922
▁appoint	-11.0926
▁finalize	-11.0962
▁Seminar	-11.0972
▁Families	-11.0972
▁flexible	-11.0972
SG	-11.0974
▁landmines	-11.098
▁creditors	-11.0986
▁secur	-11.0993
▁acknowledges	-11.1
▁Ma	-11.1001
doc	-11.1012
▁reconvene	-11.104
▁roles	-11.1063
v	-11.1076
▁Building	-11.1091
R	-11.11
eply	-11.1107
▁chang	-11.1109
▁port	-11.1125
▁find	-11.1128
▁Excess	-11.113
▁undu	-11.114
▁staffing	-11.1143
▁gear	-11.115
▁Washington	-11.1151
▁introduction	-11.1151
▁seventy	-11.1152
▁commencement	-11.1152
▁missing	-11.1153
emed	-11.1154
▁barriers	-11.1156
▁Volunteers	-11.1156
ess	-11.1157
▁officers	-11.1159
serving	-11.1161
▁assure	-11.1164
▁substantially	-11.1168
▁papers	-11.1182
▁location	-11.1183
▁Promoting	-11.1198
ively	-11.1202
▁Mar	-11.1214
▁Affect	-11.123
▁phases	-11.1233
Food	-11.1236
▁obtain	-11.1252
▁l	-11.126
▁advanc	-11.1267
▁approve	-11.1284
▁recruit	-11.1285
▁prevail	-11.1295
▁Citizens	-11.1298
▁uses	-11.131
▁surplus	-11.1325
Weapon	-11.1326
▁reunification	-11.1332
▁meaningful	-11.1333
▁injuries	-11.1333
▁wall	-11.1338
▁precursors	-11.1339
line	-11.1356
violence	-11.1363
dated	-11.1373
▁harmony	-11.1374
▁recently	-11.139
▁Hea	-11.1391
▁primar	-11.1399
▁hinder	-11.1437
▁restore	-11.1439
lenary	-11.1457
VIII	-11.1481
▁panel	-11.1482
▁danger	-11.1485
▁accept	-11.1492
▁asset	-11.1504
▁bound	-11.1507
▁communicate	-11.1508
▁cover	-11.1516
▁discriminatory	-11.1517
▁calendar	-11.1517
▁mercenary	-11.1517
▁fiftieth	-11.1517
▁profound	-11.1517
▁occurrence	-11.1517
▁Conciliation	-11.1518
▁occurred	-11.1518
▁fourteen	-11.1518
▁multilateralism	-11.1518
▁participatory	-11.1518
▁multiple	-11.1518
▁Regular	-11.1519
▁found	-11.152
▁vast	-11.1525
▁Encouraging	-11.1525
▁digit	-11.1526
▁considerations	-11.1532
▁killings	-11.1537
▁contacts	-11.1537
▁Provisions	-11.1538
▁along	-11.1539
▁resolv	-11.1545
▁Atlantic	-11.1556
▁exports	-11.1579
affected	-11.1594
territorial	-11.1627
enth	-11.1636
▁sixth	-11.1649
strategic	-11.1652
ular	-11.1656
uestion	-11.1669
▁Disasters	-11.1672
▁transaction	-11.1674
▁coordinator	-11.1674
▁stage	-11.1684
▁virtu	-11.1692
▁smooth	-11.1699
▁liais	-11.1706
▁custody	-11.1706
▁disparities	-11.1706
▁Disabilities	-11.1706
▁remote	-11.1706
boundar	-11.1713
▁Abuja	-11.1714
▁enterprises	-11.1722
Dec	-11.1722
▁reasons	-11.1723
▁spread	-11.1724
▁offenders	-11.1728
▁permitted	-11.1732
▁historical	-11.1738
Free	-11.1751
▁striv	-11.1763
▁indicated	-11.1765
▁consul	-11.1783
ffirms	-11.1809
▁Promot	-11.1816
▁Authoriz	-11.1834
▁Investigat	-11.1848
▁disease	-11.1865
▁paper	-11.1865
ld	-11.1879
▁fill	-11.1884
▁Emergenc	-11.1887
▁associate	-11.1888
▁Resolve	-11.1893
▁proclamation	-11.1898
▁earliest	-11.1899
▁restructuring	-11.19
▁suggestions	-11.19
▁persistent	-11.1902
▁thousands	-11.1902
▁managing	-11.1905
▁aware	-11.1908
▁Multilateral	-11.1909
▁fulfill	-11.1914
▁Effective	-11.1915
▁du	-11.1921
▁launch	-11.1942
▁orderly	-11.1953
▁environmentally	-11.1958
▁violate	-11.1961
▁objects	-11.1967
▁limitations	-11.1968
Protocol	-11.1977
tp	-11.198
▁Renew	-11.1995
▁regimes	-11.2003
▁seven	-11.201
▁actual	-11.2023
▁Main	-11.2024
responding	-11.2042
▁print	-11.2054
▁academic	-11.2057
▁Project	-11.2059
▁custom	-11.206
▁marriage	-11.2061
▁diamond	-11.2061
▁highlight	-11.2067
▁urge	-11.208
u	-11.2093
▁birth	-11.2094
▁Kyoto	-11.2094
▁denial	-11.2094
▁example	-11.2094
▁Exercise	-11.2094
▁Offenders	-11.2094
▁vocational	-11.2094
▁unaccompanied	-11.2095
▁vulnerabilities	-11.2095
▁circulation	-11.2095
▁shelf	-11.2095
▁updating	-11.2095
▁Solar	-11.2096
▁Illegal	-11.2102
▁successor	-11.2104
▁realize	-11.211
▁redress	-11.2112
▁linkages	-11.2119
ht	-11.212
▁indicate	-11.2121
▁invit	-11.2123
▁widen	-11.2131
▁responsive	-11.2138
▁electora	-11.214
FC	-11.2143
▁gaps	-11.2152
listic	-11.2158
▁short	-11.2163
▁controls	-11.2167
Corr	-11.2206
▁Trustees	-11.221
ag	-11.2214
▁forests	-11.222
four	-11.2229
Chairperson	-11.2247
▁endanger	-11.2249
▁negotiat	-11.2255
▁St	-11.2257
▁dire	-11.2292
▁unique	-11.2294
▁overdue	-11.2294
▁ecological	-11.2294
▁objectivity	-11.2294
▁disposal	-11.2295
▁cancellation	-11.2295
▁Observer	-11.2295
▁Hammar	-11.2295
▁divide	-11.2296
▁humankind	-11.2296
▁complementarity	-11.2297
▁opposition	-11.2303
▁corresponding	-11.2304
▁Bu	-11.2304
▁Organs	-11.231
▁whom	-11.2312
▁weeks	-11.2322
▁Earth	-11.2329
▁functional	-11.2332
▁Eight	-11.2337
port	-11.2338
▁collecting	-11.2344
▁Air	-11.2347
▁charge	-11.2356
▁signator	-11.2371
▁unit	-11.2375
▁Responsib	-11.2381
▁fall	-11.2384
disciplinary	-11.2414
▁rem	-11.2423
▁Equal	-11.2424
ne	-11.243
▁intensifi	-11.245
▁movements	-11.2452
▁decide	-11.2453
ny	-11.2462
▁xenophobi	-11.249
MSP	-11.2497
▁Crescent	-11.2498
▁Heritage	-11.2498
▁reorientation	-11.2499
▁comparable	-11.2499
▁deprivation	-11.2501
▁Planning	-11.2502
▁pledged	-11.2503
minent	-11.2519
mic	-11.2521
▁vacanc	-11.2522
▁Demands	-11.2524
▁homes	-11.2528
▁nutrition	-11.2529
▁Migrants	-11.254
▁analyse	-11.2541
▁di	-11.2542
▁disappearances	-11.2554
▁borne	-11.2564
▁deposited	-11.2566
▁sports	-11.2571
▁trial	-11.2577
lies	-11.2586
tainable	-11.2587
▁Chair	-11.259
▁authorize	-11.2604
▁engag	-11.261
trategic	-11.2612
▁deliver	-11.2613
cut	-11.2617
affirms	-11.2628
HIV	-11.2659
▁ratifications	-11.2667
▁pandemic	-11.2673
▁join	-11.2694
▁cash	-11.2705
ompliance	-11.2706
▁Solidarity	-11.2707
▁companies	-11.2707
▁malnutrition	-11.2707
▁Semipalatinsk	-11.2707
▁exploration	-11.2707
utical	-11.2708
▁machinery	-11.2708
▁techniques	-11.2709
▁writing	-11.2709
SR	-11.2711
▁citizens	-11.2712
▁encountered	-11.2718
▁tho	-11.2724
▁Country	-11.2725
▁Lan	-11.2726
ably	-11.274
owards	-11.2745
▁resume	-11.2746
▁exists	-11.2762
▁Th	-11.2771
elimina	-11.2801
▁imped	-11.2816
▁insecurity	-11.2817
ferred	-11.2827
egrading	-11.2848
▁expanded	-11.2855
issile	-11.2855
▁modern	-11.2868
▁focusing	-11.2872
▁emphasize	-11.2873
▁desire	-11.2882
Back	-11.2882
▁prison	-11.2883
▁tsunami	-11.2884
▁database	-11.2886
▁protocol	-11.2886
▁s	-11.2891
▁requir	-11.2895
▁Foundation	-11.2919
▁diversify	-11.292
▁counselling	-11.292
▁unlawful	-11.292
▁species	-11.292
▁dangerous	-11.292
seekers	-11.292
▁Provision	-11.2922
▁middle	-11.2924
▁below	-11.2924
▁disciplines	-11.2925
▁rapporteurs	-11.2926
authorized	-11.2928
Article	-11.2928
▁reported	-11.2934
▁transferred	-11.2935
Oceans	-11.2935
istic	-11.2943
▁propose	-11.2945
▁conciliation	-11.295
▁Volunt	-11.2952
▁jointly	-11.2959
▁inequality	-11.2967
▁uniform	-11.2969
▁select	-11.297
▁wides	-11.2971
▁reiterat	-11.2977
us	-11.2977
as	-11.2981
▁cycle	-11.2981
▁Committees	-11.2987
▁Base	-11.2988
▁noted	-11.299
▁segments	-11.3007
▁advances	-11.304
CE	-11.3042
▁Radio	-11.3063
▁proceed	-11.3069
▁Accord	-11.3082
▁accomplish	-11.309
▁scheme	-11.3102
▁infection	-11.3103
▁obstacle	-11.3103
▁decade	-11.3111
▁nets	-11.3111
▁Science	-11.3118
▁parliamentar	-11.3121
▁rescue	-11.3135
▁salary	-11.3135
▁direction	-11.3136
▁unified	-11.3137
▁verifiable	-11.3137
▁validity	-11.3137
▁arbitration	-11.3138
▁Army	-11.3141
▁Matters	-11.3142
▁instances	-11.3146
▁consisting	-11.3172
▁abuses	-11.3184
five	-11.3185
▁detrimental	-11.3188
▁processing	-11.3195
▁deepen	-11.3222
PL	-11.3226
▁Stra	-11.3226
▁granted	-11.3241
▁draw	-11.328
▁Guide	-11.3284
der	-11.3298
▁ascertain	-11.3315
▁referendum	-11.3324
▁shark	-11.3324
▁frame	-11.3344
▁generate	-11.3349
▁pilot	-11.3357
▁minority	-11.3358
▁budgets	-11.3358
▁Anguilla	-11.3359
▁marginalization	-11.3359
▁architecture	-11.336
▁marginalized	-11.336
▁discards	-11.336
▁equivalent	-11.3361
voluntary	-11.3361
▁groupings	-11.3361
▁endorsement	-11.3362
▁determining	-11.3363
▁except	-11.3365
▁adolescents	-11.3369
▁emergenc	-11.3376
Secretary	-11.3381
▁represented	-11.3382
ital	-11.3389
▁qualifi	-11.3397
care	-11.3403
▁clearance	-11.3409
▁stages	-11.341
resolution	-11.341
▁savings	-11.3413
▁highe	-11.3421
▁na	-11.3429
▁guarantees	-11.3472
▁ut	-11.3475
▁north	-11.3491
▁adhere	-11.3504
▁Chairperson	-11.3515
rious	-11.3524
▁dynamic	-11.3541
▁fighting	-11.3542
▁sole	-11.3565
▁intellectual	-11.3585
▁addendum	-11.3585
▁arsenals	-11.3585
▁slavery	-11.3585
▁monetary	-11.3585
▁prosperity	-11.3586
▁news	-11.3588
herent	-11.359
▁managers	-11.3592
▁camps	-11.3598
▁attitudes	-11.36
▁Compact	-11.36
Promotion	-11.3602
▁what	-11.3605
oreign	-11.3609
▁DeclarationA	-11.3619
▁rise	-11.3621
mergency	-11.3625
▁coordinators	-11.3626
▁chemicals	-11.3642
▁reparation	-11.3658
▁man	-11.3659
▁considers	-11.3663
▁contin	-11.3663
▁home	-11.3695
gency	-11.3715
▁AIDS	-11.374
country	-11.3747
▁empower	-11.3769
terrorism	-11.3778
▁Respect	-11.378
▁schedule	-11.3807
▁Donor	-11.3814
▁Traffic	-11.3817
▁Pelindaba	-11.3817
▁Rescue	-11.3817
▁behaviour	-11.3817
▁fifteen	-11.3817
▁superiority	-11.3817
▁uneven	-11.3818
▁eligible	-11.3818
▁beneficial	-11.3818
▁armaments	-11.3818
ishing	-11.3818
▁valid	-11.3818
▁resilience	-11.3819
▁incitement	-11.382
▁Round	-11.382
▁differences	-11.3821
▁Havana	-11.3822
▁designation	-11.3825
▁traditions	-11.3825
▁insert	-11.3826
▁planned	-11.384
▁frequent	-11.384
▁scheduled	-11.385
▁millennium	-11.3858
▁generation	-11.3865
▁detect	-11.3875
▁courts	-11.3882
▁suffered	-11.3882
▁complementar	-11.3884
▁east	-11.3893
ok	-11.3897
▁ever	-11.3898
▁offered	-11.3947
▁grants	-11.3954
▁norm	-11.4002
▁know	-11.4004
▁dis	-11.4004
▁definition	-11.402
▁lend	-11.4043
six	-11.4045
▁Tunis	-11.4055
▁magnitude	-11.4055
▁Policy	-11.4055
▁conscious	-11.4056
▁Helena	-11.4056
▁Evaluation	-11.4057
▁impose	-11.4058
▁periodically	-11.4058
▁seized	-11.4058
▁literacy	-11.4059
▁premises	-11.4061
▁notify	-11.4065
▁Smuggling	-11.4066
▁ceasefire	-11.4067
▁solid	-11.4068
▁Applications	-11.4072
Pacific	-11.4077
▁stimulate	-11.4089
Movement	-11.4099
▁recruited	-11.4116
▁unity	-11.4144
▁rich	-11.415
▁influence	-11.4156
▁linked	-11.4169
African	-11.4175
▁contracts	-11.4178
estrictions	-11.418
▁exercised	-11.418
▁stress	-11.4208
▁pursued	-11.4226
ethods	-11.4238
setting	-11.4246
▁ammunition	-11.4262
▁closure	-11.4271
▁volunteer	-11.4273
▁beliefs	-11.4275
▁decrease	-11.4286
▁president	-11.4289
▁Antarctic	-11.429
▁ill	-11.4298
▁Biosafety	-11.4299
▁weather	-11.4299
▁robbery	-11.4299
▁revert	-11.43
▁applies	-11.43
▁Replace	-11.43
▁sought	-11.43
▁initiation	-11.4302
▁affiliat	-11.431
▁back	-11.4322
▁When	-11.433
INF	-11.4332
▁attached	-11.4344
▁Officer	-11.4345
▁receivables	-11.4359
▁devastat	-11.4368
apital	-11.4388
▁eventual	-11.439
ish	-11.4393
▁represent	-11.4397
▁Acts	-11.4398
▁acknowledge	-11.4399
▁acquired	-11.4412
ixth	-11.4428
▁reduced	-11.4431
▁prefer	-11.4465
▁followed	-11.4471
▁poses	-11.4471
▁campaign	-11.4475
▁revision	-11.4477
▁deploy	-11.4509
▁workload	-11.4513
▁slum	-11.4514
▁vessel	-11.4515
▁coral	-11.4528
▁alleviat	-11.4536
RC	-11.4539
▁Commonwealth	-11.4549
selectivity	-11.4549
▁colonialism	-11.4549
▁mortality	-11.4549
▁accessibility	-11.455
▁fishery	-11.455
▁Unreported	-11.4551
▁incorporation	-11.4555
▁immunity	-11.4559
▁Explor	-11.4574
▁initiated	-11.4588
▁series	-11.4589
nce	-11.4596
▁Common	-11.4602
formal	-11.4608
▁adjusted	-11.4618
▁Sustainab	-11.462
cess	-11.4624
TD	-11.4635
lenipotentiaries	-11.464
▁completed	-11.4641
week	-11.4647
cope	-11.4668
▁collectively	-11.4672
▁makes	-11.4701
▁harmonize	-11.4706
▁Li	-11.471
xpected	-11.4733
▁epidemic	-11.4771
▁message	-11.4772
▁background	-11.4772
▁model	-11.4772
▁crop	-11.4774
▁impair	-11.4794
▁stop	-11.4794
▁English	-11.4806
▁Ensuring	-11.4806
▁Lusaka	-11.4806
▁Registration	-11.4806
▁fragile	-11.4806
▁casualties	-11.4806
▁Cairo	-11.4806
▁mutilation	-11.4806
▁Life	-11.4806
▁Mountain	-11.4806
▁competitiveness	-11.4806
▁elderly	-11.4807
▁explosions	-11.4807
▁extension	-11.4807
▁Games	-11.4809
▁board	-11.481
▁Communities	-11.481
▁depends	-11.4814
▁Procurement	-11.4817
▁award	-11.4817
opening	-11.4818
▁secondary	-11.4826
▁interventions	-11.4833
▁migra	-11.4837
▁consist	-11.4881
▁organ	-11.4882
▁apportioned	-11.4894
▁week	-11.492
▁launching	-11.493
ectoral	-11.494
▁Migrat	-11.4947
ement	-11.4954
▁restrict	-11.4956
▁bas	-11.4956
▁avoiding	-11.4963
articularly	-11.4968
▁exploit	-11.4971
▁employ	-11.4995
oc	-11.4996
▁bureau	-11.5019
▁troop	-11.5034
▁Demand	-11.5038
oluntary	-11.5042
▁va	-11.5056
▁input	-11.5057
▁Moscow	-11.5069
▁opium	-11.5069
▁scourge	-11.5069
▁colour	-11.5069
▁persecution	-11.5069
▁pluralism	-11.507
▁borrowing	-11.5071
▁minors	-11.5071
▁privileges	-11.5071
▁congresses	-11.5071
▁tax	-11.5072
▁utilizing	-11.5072
▁exercising	-11.5072
▁diverse	-11.5074
establishment	-11.5076
ring	-11.5077
▁insufficient	-11.5078
▁competitive	-11.5092
▁coercion	-11.5095
▁assurances	-11.5095
▁accelerating	-11.5099
▁accordingly	-11.51
▁desir	-11.5109
▁transactions	-11.5117
heavy	-11.5129
J	-11.5138
mocratic	-11.5141
▁placement	-11.5142
▁locally	-11.5174
▁promoted	-11.5188
▁oral	-11.5193
▁translate	-11.5197
en	-11.5211
see	-11.5214
taking	-11.5216
▁dismantle	-11.5217
osta	-11.525
▁WT	-11.5256
▁librar	-11.5274
▁incorporat	-11.528
▁finding	-11.5287
nalienable	-11.5289
nnual	-11.5295
▁vols	-11.5334
▁Chamorro	-11.5339
▁Tokyo	-11.5339
▁Helmets	-11.5339
▁credible	-11.5339
▁persistence	-11.5339
▁coverage	-11.5339
▁practicable	-11.5339
▁retirement	-11.534
▁characteristics	-11.534
▁Reconstruction	-11.534
▁verify	-11.5341
▁parliament	-11.5341
▁allegations	-11.5343
▁code	-11.5344
▁maintained	-11.5347
▁compatib	-11.5352
▁signatory	-11.5361
▁feasibility	-11.5363
▁properly	-11.5363
▁publicity	-11.5367
reliance	-11.537
cultural	-11.5396
▁hostage	-11.5401
▁distinct	-11.5404
▁utilized	-11.5405
grading	-11.5424
▁infected	-11.5426
▁fortieth	-11.5426
▁designat	-11.5434
▁Regret	-11.5436
▁times	-11.5445
▁user	-11.5461
▁Reports	-11.5472
▁Legislati	-11.5501
rough	-11.5502
▁settle	-11.5512
▁attain	-11.5517
▁injur	-11.5531
▁Mo	-11.5537
▁violat	-11.554
▁hosted	-11.5558
▁city	-11.5575
▁adapt	-11.5579
▁globaliz	-11.5581
▁cluster	-11.5583
▁Response	-11.5585
▁UNEP	-11.5606
▁constitution	-11.5615
▁Century	-11.5617
▁Logistic	-11.5617
▁Repertory	-11.5617
▁Substances	-11.5617
▁disappeared	-11.5617
▁solemn	-11.5617
▁receipt	-11.5617
▁narrow	-11.5617
▁Displacement	-11.5617
▁paramount	-11.5617
▁decent	-11.5618
▁hemisphere	-11.5618
▁reimbursement	-11.5619
▁Appreciates	-11.562
▁doctrines	-11.5622
▁begin	-11.5623
▁sp	-11.5624
▁Objects	-11.5626
▁halve	-11.5627
▁patterns	-11.5627
▁Underscor	-11.5628
▁revenues	-11.563
▁policymaking	-11.5631
▁suspect	-11.5632
▁teaching	-11.5633
▁broadcasting	-11.5644
▁nationalities	-11.5648
▁positively	-11.5666
▁page	-11.5667
▁evolving	-11.5669
Sect	-11.5671
▁tables	-11.5683
▁gen	-11.5702
rra	-11.5727
▁debates	-11.5728
UN	-11.5743
Follow	-11.5744
▁deter	-11.5751
▁burdens	-11.5775
underrepresented	-11.5775
▁Meetings	-11.5776
▁confront	-11.578
▁Fif	-11.5796
▁near	-11.5797
▁Enforce	-11.5802
▁comprehensively	-11.581
▁accelerat	-11.5812
akes	-11.5819
sion	-11.5824
▁developmental	-11.5828
▁readin	-11.5868
▁linkage	-11.5869
▁redouble	-11.5873
appropriate	-11.5881
▁oil	-11.5883
▁triennial	-11.5887
▁Governor	-11.5891
etric	-11.5895
▁Montserrat	-11.5903
▁Repertoire	-11.5903
▁passage	-11.5903
▁volunteerism	-11.5903
▁Democracies	-11.5903
▁retention	-11.5903
▁everywhere	-11.5903
▁agency	-11.5904
▁fairness	-11.5904
▁interreligious	-11.5904
▁thereafter	-11.5911
▁visible	-11.5912
▁missiles	-11.5916
▁channels	-11.5919
▁liability	-11.5919
▁incentives	-11.5921
▁flexibility	-11.5927
gular	-11.5941
Resolutions	-11.5941
▁emanat	-11.5943
▁successfully	-11.5949
▁deployed	-11.5955
▁deliberate	-11.5957
aring	-11.596
▁concepts	-11.597
▁indicat	-11.5987
treatment	-11.5999
▁exchang	-11.6001
ala	-11.6005
sphere	-11.6007
▁reflecting	-11.6011
compliance	-11.6014
▁Con	-11.6041
▁restor	-11.6062
▁accounts	-11.6062
▁discriminate	-11.608
▁environments	-11.6083
▁interference	-11.61
Sahara	-11.6107
▁Host	-11.611
ling	-11.6148
strictions	-11.6153
▁hand	-11.6155
▁livelihood	-11.6163
▁offender	-11.6163
▁delete	-11.6179
sycho	-11.6196
▁Cayman	-11.6197
▁backlog	-11.6197
▁precaution	-11.6197
▁Paulo	-11.6197
▁unemployment	-11.6197
▁Restor	-11.6197
▁enrichment	-11.6197
▁restitution	-11.6198
▁obst	-11.6198
centred	-11.6198
▁synergies	-11.6198
▁television	-11.6198
▁continuity	-11.6199
▁exposed	-11.6199
▁Agencies	-11.62
▁federa	-11.6201
▁ultimate	-11.6202
▁rationalization	-11.6205
▁adj	-11.6205
▁demonstrate	-11.6209
▁spouses	-11.6211
▁orphans	-11.622
▁schools	-11.623
▁reiterated	-11.623
▁Alarmed	-11.6241
tieth	-11.6246
▁represents	-11.6252
private	-11.6258
consistent	-11.6262
▁Ya	-11.6279
▁derive	-11.6286
assessment	-11.6291
Sub	-11.6298
Global	-11.6302
▁Comment	-11.6304
mo	-11.6307
▁dual	-11.6307
▁innovat	-11.6318
▁regionally	-11.633
water	-11.6345
▁move	-11.6349
stakeholder	-11.6353
▁consisten	-11.6358
▁unexpl	-11.6396
ese	-11.6397
ized	-11.6413
▁acknowledg	-11.6415
un	-11.6418
ust	-11.6439
ties	-11.6452
▁stock	-11.6465
▁expenditure	-11.6466
▁partner	-11.6466
▁contact	-11.6469
▁anticipate	-11.6476
▁tackle	-11.6482
▁school	-11.6483
hysical	-11.6498
▁Campaign	-11.65
▁Fellowship	-11.65
▁imbalance	-11.65
▁educators	-11.65
▁momentum	-11.65
▁consumption	-11.65
▁miles	-11.65
▁Thirteen	-11.65
multidimensional	-11.65
▁Mitigation	-11.65
▁aggression	-11.65
▁usefulness	-11.6501
▁overview	-11.6501
▁acquiring	-11.6501
▁contributors	-11.6503
▁admission	-11.6503
▁monthly	-11.6504
▁ultimately	-11.6506
▁massive	-11.6508
▁students	-11.651
▁routes	-11.6511
▁alleviation	-11.6511
▁Bali	-11.6514
▁banking	-11.6522
qu	-11.6525
▁codes	-11.6529
ian	-11.6532
ound	-11.6536
▁crops	-11.6538
▁minimiz	-11.6545
▁sharks	-11.6546
▁customs	-11.6551
▁devise	-11.6555
▁desirable	-11.656
▁sphere	-11.656
▁fit	-11.6563
▁subprogramme	-11.6569
▁negotiated	-11.6571
two	-11.6578
▁generally	-11.6583
▁increases	-11.6589
▁users	-11.6589
▁enacting	-11.6591
▁cataly	-11.6594
▁relatives	-11.6599
▁Americas	-11.662
▁Prepar	-11.6629
ist	-11.6641
▁advanced	-11.6641
seven	-11.6649
▁Sport	-11.6657
cold	-11.6662
▁en	-11.6673
▁formation	-11.6674
ential	-11.668
requisite	-11.6687
▁embodi	-11.6724
disproportionate	-11.6728
▁cons	-11.6729
▁Parliament	-11.6752
▁participated	-11.6758
▁historic	-11.6759
▁promotes	-11.6766
▁dollar	-11.6775
▁destroy	-11.6776
▁reviewed	-11.678
▁caus	-11.6783
▁Area	-11.6787
LC	-11.6795
▁Minorities	-11.6812
▁neglect	-11.6812
▁talks	-11.6812
GATT	-11.6812
▁extremist	-11.6812
▁lawyers	-11.6812
REP	-11.6812
▁Construction	-11.6812
▁Investment	-11.6813
▁properties	-11.6813
▁authorization	-11.6813
▁floods	-11.6813
▁choose	-11.6814
▁alike	-11.6814
▁Abuse	-11.6814
▁archives	-11.6815
▁parity	-11.6817
▁confidential	-11.6818
▁confirmed	-11.6819
▁witnesses	-11.6819
▁heart	-11.6819
▁fate	-11.6822
▁benchmarks	-11.6823
▁history	-11.6825
▁Study	-11.6825
▁pledges	-11.6826
▁prices	-11.6838
▁disclosure	-11.6839
ship	-11.6842
▁Communications	-11.6842
xploitation	-11.6843
▁innovations	-11.6845
ordina	-11.6856
▁institutes	-11.6858
▁schemes	-11.6861
▁databases	-11.6862
▁negotiate	-11.6866
ping	-11.6868
▁attending	-11.6875
▁side	-11.6879
▁wish	-11.688
▁formulated	-11.6882
mended	-11.6882
off	-11.6884
▁Establish	-11.689
▁amend	-11.6891
▁vision	-11.6894
Strengthen	-11.6897
▁Responsibility	-11.6912
▁Particular	-11.6915
ding	-11.6924
▁dumping	-11.6925
▁Water	-11.6925
acial	-11.6929
▁Text	-11.693
▁test	-11.6932
▁standing	-11.6937
▁late	-11.6939
ubregional	-11.6943
▁margin	-11.6944
bout	-11.6946
▁tru	-11.698
▁payments	-11.6981
▁Protect	-11.6984
▁ship	-11.6995
▁align	-11.7034
▁numer	-11.704
▁h	-11.7058
▁undermin	-11.7094
▁halt	-11.7096
▁arise	-11.7096
▁commenc	-11.7096
▁transformation	-11.7097
▁Systems	-11.7098
▁pharmaceutical	-11.7098
▁Freedom	-11.7101
▁participant	-11.7102
▁trend	-11.7103
▁killing	-11.7105
▁greate	-11.7109
though	-11.7116
oll	-11.712
CL	-11.7122
▁overcom	-11.7126
▁born	-11.7129
aking	-11.7133
▁Tuberculosis	-11.7135
▁methodologies	-11.7135
▁advocacy	-11.7135
▁overemphasized	-11.7135
▁friendship	-11.7135
▁voice	-11.7135
▁imprisonment	-11.7135
▁Bermuda	-11.7135
▁celebration	-11.7136
▁accreditation	-11.7138
▁audiences	-11.7138
▁remittances	-11.7141
▁redeployment	-11.7142
▁medicines	-11.7146
▁multilingual	-11.7148
▁perpetrated	-11.7153
▁Subject	-11.7157
grass	-11.7165
Te	-11.7167
▁Fight	-11.7172
mposition	-11.7176
▁constitut	-11.7192
▁relates	-11.7192
▁neighbours	-11.7201
▁Integrat	-11.7208
▁stipulat	-11.7208
▁Progress	-11.7214
▁exchanges	-11.7216
▁accorded	-11.7231
▁discussed	-11.7236
▁down	-11.724
▁decline	-11.724
▁press	-11.7247
▁returns	-11.7257
▁reflects	-11.7258
tabilization	-11.726
cent	-11.7273
▁assignments	-11.7276
▁Bridg	-11.7276
▁Good	-11.7303
▁voluntari	-11.7304
▁ethic	-11.7315
supplementary	-11.732
three	-11.7328
▁record	-11.7333
▁claims	-11.7344
ffirming	-11.7345
Biological	-11.7347
▁popula	-11.7352
▁examin	-11.7358
her	-11.7361
▁nor	-11.7367
orr	-11.7369
how	-11.7369
endemic	-11.7402
▁intervention	-11.7421
▁predecessor	-11.7424
▁Challenge	-11.7441
tive	-11.7442
▁thorough	-11.7463
▁exclude	-11.7464
▁consequent	-11.7465
▁pregnan	-11.7468
▁Rarotonga	-11.7468
▁juridical	-11.7468
▁twelve	-11.7468
▁Opinion	-11.7468
▁incurred	-11.7468
▁fiscal	-11.7468
▁shipping	-11.7468
▁vigorous	-11.7468
▁footing	-11.7469
▁absolute	-11.7471
▁preserving	-11.7471
▁commemoration	-11.7473
▁scholarships	-11.7475
▁lands	-11.7475
ental	-11.7478
▁Field	-11.7481
▁distributed	-11.7484
rban	-11.7487
▁providers	-11.7488
▁tackl	-11.7488
▁precise	-11.7492
▁demonstrated	-11.7493
its	-11.7512
▁Mountains	-11.7513
▁obstruct	-11.7521
▁accepting	-11.7532
▁wh	-11.7535
▁underlin	-11.7542
ean	-11.7542
▁head	-11.7545
▁catch	-11.7556
quality	-11.7559
▁facilitated	-11.7561
▁attach	-11.7566
▁unrepresent	-11.7567
▁fuell	-11.7568
▁prohibited	-11.7568
▁advantages	-11.757
▁wi	-11.7571
▁actuar	-11.7592
▁funded	-11.7603
▁assign	-11.761
▁willing	-11.7618
ransparency	-11.7621
▁compil	-11.7626
reduction	-11.7629
earch	-11.7655
mprehensive	-11.766
Environment	-11.7674
charged	-11.7692
nine	-11.7694
▁standardiz	-11.7694
ethnic	-11.7701
▁mean	-11.7727
▁globally	-11.7739
▁Wo	-11.7744
ter	-11.775
▁constituted	-11.7753
▁There	-11.7755
▁remov	-11.7757
▁memorandum	-11.7777
▁Strategi	-11.7778
▁Standard	-11.7778
▁broadcast	-11.7779
▁assurance	-11.7779
▁attack	-11.778
town	-11.778
▁budgeting	-11.7788
▁volcan	-11.7802
▁Preventing	-11.7805
▁rehabilitat	-11.7808
▁Extra	-11.7811
▁accredit	-11.7811
▁preamb	-11.7812
selves	-11.7812
▁Coordinat	-11.7813
▁Portuguese	-11.7813
▁drift	-11.7813
▁College	-11.7813
▁dispatch	-11.7813
▁fistula	-11.7813
▁poppy	-11.7813
▁rescind	-11.7813
▁Bodies	-11.7813
▁hardship	-11.7813
▁da	-11.7813
▁Truce	-11.7813
▁diffusion	-11.7813
▁sixteen	-11.7813
regulat	-11.7815
▁Ships	-11.7818
▁evolution	-11.782
▁struggl	-11.7823
▁voters	-11.7824
▁currency	-11.7827
▁Arm	-11.7847
▁testing	-11.7848
▁subsidies	-11.7849
▁lower	-11.7851
▁schooling	-11.7853
▁registered	-11.7855
root	-11.7859
de	-11.7866
▁nationally	-11.7869
▁pandemics	-11.787
▁emphasized	-11.7875
▁fulfilled	-11.7875
F	-11.7879
anning	-11.7881
▁guaranteed	-11.7886
▁workplan	-11.7894
▁skill	-11.7922
▁compar	-11.7925
tract	-11.7933
ntellectual	-11.7936
exual	-11.7944
▁owners	-11.7945
sized	-11.7955
▁assume	-11.7973
▁trag	-11.7984
▁Commit	-11.8004
ral	-11.8005
▁Declar	-11.801
▁publicize	-11.8016
ken	-11.8024
ods	-11.8026
▁facts	-11.8037
▁dates	-11.8066
▁impos	-11.8067
Paris	-11.8084
▁allocat	-11.8088
pressing	-11.8114
▁relate	-11.8116
▁periods	-11.8119
▁combination	-11.8126
▁disaggregated	-11.8128
▁fellowship	-11.8136
▁Assistant	-11.8136
▁workshop	-11.8136
▁tribunal	-11.8138
▁survey	-11.8142
▁calculat	-11.8145
▁bridg	-11.8164
▁Communication	-11.8166
▁revitalize	-11.8167
▁Maputo	-11.817
▁Tampere	-11.817
▁democracies	-11.817
▁Tsunami	-11.817
▁inflation	-11.817
▁Club	-11.817
▁drink	-11.817
▁descent	-11.817
▁Whole	-11.817
neighbourliness	-11.817
▁registry	-11.817
▁Liais	-11.817
▁managerial	-11.8171
▁Capacity	-11.8171
▁conversion	-11.8171
▁Fono	-11.8171
▁stateless	-11.8171
▁supervision	-11.8172
▁terror	-11.8172
▁concessional	-11.8172
▁differential	-11.8181
▁unification	-11.8181
▁Antarctica	-11.8183
▁possession	-11.8185
▁insolvency	-11.8189
▁dedicat	-11.8201
▁upgrading	-11.8203
▁innovation	-11.8205
▁civilization	-11.8206
▁void	-11.8211
▁Exce	-11.8217
▁Kyi	-11.822
▁accomplished	-11.8246
▁approves	-11.8249
eight	-11.8266
▁intensive	-11.8267
hich	-11.8276
▁cooperating	-11.8285
▁consulting	-11.8301
▁diminish	-11.8319
▁generated	-11.8325
▁multilaterally	-11.8335
rising	-11.8337
rian	-11.8337
▁Civili	-11.8346
▁appreciat	-11.8377
Financ	-11.8473
▁enrich	-11.8479
it	-11.8491
clearance	-11.8495
▁abolish	-11.8495
▁satellite	-11.8497
▁rest	-11.8498
equiv	-11.85
▁insecticide	-11.8505
▁stand	-11.8506
▁quota	-11.8507
▁slow	-11.8509
▁conciliator	-11.8521
easefire	-11.8535
▁null	-11.8538
▁counsel	-11.854
▁qualitative	-11.8541
▁storage	-11.8541
▁freshwater	-11.8541
▁survivors	-11.8541
▁halving	-11.8541
▁Waste	-11.8541
▁After	-11.8541
▁pressure	-11.8541
▁remedy	-11.8542
▁Sources	-11.8542
▁Facilitating	-11.8543
▁Port	-11.8545
speaking	-11.8548
▁detainees	-11.855
▁orientation	-11.8551
▁stockpiles	-11.8552
▁allowance	-11.8562
▁piracy	-11.8571
development	-11.8575
▁backgrounds	-11.859
▁introduce	-11.859
▁import	-11.8591
▁submitt	-11.8592
▁volunteers	-11.8594
▁voting	-11.8596
come	-11.8602
▁revise	-11.8618
▁Ku	-11.8623
▁investigated	-11.8634
▁communi	-11.8641
▁ho	-11.8662
▁sporting	-11.8674
▁audited	-11.8674
▁Increased	-11.8679
▁producing	-11.8687
Missile	-11.8696
▁punished	-11.8697
▁reason	-11.8698
N	-11.8712
▁Improv	-11.8736
▁signatures	-11.8737
HR	-11.8737
▁expressions	-11.8743
▁owned	-11.8744
▁today	-11.8749
erification	-11.8752
uly	-11.8755
disaster	-11.8775
time	-11.8779
▁Me	-11.8784
lectronic	-11.8803
▁mitigat	-11.8803
▁discharg	-11.8815
Assistance	-11.8821
▁elect	-11.8827
day	-11.883
▁solve	-11.8841
▁advis	-11.8845
ICC	-11.8846
ome	-11.8846
lization	-11.8848
Isla	-11.885
▁Access	-11.8864
▁train	-11.887
king	-11.8894
regional	-11.89
▁Return	-11.8906
▁judgement	-11.891
▁Contin	-11.8915
narcotics	-11.8919
▁underscore	-11.8921
▁Lumpur	-11.8925
▁Marrakesh	-11.8925
▁embargo	-11.8925
▁subsistence	-11.8925
▁ordnance	-11.8925
▁genetic	-11.8925
▁multilingualism	-11.8925
▁recourse	-11.8925
▁revolution	-11.8925
▁Police	-11.8925
▁Recovery	-11.8926
▁codification	-11.8926
▁vacancies	-11.8926
▁incite	-11.8927
▁openness	-11.8928
▁overlap	-11.8928
▁worst	-11.8928
▁lost	-11.8928
▁trafficked	-11.8929
▁charts	-11.893
▁completing	-11.8934
▁succeed	-11.8936
▁stabilization	-11.8937
▁ne	-11.8937
▁applicability	-11.8937
▁Turk	-11.8939
▁expir	-11.8939
▁predictability	-11.894
▁Prosecutor	-11.894
▁En	-11.8941
▁investigating	-11.8949
way	-11.8949
▁mediation	-11.895
▁issuing	-11.8953
New	-11.8955
▁things	-11.8957
▁instability	-11.8957
▁persist	-11.8975
limination	-11.898
▁produced	-11.8991
▁compulsor	-11.8993
ical	-11.9003
ilateral	-11.9007
▁economically	-11.9017
digenous	-11.9022
▁Debt	-11.9024
▁fear	-11.9036
ency	-11.9038
▁sentences	-11.9038
▁rebuilding	-11.9051
▁tension	-11.9058
▁debtors	-11.906
ssociated	-11.9062
▁mountains	-11.9071
▁ex	-11.9073
▁ab	-11.9099
▁undertakings	-11.9105
▁retain	-11.912
▁Determine	-11.9122
his	-11.9123
▁quantit	-11.9132
lecommunications	-11.9145
▁accessions	-11.9148
ification	-11.9151
▁refer	-11.9158
mission	-11.9173
gic	-11.9186
▁provi	-11.9187
▁attained	-11.9207
▁Bi	-11.9207
▁Pro	-11.9216
▁computer	-11.9232
▁Bel	-11.9241
inary	-11.9258
▁affirmed	-11.9274
▁relocation	-11.9288
▁Identify	-11.929
▁rebuild	-11.9292
▁criminaliz	-11.9294
▁price	-11.9295
▁certificate	-11.9296
ligence	-11.9298
▁Cred	-11.9306
▁instruction	-11.9307
▁penalize	-11.9311
▁reverse	-11.932
▁earlie	-11.9323
▁reservation	-11.9323
▁slave	-11.9324
shore	-11.9325
▁cornerstone	-11.9325
▁infanticide	-11.9325
▁illiteracy	-11.9325
▁Limitation	-11.9325
▁Radiation	-11.9326
▁harmonious	-11.9326
▁subvention	-11.9326
▁notwithstanding	-11.9326
▁exoduses	-11.9326
▁speedily	-11.9326
▁Warning	-11.9326
▁disabled	-11.9326
▁repeated	-11.9327
▁stockpiling	-11.9328
▁geographic	-11.9328
▁inquiry	-11.9328
▁intentionally	-11.9328
▁leave	-11.9329
▁producers	-11.9329
▁facility	-11.9329
▁poorest	-11.933
▁evaluations	-11.9331
▁consultants	-11.9331
▁earthquakes	-11.9332
entrepreneurship	-11.9332
▁peer	-11.9333
▁transmission	-11.9336
▁Chambers	-11.9337
▁loans	-11.9337
▁indirectly	-11.934
▁aggravated	-11.9355
▁invoked	-11.9355
▁Desir	-11.9357
▁themes	-11.9363
ncial	-11.9363
▁Export	-11.9364
▁recurrent	-11.937
▁parliaments	-11.9388
▁commemorate	-11.94
▁Off	-11.9417
▁wastes	-11.9419
▁stressed	-11.9419
▁subsequently	-11.9428
atural	-11.9433
ider	-11.9439
ercentage	-11.945
▁professionals	-11.9495
▁pluralis	-11.9501
▁su	-11.9517
▁attache	-11.9547
▁Globalization	-11.955
ional	-11.956
▁regulate	-11.9561
▁preclude	-11.9576
om	-11.9578
▁length	-11.9579
ieving	-11.958
ommercial	-11.9627
vis	-11.9643
▁Gen	-11.9649
ll	-11.9651
ender	-11.9679
nal	-11.9702
▁method	-11.9707
▁judge	-11.9714
▁defin	-11.9716
hould	-11.974
▁Yokohama	-11.9742
▁cybersecurity	-11.9742
▁erosion	-11.9742
▁inequalities	-11.9742
▁parallel	-11.9742
▁FAO	-11.9742
▁Employment	-11.9742
▁copies	-11.9742
▁volatility	-11.9742
▁modified	-11.9742
▁penal	-11.9743
▁pillars	-11.9743
▁substitute	-11.9743
▁embark	-11.9743
▁tracing	-11.9743
▁interfere	-11.9744
▁Individuals	-11.9744
mmediate	-11.9745
▁disadvantaged	-11.9746
▁analysing	-11.9746
▁vacant	-11.9746
Decl	-11.9747
▁Timorese	-11.9748
▁avail	-11.9749
▁Deter	-11.9749
date	-11.9756
▁placing	-11.9757
▁complaints	-11.9758
▁ICT	-11.9759
▁justified	-11.9762
▁nominate	-11.9767
▁Stockholm	-11.9776
▁nominated	-11.9777
▁Annex	-11.9778
▁Wor	-11.9778
▁progressively	-11.978
▁whereby	-11.9785
▁gradual	-11.9787
▁extradite	-11.979
▁UNCTAD	-11.9795
commending	-11.9802
▁books	-11.9803
▁prosecuted	-11.9812
▁trained	-11.9815
▁destabiliz	-11.9817
AH	-11.982
▁promulgat	-11.9825
▁prosecut	-11.9839
stric	-11.9846
eaching	-11.9849
▁embodie	-11.9863
▁regrets	-11.9864
▁Cai	-11.9873
net	-11.9882
▁realized	-11.9883
▁Groups	-11.9906
▁powers	-11.9912
▁networking	-11.9915
▁Ra	-11.9923
cos	-11.9938
▁correct	-11.9938
▁financially	-11.9948
▁purchase	-11.995
ou	-11.9951
ft	-11.9955
▁advise	-11.997
▁Kh	-11.9999
▁Enhanc	-12.0004
▁pace	-12.001
▁never	-12.001
▁celebrate	-12.002
rant	-12.0023
annot	-12.0039
▁prescribe	-12.0048
▁str	-12.005
▁foreseen	-12.008
▁el	-12.0088
Other	-12.0108
▁suppressi	-12.011
oxin	-12.0116
▁opinions	-12.0117
▁furnish	-12.0129
▁SS	-12.0134
▁prioritize	-12.0137
emphasizes	-12.0142
▁understand	-12.0142
▁Instrument	-12.0143
▁enterprise	-12.0143
▁Expert	-12.0143
▁observation	-12.0144
▁team	-12.0144
▁appropriately	-12.0149
▁accounting	-12.0153
nservation	-12.0155
▁orphan	-12.0158
▁art	-12.016
▁severa	-12.0168
agricultural	-12.0175
▁ninth	-12.0177
▁Pitcairn	-12.0177
▁confiscated	-12.0177
▁habitual	-12.0177
▁streamlining	-12.0177
▁legitimacy	-12.0177
▁Jurisdiction	-12.0177
▁category	-12.0177
▁beneficiaries	-12.0177
▁description	-12.0177
ecalling	-12.0177
▁Branch	-12.0177
▁interlinked	-12.0178
▁subjects	-12.018
▁seriousness	-12.0181
▁exploring	-12.0183
▁assum	-12.0183
▁vaccines	-12.0187
holders	-12.0188
UNEP	-12.0193
liable	-12.0196
intervention	-12.0197
▁invoke	-12.0197
▁satisfy	-12.0199
▁Negotiations	-12.0199
▁Understanding	-12.0199
▁forcibl	-12.0201
▁career	-12.0202
▁coerc	-12.0204
▁creditor	-12.0206
▁army	-12.0206
▁spiritual	-12.0216
▁invest	-12.0235
▁profit	-12.0245
▁Look	-12.0247
▁analyses	-12.0248
▁bottom	-12.0252
▁experiment	-12.0253
▁obtaining	-12.026
▁commend	-12.0261
▁Scope	-12.0275
▁observed	-12.0275
▁modes	-12.0278
▁defend	-12.0279
▁imminen	-12.0284
▁standardize	-12.0291
▁incorporated	-12.0293
▁frames	-12.0296
▁tim	-12.032
emporary	-12.0335
▁exporting	-12.0341
▁track	-12.0376
▁listed	-12.0393
▁Investigation	-12.0394
▁As	-12.0408
▁cap	-12.0421
PC	-12.0431
▁declin	-12.0446
▁compile	-12.046
termination	-12.0514
▁delays	-12.0516
▁Implement	-12.0535
▁audio	-12.0542
arch	-12.0547
▁evaluat	-12.0554
▁possess	-12.0563
▁Consultation	-12.0573
sk	-12.0575
▁manifest	-12.0579
rpt	-12.059
▁symposium	-12.0596
▁substance	-12.0598
▁hearing	-12.0621
contributing	-12.0626
Sheikh	-12.0631
▁prerogative	-12.0631
▁Future	-12.0631
▁replenishment	-12.0631
▁Kabul	-12.0631
▁Ethics	-12.0631
ate	-12.0631
▁Shelf	-12.0631
▁nineteen	-12.0631
▁Kobe	-12.0631
▁inspection	-12.0631
▁accumulation	-12.0631
▁coalition	-12.0631
▁neutrality	-12.0632
▁devising	-12.0632
▁delimitation	-12.0632
▁discretion	-12.0632
▁pass	-12.0632
▁occurring	-12.0632
▁repression	-12.0633
▁Concurs	-12.0634
▁comprising	-12.0635
onsequences	-12.0636
tinent	-12.0636
▁timeliness	-12.0638
htm	-12.0638
▁ideal	-12.064
▁alone	-12.0642
▁reefs	-12.0645
▁connected	-12.0646
▁reliability	-12.0648
▁vehicles	-12.0653
▁average	-12.0654
▁register	-12.0656
▁qualification	-12.0656
natal	-12.0657
▁clean	-12.0657
sessional	-12.0661
ax	-12.0663
▁Post	-12.0668
▁Freedoms	-12.068
ndowment	-12.069
ut	-12.071
▁generating	-12.0713
▁justify	-12.0714
social	-12.0715
▁One	-12.0721
▁importing	-12.0723
▁systemic	-12.0727
▁supervis	-12.0751
▁accus	-12.0757
affirming	-12.0767
▁cities	-12.0771
sh	-12.0808
law	-12.0826
▁appointments	-12.0847
acroeconomic	-12.0855
ely	-12.0876
long	-12.0884
dustrialization	-12.0888
pe	-12.0905
▁Br	-12.091
▁thirt	-12.0918
▁incidental	-12.0919
▁rent	-12.0936
▁concert	-12.0936
▁hydrograph	-12.0941
Agreement	-12.0949
reach	-12.0969
iteracy	-12.0972
rn	-12.098
Nuclear	-12.1013
▁desirab	-12.1014
ning	-12.1023
▁amounts	-12.1033
▁nine	-12.1038
▁Hold	-12.1044
sector	-12.1046
▁exception	-12.1049
▁Hami	-12.1055
▁surrender	-12.1058
▁adjust	-12.106
ntained	-12.1065
▁announcement	-12.1074
▁Application	-12.1075
Space	-12.1083
▁tolerate	-12.1093
▁rep	-12.1098
▁volume	-12.1102
▁excess	-12.1103
▁Ituri	-12.1107
▁Results	-12.1107
▁assault	-12.1107
▁cannabis	-12.1107
▁fraud	-12.1107
▁hamper	-12.1107
▁Sharks	-12.1107
▁Hunger	-12.1107
▁accompany	-12.1107
▁capability	-12.1108
▁denunciation	-12.1108
▁industries	-12.1108
▁competition	-12.1108
MIN	-12.1108
▁activists	-12.1108
▁Partners	-12.1108
▁however	-12.1109
▁agents	-12.1109
▁arrange	-12.1109
▁ministers	-12.1109
▁carefully	-12.111
▁Forests	-12.111
▁degree	-12.111
▁scaling	-12.1111
▁Baha	-12.1112
▁autonomy	-12.1113
▁accidental	-12.1114
▁Annexes	-12.1114
▁House	-12.1115
▁ethnicity	-12.1117
▁villages	-12.1118
▁Aires	-12.112
▁installations	-12.1122
▁households	-12.1127
▁Disappearances	-12.1128
▁hol	-12.1129
▁corporations	-12.113
▁sending	-12.1139
ming	-12.1139
harm	-12.114
▁Integra	-12.1141
international	-12.1145
ducational	-12.1151
▁surveys	-12.1154
▁constructively	-12.1158
▁Governors	-12.1161
ying	-12.1162
▁Pe	-12.1167
disaggregated	-12.1168
thing	-12.1168
▁added	-12.117
shke	-12.119
▁marked	-12.1194
precedent	-12.1194
rshall	-12.1194
▁globalized	-12.1201
▁charges	-12.1201
▁removed	-12.1209
ther	-12.1218
owever	-12.1219
call	-12.1219
▁month	-12.1224
▁exclusive	-12.123
treat	-12.1239
mer	-12.1242
▁welcom	-12.1273
▁translat	-12.1275
▁Seas	-12.1281
with	-12.1288
served	-12.1294
ice	-12.1297
acteri	-12.1314
▁dialogues	-12.1316
▁define	-12.1323
▁Arabic	-12.134
▁offset	-12.1349
▁accura	-12.1358
▁optim	-12.136
▁manufactur	-12.1365
▁word	-12.137
▁Isla	-12.1419
▁Rapporteurs	-12.1422
ncumbe	-12.1424
marks	-12.1425
hi	-12.1428
red	-12.144
▁prevalen	-12.1443
▁resolute	-12.1444
vent	-12.1453
▁relationships	-12.146
arly	-12.1467
▁compos	-12.1475
▁Import	-12.1478
▁lift	-12.1481
▁dem	-12.1484
▁detriment	-12.1488
ded	-12.1489
▁Reduc	-12.1503
▁secret	-12.1509
ending	-12.151
ural	-12.1514
▁plant	-12.1516
▁agendas	-12.1523
departmental	-12.1529
▁hydro	-12.1552
hir	-12.1562
▁readi	-12.1572
▁delegation	-12.1574
rests	-12.1579
▁Forces	-12.1581
▁Urg	-12.1582
▁resort	-12.1583
effectiveness	-12.1586
▁lodge	-12.1588
allocations	-12.1589
▁adult	-12.159
▁institute	-12.1592
▁tra	-12.1597
▁defa	-12.1597
▁industrializ	-12.1599
eventh	-12.1601
cussions	-12.1607
▁Ammunition	-12.1607
▁Jakarta	-12.1607
▁London	-12.1607
▁curricula	-12.1607
▁fashion	-12.1607
▁incidence	-12.1607
▁disparity	-12.1607
▁liabilities	-12.1607
▁logistic	-12.1607
▁maternal	-12.1607
▁Ombudsman	-12.1607
▁MSC	-12.1607
▁radiological	-12.1607
▁seventeen	-12.1607
▁phenomena	-12.1607
▁simplification	-12.1608
WTO	-12.1608
▁Administrator	-12.1608
▁prerequisite	-12.1608
▁diplomacy	-12.1608
▁unjustifiable	-12.1608
▁Draw	-12.1608
▁firearms	-12.1608
▁irreversible	-12.1609
▁comparator	-12.1609
▁creative	-12.1609
▁Reliable	-12.1609
parliamentarians	-12.1609
▁arbitrarily	-12.1609
▁Reform	-12.161
▁broke	-12.161
▁servants	-12.161
post	-12.1611
▁survival	-12.1611
▁settlers	-12.1612
▁adaptation	-12.1612
▁Order	-12.1612
▁atroci	-12.1614
▁finalization	-12.1617
▁eighty	-12.1617
▁conserve	-12.1622
▁Providing	-12.1625
▁advocates	-12.1626
▁stands	-12.1628
▁Amer	-12.1631
▁gained	-12.1633
mation	-12.1639
▁attitude	-12.165
ions	-12.166
▁send	-12.1664
▁bank	-12.1665
▁come	-12.1665
▁lending	-12.1672
▁particularities	-12.1672
▁losses	-12.1673
▁Private	-12.1674
▁messages	-12.1675
during	-12.1675
▁jeopardize	-12.1678
▁variet	-12.1681
▁infections	-12.1687
▁Assessment	-12.1689
▁synthe	-12.1694
▁collate	-12.1695
▁Commodities	-12.1695
refoulement	-12.17
▁Agreements	-12.1701
▁distribute	-12.1705
▁delivered	-12.172
▁credits	-12.1728
▁Remain	-12.1728
▁promotional	-12.1732
▁enlarge	-12.1735
▁announc	-12.1741
enior	-12.1746
il	-12.1762
▁Launche	-12.1771
▁experienc	-12.1794
Re	-12.1809
▁ord	-12.1831
▁Thirt	-12.1831
alling	-12.1854
▁contracting	-12.1855
undamental	-12.1876
el	-12.1916
▁solv	-12.1946
▁propos	-12.1983
▁allows	-12.199
▁encompass	-12.1991
nding	-12.2002
▁Encourage	-12.2023
▁effected	-12.203
▁Displace	-12.204
▁Material	-12.2099
▁street	-12.21
▁Settlement	-12.2117
▁streamline	-12.2119
▁Na	-12.2121
▁Pollut	-12.2124
▁Ababa	-12.2134
▁Algiers	-12.2134
▁Freshwater	-12.2134
▁Microcredit	-12.2134
▁Survey	-12.2134
▁parameters	-12.2134
▁shocks	-12.2134
▁Body	-12.2134
▁opponents	-12.2134
▁Rouge	-12.2134
▁colonial	-12.2134
▁departure	-12.2134
▁simplify	-12.2134
▁farmers	-12.2134
▁green	-12.2134
▁Opportunities	-12.2134
▁recosting	-12.2134
▁disposition	-12.2134
▁bribery	-12.2134
▁Treaties	-12.2134
▁enlist	-12.2134
▁Participation	-12.2134
▁confidentiality	-12.2135
▁Reef	-12.2135
▁multisectoral	-12.2135
▁acute	-12.2135
▁simultaneously	-12.2137
▁suggest	-12.2137
▁aftermath	-12.2138
▁deny	-12.2138
ook	-12.2138
▁vendors	-12.2138
▁wealth	-12.2139
▁forthwith	-12.2141
▁transform	-12.2141
▁Coast	-12.2143
soever	-12.2145
▁Ca	-12.2148
▁workplace	-12.2148
▁advisers	-12.2151
driven	-12.2152
ourteen	-12.2152
▁Kiri	-12.2159
▁comment	-12.216
▁hearings	-12.2173
asing	-12.2174
table	-12.2175
▁Custom	-12.2175
▁graduat	-12.2175
▁image	-12.2177
▁tensions	-12.218
▁renewal	-12.218
▁businesses	-12.2187
▁Basi	-12.2197
▁munitions	-12.2214
occupation	-12.2218
zone	-12.2219
▁eight	-12.2226
zation	-12.2227
▁released	-12.2232
elated	-12.2234
www	-12.2237
foreseen	-12.2253
Indicators	-12.2254
finding	-12.226
▁run	-12.2267
▁bilaterally	-12.2271
▁bridge	-12.2271
▁Resolution	-12.2273
safeguarded	-12.2277
▁contents	-12.2278
type	-12.2294
▁motivation	-12.2313
gan	-12.2321
▁irregular	-12.2345
▁pensions	-12.2346
▁combatants	-12.2348
▁Call	-12.235
▁detection	-12.2351
▁Democra	-12.2357
▁mis	-12.2358
▁reserve	-12.2365
ure	-12.2382
▁Finance	-12.2385
▁augment	-12.2386
▁bi	-12.2395
▁Enhance	-12.2409
H	-12.2418
▁trauma	-12.242
xploration	-12.2421
▁regulat	-12.2438
▁Appreciat	-12.2448
are	-12.2458
▁gain	-12.2489
▁type	-12.2497
ppeals	-12.2511
despread	-12.2526
▁Interest	-12.2528
eferred	-12.2531
▁investigati	-12.2549
▁Tra	-12.2549
▁fuel	-12.257
▁precedent	-12.2589
trafficking	-12.2618
land	-12.2619
▁witness	-12.2624
▁considerabl	-12.2627
tional	-12.2639
▁Religion	-12.2651
be	-12.2651
▁consequence	-12.2654
▁Dispute	-12.2655
▁timetable	-12.2657
▁entail	-12.2658
▁procedur	-12.2661
enatal	-12.2668
standing	-12.2682
representation	-12.2685
▁irreversib	-12.2688
▁Academy	-12.2689
▁Bamako	-12.2689
▁Deputy	-12.2689
▁caregivers	-12.2689
▁dramatic	-12.2689
▁vigilan	-12.2689
▁Navigation	-12.2689
▁artemisinin	-12.2689
▁privacy	-12.2689
▁programmatic	-12.2689
▁scene	-12.2689
▁citizenship	-12.2689
▁precarious	-12.2689
▁disregard	-12.2689
▁eighteen	-12.2689
▁accommodation	-12.2689
▁whereabouts	-12.269
▁Week	-12.269
▁false	-12.269
▁outsourcing	-12.269
▁Inquiry	-12.269
▁Belief	-12.269
▁refusal	-12.269
▁outbreak	-12.2691
▁therefrom	-12.2692
▁accumulated	-12.2692
▁visitors	-12.2693
▁unconditionally	-12.2693
purpose	-12.2696
▁break	-12.2697
FS	-12.2697
bati	-12.2697
▁decisive	-12.2699
▁employees	-12.27
▁Equality	-12.2706
▁prominent	-12.2706
▁ease	-12.2706
▁orbit	-12.2708
▁sums	-12.2708
▁Tehran	-12.2709
▁frequency	-12.2709
ignity	-12.271
▁attendance	-12.2714
▁criminality	-12.2715
▁hurricanes	-12.2716
▁entails	-12.2722
▁measurement	-12.2722
▁spokes	-12.2723
disi	-12.2726
▁combine	-12.2726
▁congress	-12.2728
ul	-12.2737
▁conciliators	-12.2741
▁arises	-12.2751
▁chair	-12.2751
Improvement	-12.2751
nforcement	-12.2752
▁accommodate	-12.2754
isabled	-12.2757
▁faithful	-12.2777
RP	-12.2787
▁ceased	-12.2787
▁inception	-12.2791
▁operationaliz	-12.2791
▁prospect	-12.2796
▁serv	-12.2798
aida	-12.2802
lated	-12.2807
ber	-12.2808
▁stimulat	-12.2815
chairpersons	-12.2818
Measures	-12.2819
these	-12.2837
▁Del	-12.2851
▁droughts	-12.2856
▁decid	-12.2859
Supplement	-12.2863
house	-12.2869
▁websites	-12.2872
▁Afghans	-12.2894
▁prosecutions	-12.2894
hird	-12.2911
▁index	-12.2916
▁deplor	-12.2916
ficiency	-12.2917
▁About	-12.2924
▁examinations	-12.2924
▁Populations	-12.2925
▁structured	-12.2926
En	-12.2929
▁synerg	-12.2939
▁arrested	-12.294
persons	-12.2946
odification	-12.2948
▁unequ	-12.2952
ia	-12.2964
ti	-12.2972
fering	-12.2995
▁Adopts	-12.3003
▁Legislat	-12.3012
war	-12.3029
▁cont	-12.303
▁herein	-12.3037
ilitary	-12.3046
iological	-12.3078
In	-12.308
▁sensitiz	-12.3084
ognizan	-12.3092
head	-12.3105
AP	-12.3125
▁ban	-12.3132
▁Revis	-12.3142
til	-12.3145
CM	-12.3166
esilience	-12.3166
currence	-12.3167
diminished	-12.3172
face	-12.3177
▁Consolidat	-12.3181
▁Reductions	-12.319
et	-12.3197
▁Modern	-12.3206
▁ineffective	-12.321
olations	-12.3211
generation	-12.3212
terdepartmental	-12.3218
▁accident	-12.3234
▁package	-12.3238
radication	-12.324
▁camp	-12.3243
▁choice	-12.3243
▁platform	-12.3244
▁buildings	-12.3245
▁Determin	-12.325
▁Cambodian	-12.3254
▁alien	-12.3263
▁disturb	-12.3269
derogable	-12.3277
▁Cotonou	-12.3277
▁Eurasia	-12.3277
▁Hydrograph	-12.3277
▁checkpoints	-12.3277
▁Actuaries	-12.3278
▁depletion	-12.3278
▁viability	-12.3278
▁ninety	-12.3279
▁Directorate	-12.3281
▁purport	-12.3281
▁visa	-12.3282
▁conceal	-12.3282
▁few	-12.3283
▁apprised	-12.3285
▁rectify	-12.3285
▁prosecutors	-12.3286
▁Turtle	-12.3286
▁delegates	-12.3288
▁failed	-12.3288
▁mothers	-12.329
▁Wide	-12.3293
▁concentration	-12.3294
▁outputs	-12.3298
▁transportation	-12.3299
▁chairing	-12.33
▁Paper	-12.3302
▁features	-12.3304
▁came	-12.3305
▁Encourag	-12.3308
▁inventor	-12.3309
▁modifications	-12.331
▁separately	-12.3313
▁discourage	-12.332
▁Bethlehem	-12.3325
▁earnings	-12.3325
▁tribunals	-12.3333
▁amphetamine	-12.3333
▁suspend	-12.3343
▁unilaterally	-12.3345
▁clusters	-12.3351
▁Highlight	-12.3352
▁decades	-12.3372
humanitarian	-12.3377
spare	-12.3378
▁Governance	-12.3378
▁peacemaking	-12.3378
▁Hel	-12.3393
▁Realiz	-12.34
▁transferr	-12.3403
Latin	-12.3404
viol	-12.3405
▁disseminated	-12.3408
▁shelters	-12.3408
▁highlighted	-12.3416
▁reject	-12.3421
scope	-12.3422
collection	-12.3428
▁auditing	-12.3429
▁obtained	-12.3431
▁exacerbate	-12.3448
dwellers	-12.3467
Nazism	-12.3479
▁tracking	-12.3483
▁settings	-12.3484
▁incident	-12.3497
aw	-12.3505
emorandum	-12.3506
▁concentrate	-12.3509
▁compli	-12.3511
▁stat	-12.3531
CI	-12.3547
▁facto	-12.3548
ize	-12.3549
volving	-12.355
▁Migra	-12.3552
rtieth	-12.3564
age	-12.3572
▁performed	-12.3573
▁intend	-12.3598
vocation	-12.3613
▁Shar	-12.3615
respective	-12.3617
▁sent	-12.3618
▁Ou	-12.3627
▁communica	-12.363
▁provisionally	-12.3634
▁Arbitra	-12.3634
ultidisciplinary	-12.3634
ffensive	-12.3651
▁Mi	-12.3663
erlin	-12.3683
anner	-12.369
article	-12.369
pro	-12.3692
▁understandings	-12.371
▁Ea	-12.3722
▁announce	-12.3735
▁lines	-12.3735
▁thirds	-12.3762
ecessity	-12.3769
▁destructi	-12.377
Relat	-12.377
ill	-12.3778
▁Brin	-12.3779
▁commemorat	-12.3782
▁publicly	-12.3795
▁interpret	-12.3821
empt	-12.3823
ung	-12.3826
ough	-12.3836
limina	-12.3847
ving	-12.3849
▁sa	-12.385
▁thir	-12.3851
▁laundering	-12.3852
▁impediment	-12.3868
▁modification	-12.3869
▁grade	-12.3872
tlantic	-12.3873
▁une	-12.3878
▁le	-12.3882
▁Equali	-12.3883
▁Beyond	-12.3902
▁Louis	-12.3902
▁Organisation	-12.3902
▁Santiago	-12.3902
▁pragmatic	-12.3902
▁salaries	-12.3902
▁scrupulous	-12.3902
▁seamounts	-12.3902
▁tailor	-12.3902
▁Explosive	-12.3902
▁explicit	-12.3902
▁Preamble	-12.3902
▁traffickers	-12.3903
▁visibility	-12.3903
▁meantime	-12.3903
▁minefields	-12.3903
▁penalties	-12.3903
▁Recognition	-12.3903
▁expulsion	-12.3903
▁childhood	-12.3903
▁statelessness	-12.3903
▁indebtedness	-12.3903
▁uproot	-12.3903
▁client	-12.3904
▁Participants	-12.3904
▁inheritance	-12.3904
▁Remind	-12.3904
▁multicultural	-12.3904
▁Interior	-12.3905
▁convicted	-12.3905
▁solicit	-12.3905
▁civic	-12.3905
▁emissions	-12.3905
▁recurrence	-12.3905
▁disruption	-12.3905
▁protectionism	-12.3906
▁deplores	-12.3907
▁defer	-12.3907
▁furthermore	-12.3908
▁preconditions	-12.3913
▁Press	-12.3918
ology	-12.392
▁Limits	-12.3924
▁choices	-12.3939
▁Disputes	-12.3941
▁counterpart	-12.3943
▁adults	-12.3945
spective	-12.3946
▁insurance	-12.3953
▁allowances	-12.3962
Review	-12.3962
▁calculation	-12.3967
▁prosper	-12.3973
▁corals	-12.3973
▁res	-12.3985
lag	-12.3987
▁Standards	-12.3989
▁Accords	-12.4003
Israeli	-12.4005
▁prisons	-12.4008
▁lawful	-12.4012
▁inflict	-12.402
acter	-12.4023
▁employed	-12.4025
▁optimiz	-12.4027
mbody	-12.4032
▁occurs	-12.4053
▁desi	-12.4054
▁alter	-12.4054
set	-12.4056
▁testi	-12.4064
▁sponsor	-12.4068
▁profile	-12.4077
▁defences	-12.4084
▁promise	-12.409
▁resid	-12.4093
▁alert	-12.4095
▁invok	-12.4105
▁regrett	-12.4106
Building	-12.4115
interference	-12.4118
WT	-12.4121
step	-12.4129
▁hazard	-12.4136
border	-12.4136
ture	-12.4144
▁Fort	-12.4148
inter	-12.4148
)"	-12.4163
bolition	-12.4164
faith	-12.4166
Right	-12.4177
ces	-12.4196
▁lay	-12.4198
necessary	-12.4198
▁ports	-12.4201
▁trace	-12.4204
▁hear	-12.4209
▁designing	-12.4225
▁comprise	-12.4243
made	-12.4244
▁tariff	-12.4253
Development	-12.4254
tudies	-12.4262
strumentalities	-12.4268
▁alternatives	-12.4281
stead	-12.4292
core	-12.4317
▁orders	-12.4326
▁Statement	-12.4329
▁Confirm	-12.4332
▁Fourt	-12.4343
▁channel	-12.4345
▁Bahr	-12.4349
eration	-12.4362
▁billi	-12.4373
▁vary	-12.4385
▁provider	-12.4406
▁educat	-12.4413
▁stipulate	-12.4418
");	-12.4421
▁Continu	-12.4425
▁finaliz	-12.4458
ge	-12.4467
after	-12.4475
▁irre	-12.4478
LO	-12.4482
))	-12.4491
▁revitaliz	-12.4495
ast	-12.45
▁aggravat	-12.4502
▁predict	-12.4507
comes	-12.4514
▁Purpose	-12.4528
▁spouse	-12.4535
▁Negotiation	-12.4536
lists	-12.4544
▁capita	-12.4544
▁Manufactur	-12.4549
establish	-12.4549
▁Fact	-12.4557
▁Leban	-12.4557
nourished	-12.4569
▁Khartoum	-12.4569
▁Montreal	-12.4569
▁Satellite	-12.4569
▁Societies	-12.4569
▁chronic	-12.4569
▁ideologies	-12.4569
▁intermediaries	-12.4569
▁memory	-12.4569
▁paedophilia	-12.4569
▁unanimous	-12.4569
▁aquaculture	-12.4569
▁Devices	-12.4569
▁overthrow	-12.4569
▁feedback	-12.4569
▁Policies	-12.4569
▁Mandate	-12.4569
▁Managua	-12.4569
▁tenure	-12.4569
▁worship	-12.4569
▁stimulants	-12.4569
▁biotechnology	-12.457
utual	-12.457
▁isolation	-12.457
▁separation	-12.4571
▁mix	-12.4571
▁underpin	-12.4571
▁realities	-12.4571
▁merits	-12.4571
▁rejection	-12.4572
▁resistance	-12.4572
▁addiction	-12.4576
▁fees	-12.4578
▁quarter	-12.4579
▁accompanied	-12.458
▁Fair	-12.4582
▁catches	-12.4582
▁arbitrator	-12.4585
▁evident	-12.4586
▁arbitral	-12.4588
▁comparat	-12.4589
▁demonstrations	-12.4589
▁Desert	-12.4592
mony	-12.4592
▁Slavery	-12.4592
▁Ox	-12.4593
▁unions	-12.4594
▁weight	-12.4595
▁compromised	-12.4596
▁Recogniz	-12.4597
▁eruptions	-12.4599
▁domestically	-12.4601
neighbourl	-12.4603
▁grades	-12.4605
▁timetables	-12.4611
ton	-12.4613
▁Materials	-12.4613
▁encompassing	-12.4615
intended	-12.4616
▁deserve	-12.4618
▁assured	-12.4622
▁tracks	-12.4624
▁reciprocal	-12.4624
▁deeper	-12.4626
Prevention	-12.4626
▁judgements	-12.463
▁makers	-12.4634
ape	-12.464
▁Contracts	-12.4655
▁Friend	-12.4656
▁trials	-12.4676
▁cycles	-12.4684
▁Cause	-12.4685
drawn	-12.4689
▁marriages	-12.469
▁micro	-12.4697
▁termin	-12.4702
▁via	-12.4704
▁arriv	-12.4706
▁replie	-12.4715
▁arm	-12.4721
▁station	-12.4724
▁endangered	-12.4727
physical	-12.4744
▁turn	-12.4762
▁pe	-12.4763
target	-12.477
▁tw	-12.477
emorial	-12.4792
▁mail	-12.4794
irearms	-12.4798
Narcotic	-12.4803
web	-12.4803
commercial	-12.4803
ensive	-12.4808
BW	-12.481
RE	-12.481
▁consistently	-12.4813
track	-12.4814
▁Partnerships	-12.4816
▁ends	-12.4827
eas	-12.4828
bility	-12.4839
focused	-12.4839
WHA	-12.4847
poor	-12.4854
tariff	-12.4856
account	-12.4857
▁thi	-12.4863
▁modernize	-12.487
ant	-12.4875
anal	-12.4878
ni	-12.4887
ace	-12.4896
▁Representatives	-12.4904
including	-12.491
▁era	-12.4918
▁diploma	-12.4926
issemination	-12.4927
designate	-12.4931
aintenance	-12.4934
▁gains	-12.4936
▁bias	-12.4944
imped	-12.4951
Office	-12.4957
top	-12.4965
references	-12.4981
▁rely	-12.4993
uel	-12.4997
ght	-12.4998
nterim	-12.5003
atter	-12.5015
Ex	-12.5017
▁portion	-12.5024
▁servicing	-12.5033
▁revis	-12.5043
ptional	-12.5048
▁usual	-12.5048
documented	-12.5074
▁engine	-12.509
either	-12.5097
ered	-12.5099
▁remedi	-12.51
char	-12.5111
▁exhibit	-12.5112
▁politically	-12.515
saving	-12.5158
fied	-12.5161
▁Ro	-12.5163
▁believ	-12.5165
ntry	-12.5187
ppreciation	-12.5195
universalization	-12.5197
▁file	-12.5227
Congo	-12.5228
▁nullif	-12.5239
▁author	-12.5241
▁emerge	-12.5241
▁Gene	-12.5245
▁job	-12.5246
▁approv	-12.5247
▁resum	-12.5248
▁deadline	-12.5249
▁hurricane	-12.5249
▁par	-12.5249
▁vehicle	-12.5249
▁revenue	-12.5249
▁landmine	-12.525
▁preference	-12.525
▁refuge	-12.5251
▁charter	-12.5251
lete	-12.5253
▁missile	-12.5253
▁Op	-12.5253
nocent	-12.5253
▁adolescent	-12.5256
▁catastrophe	-12.5256
Korea	-12.5259
▁nation	-12.5261
FI	-12.5263
▁corporation	-12.5264
▁briefing	-12.5273
▁execute	-12.5275
▁autonom	-12.5276
K	-12.5279
OS	-12.5281
rovi	-12.5282
▁Belgrade	-12.5283
▁Darfur	-12.5283
▁Pretoria	-12.5283
▁Ownership	-12.5283
▁Prosperity	-12.5283
▁Registrar	-12.5283
▁shrines	-12.5283
▁Knowledge	-12.5283
▁heighten	-12.5283
▁temporarily	-12.5283
▁begun	-12.5283
▁whatsoever	-12.5283
▁murder	-12.5284
▁demining	-12.5284
▁booby	-12.5284
▁Provide	-12.5284
▁officer	-12.5284
▁contagion	-12.5284
▁intensity	-12.5284
▁copy	-12.5284
▁deforestation	-12.5284
▁satisfactory	-12.5284
▁Arbitration	-12.5284
▁freezing	-12.5285
▁interdiction	-12.5285
▁alteration	-12.5285
▁realistic	-12.5286
uito	-12.5287
▁countermeasures	-12.5287
▁embody	-12.5287
▁renovation	-12.5288
▁permitting	-12.529
une	-12.529
▁polyme	-12.529
▁warheads	-12.529
▁aegis	-12.529
▁Needs	-12.5291
▁sentencing	-12.5292
▁authentic	-12.5292
▁explain	-12.5292
▁affirm	-12.5293
▁introducing	-12.5293
▁militias	-12.5295
▁weaken	-12.5295
▁division	-12.5296
▁remind	-12.5297
elected	-12.5297
▁Astronauts	-12.5298
▁hard	-12.5298
▁preced	-12.5299
ferential	-12.5299
▁inaugura	-12.53
▁worsen	-12.53
▁figures	-12.53
▁eligib	-12.5302
▁Muslim	-12.5305
▁massacres	-12.5305
▁Awards	-12.5306
unhc	-12.5308
▁Ecosystem	-12.5308
▁prejudg	-12.5309
▁artis	-12.5321
▁impediments	-12.5323
▁tariffs	-12.5325
▁offensive	-12.5331
ecutive	-12.5336
▁Kathmandu	-12.5341
trian	-12.5343
mpact	-12.5344
ak	-12.5345
▁employer	-12.5346
▁fellowships	-12.5354
quitable	-12.5356
▁phas	-12.5362
▁observ	-12.5379
▁imply	-12.5392
▁communicated	-12.5394
ication	-12.5397
xternal	-12.5407
▁morals	-12.5412
silience	-12.5422
▁resurgen	-12.5428
awareness	-12.5435
▁sta	-12.5437
▁subparagraphs	-12.5443
▁Seab	-12.5443
mally	-12.5444
▁violated	-12.5445
deline	-12.5458
▁believe	-12.5458
▁suspen	-12.5458
▁updates	-12.546
▁confirm	-12.5467
▁decree	-12.5473
anks	-12.5494
▁mark	-12.5511
▁optimal	-12.552
▁arrests	-12.5533
ulnerability	-12.5539
▁correspond	-12.5557
▁grav	-12.5559
hundred	-12.556
ward	-12.5565
▁tribute	-12.557
▁forge	-12.5571
genuine	-12.5582
▁imp	-12.5585
▁Address	-12.559
▁releases	-12.5591
ix	-12.5593
▁digni	-12.5598
Objective	-12.5614
▁ranges	-12.5615
▁Lake	-12.5628
tal	-12.563
▁cohesi	-12.5656
▁reside	-12.5657
▁stem	-12.566
▁conditional	-12.5685
▁tele	-12.5697
underdevelopment	-12.5698
egislative	-12.5698
fty	-12.5702
idual	-12.571
rich	-12.5715
shipment	-12.5717
▁Continue	-12.572
over	-12.5721
▁reintegrate	-12.5723
▁freed	-12.5726
▁Bas	-12.5733
ethics	-12.5751
▁house	-12.576
ooby	-12.5789
▁addresses	-12.5791
▁sciences	-12.58
▁condone	-12.5804
▁title	-12.5806
▁Assist	-12.5816
▁Leaders	-12.5854
onsolidation	-12.5858
▁differentiat	-12.5886
▁beneficiar	-12.59
that	-12.5903
▁Le	-12.5921
▁duplicat	-12.5925
▁Accept	-12.5945
▁invaluable	-12.5949
flagg	-12.5949
▁stead	-12.5954
eno	-12.5961
letter	-12.5964
▁liquid	-12.5965
staining	-12.5966
▁learn	-12.5973
ments	-12.5989
▁pledge	-12.6006
inal	-12.6006
▁encounter	-12.6008
▁adher	-12.6018
▁feature	-12.6018
▁Disappearance	-12.6018
▁eruption	-12.6018
▁Refugee	-12.6022
▁province	-12.6024
▁version	-12.6033
▁Car	-12.6033
▁Consideration	-12.6038
▁weak	-12.604
▁societ	-12.6043
ford	-12.6047
▁By	-12.6049
ynergies	-12.605
▁Jabal	-12.6053
▁alcohol	-12.6053
▁guilty	-12.6053
▁multiplier	-12.6053
▁propaganda	-12.6053
▁spraying	-12.6053
▁ameliorat	-12.6053
▁explanation	-12.6053
▁Clarification	-12.6053
▁desecrat	-12.6053
▁fruit	-12.6053
▁indivisibility	-12.6053
▁discount	-12.6053
▁Abduction	-12.6053
▁harness	-12.6053
▁identities	-12.6053
▁feminiz	-12.6053
▁coexistence	-12.6053
▁universities	-12.6053
▁Nadi	-12.6053
▁rebel	-12.6053
▁Commerce	-12.6054
▁overcapacity	-12.6054
▁dispose	-12.6055
▁stereotypes	-12.6055
▁attachment	-12.6055
▁renumber	-12.6055
▁Kong	-12.6056
▁competing	-12.6056
▁preamble	-12.6056
▁inhibit	-12.6057
▁oversee	-12.6058
▁prolonged	-12.6058
▁personality	-12.606
▁replacement	-12.6061
▁clauses	-12.6062
▁Workshop	-12.6063
▁airport	-12.6066
▁consequently	-12.6067
▁thoroughly	-12.6068
▁Diamond	-12.6071
▁instance	-12.6072
▁confirmation	-12.6076
▁measurable	-12.6078
▁More	-12.6078
▁traps	-12.6079
▁seam	-12.6081
▁escalation	-12.6082
echnologies	-12.6089
Number	-12.6093
▁exacerbated	-12.6096
surge	-12.6097
▁decreased	-12.6105
public	-12.6109
do	-12.6112
▁impe	-12.6114
lternative	-12.6116
▁instituted	-12.6125
▁altered	-12.613
▁abolished	-12.615
usiness	-12.6152
act	-12.6156
▁models	-12.6159
▁epidemics	-12.616
▁Nazi	-12.6162
▁Minist	-12.6177
providing	-12.6178
▁formats	-12.6179
▁Thank	-12.6185
▁Comp	-12.6185
▁possessor	-12.6188
▁sustainabl	-12.6196
viii	-12.6212
▁reinforced	-12.6213
▁Haitian	-12.6215
parti	-12.6218
▁earmark	-12.622
rops	-12.6222
vii	-12.6231
otal	-12.6237
▁tests	-12.6237
iary	-12.6246
▁vis	-12.6259
▁debts	-12.6271
▁transa	-12.6273
relief	-12.6274
▁Technologi	-12.6274
twithstanding	-12.628
risk	-12.6284
inimum	-12.6294
▁Bal	-12.6303
▁rationalize	-12.6303
lesti	-12.6309
tus	-12.6311
▁Ab	-12.6319
▁compensate	-12.6323
aid	-12.6327
member	-12.6333
tirel	-12.6333
lines	-12.6337
plus	-12.634
▁ceases	-12.6366
▁admit	-12.6369
ro	-12.639
ncy	-12.6393
▁Tri	-12.6396
cale	-12.6397
▁recommending	-12.6407
ville	-12.6421
▁Y	-12.6425
▁breache	-12.6432
Globalization	-12.6438
START	-12.6443
▁Disseminat	-12.6462
restricted	-12.6466
▁respectful	-12.6484
▁Strateg	-12.6494
▁us	-12.6506
debted	-12.6513
▁displacements	-12.6514
▁clos	-12.6533
▁conserv	-12.6534
▁dedicate	-12.6542
▁reopen	-12.6544
ign	-12.6552
hairmanship	-12.6559
▁rais	-12.656
ett	-12.6562
▁establishes	-12.6581
▁derogat	-12.6583
▁Rem	-12.6585
▁flags	-12.6594
▁Prohibit	-12.6612
▁Plenipotentiar	-12.6614
▁concentrat	-12.6621
look	-12.6625
▁returned	-12.6655
▁detentions	-12.6663
ame	-12.6667
dous	-12.6671
q	-12.6673
▁sense	-12.6691
▁irresp	-12.6691
▁demobilize	-12.6692
▁adoptions	-12.6699
▁marketing	-12.6708
▁holdings	-12.6709
▁extends	-12.6718
▁devo	-12.6723
▁refoulement	-12.6731
ective	-12.6739
ons	-12.6757
▁Expressi	-12.6766
Basi	-12.6777
lt	-12.678
thirds	-12.6784
microenterprises	-12.679
per	-12.6795
political	-12.6798
Sahel	-12.6811
▁Can	-12.6813
▁interact	-12.6833
▁applicant	-12.6851
▁exemption	-12.6851
▁household	-12.6852
▁candidate	-12.6852
▁complaint	-12.6853
▁constraint	-12.6855
▁reef	-12.6864
▁assumption	-12.6867
▁aspect	-12.6869
▁flight	-12.6877
▁chain	-12.688
▁me	-12.6886
Semitism	-12.6886
▁Preparedness	-12.6886
▁Puebla	-12.6886
▁Spanish	-12.6886
▁Ulaanbaatar	-12.6886
▁Winnipeg	-12.6886
▁artefacts	-12.6886
▁maturity	-12.6886
▁questionnaire	-12.6886
▁suffrage	-12.6886
▁widows	-12.6886
▁denounce	-12.6886
▁flogging	-12.6886
▁Chinese	-12.6886
▁meanwhile	-12.6886
▁Vessels	-12.6886
▁nevertheless	-12.6886
▁disengagement	-12.6886
▁symposia	-12.6886
▁domination	-12.6886
▁Reconciliation	-12.6886
▁warrant	-12.6887
▁Effectiveness	-12.6887
▁conform	-12.6887
▁foremost	-12.6887
▁Ambassador	-12.6887
▁wrongfulness	-12.6887
▁inadmissib	-12.6887
▁Defence	-12.6888
▁Problems	-12.6888
▁sharpen	-12.6889
▁recreational	-12.6889
▁Adequate	-12.6889
▁notified	-12.689
▁fix	-12.689
▁Balkans	-12.6891
▁interlinkages	-12.6891
▁studie	-12.6891
▁lowest	-12.6891
▁waive	-12.6892
▁graduation	-12.6892
▁periodicity	-12.6894
▁specify	-12.6894
▁restructure	-12.6894
▁upbringing	-12.6894
▁Town	-12.6895
▁seabirds	-12.6895
ffected	-12.6896
▁subcommissions	-12.6897
▁contingent	-12.6899
▁Christians	-12.69
▁constrained	-12.6901
▁bombings	-12.6903
▁Shan	-12.6905
▁desk	-12.6905
▁rental	-12.6908
▁Meso	-12.691
▁influenza	-12.6914
▁tangible	-12.6914
▁seizure	-12.6916
▁avert	-12.6918
▁derogations	-12.6918
▁respects	-12.6918
▁Awareness	-12.6919
▁charters	-12.6925
▁scripts	-12.6926
▁specificity	-12.6926
▁Muslims	-12.6927
▁Recommendations	-12.6927
▁versions	-12.6929
▁count	-12.6934
▁Sector	-12.6935
mpliance	-12.6935
trum	-12.6937
lict	-12.6937
▁investigat	-12.6938
▁streets	-12.694
▁persists	-12.6948
▁reply	-12.6951
▁refuse	-12.6955
▁instructions	-12.6956
▁quotas	-12.6966
▁Being	-12.6975
▁continu	-12.698
dere	-12.6981
trade	-12.6982
▁commerce	-12.6993
avi	-12.7001
States	-12.7013
legal	-12.7014
▁indirect	-12.7014
uds	-12.7025
onfidence	-12.7025
▁directions	-12.7032
An	-12.7037
▁filled	-12.7042
▁inadequac	-12.7042
egie	-12.7044
▁endemic	-12.7059
▁empowered	-12.7063
vents	-12.7079
Programme	-12.7107
▁Appropriation	-12.7115
▁concurren	-12.7132
test	-12.7136
oad	-12.7137
increasing	-12.7138
▁totall	-12.7145
▁Design	-12.7154
istorical	-12.7156
▁peacefully	-12.7158
eans	-12.7173
food	-12.719
▁coll	-12.7192
employment	-12.7197
▁exclud	-12.7202
▁presences	-12.7223
▁abilities	-12.7224
Africa	-12.7225
▁listing	-12.724
▁spec	-12.7244
▁commun	-12.7246
eavi	-12.7247
West	-12.7259
thermal	-12.7266
▁waters	-12.7278
▁settl	-12.7281
nclusive	-12.7281
▁feed	-12.7299
our	-12.7311
limitation	-12.7324
Culture	-12.7325
Chair	-12.7332
Economic	-12.7349
UNI	-12.7355
▁broade	-12.7375
▁contraven	-12.7375
▁prescrib	-12.7381
▁Se	-12.7428
▁Pledg	-12.7449
To	-12.7449
▁opportun	-12.7453
claims	-12.7454
bal	-12.7476
Social	-12.7483
▁Reject	-12.7486
cation	-12.75
▁Condition	-12.7501
▁catalys	-12.7514
▁Conclusion	-12.7531
IS	-12.7546
▁Tr	-12.755
added	-12.756
lder	-12.7561
▁lacking	-12.7582
▁Palestinians	-12.7584
▁Integr	-12.7595
fully	-12.7613
▁Libera	-12.7644
weapons	-12.7665
▁retir	-12.7673
▁extradit	-12.7688
▁cancel	-12.7701
lignment	-12.7705
▁Enabl	-12.7706
les	-12.771
▁react	-12.772
▁Mat	-12.7728
▁infringe	-12.7729
▁mov	-12.7739
Al	-12.7745
▁rating	-12.7746
education	-12.7754
▁Iranian	-12.7757
▁euro	-12.7759
▁Principle	-12.776
▁venue	-12.776
▁brief	-12.776
▁precursor	-12.7761
▁pattern	-12.7761
▁route	-12.7762
▁notice	-12.7769
▁Guarantee	-12.7775
terrelationship	-12.7783
▁buil	-12.7787
lawful	-12.7791
▁attribute	-12.7792
▁adequa	-12.7793
enunciat	-12.7794
▁Cele	-12.7794
▁Euro	-12.7795
▁Capacities	-12.7795
▁Chronicle	-12.7795
▁Damage	-12.7795
▁Islamabad	-12.7795
▁circles	-12.7795
▁congratulat	-12.7795
▁entrepreneurial	-12.7795
▁incumbent	-12.7795
▁licensing	-12.7795
▁livestock	-12.7795
▁understood	-12.7795
▁matrix	-12.7795
▁cargo	-12.7795
▁concise	-12.7795
▁disband	-12.7795
▁likewise	-12.7795
▁peninsula	-12.7795
▁renounce	-12.7795
▁exposure	-12.7795
▁cherish	-12.7795
▁immunization	-12.7795
▁venture	-12.7795
▁unpaid	-12.7795
▁Team	-12.7795
▁seafarers	-12.7795
▁excellence	-12.7795
▁census	-12.7795
▁warfare	-12.7795
▁devolution	-12.7796
▁claimant	-12.7796
▁responsiveness	-12.7796
▁famine	-12.7796
▁stoning	-12.7796
▁derogation	-12.7796
▁mandatory	-12.7796
▁Diseases	-12.7797
▁abandoned	-12.7798
▁digest	-12.7798
▁disbursement	-12.7798
▁personalities	-12.7798
▁selective	-12.7798
▁refine	-12.7798
▁deteriorating	-12.7798
▁swing	-12.7799
▁Plus	-12.78
▁quickly	-12.78
▁inhalants	-12.78
▁exhausted	-12.78
▁factual	-12.7802
▁Parking	-12.7802
▁habitats	-12.7803
▁dependants	-12.7804
▁Statistics	-12.7804
▁waiver	-12.7804
▁affirmati	-12.7804
ER	-12.7805
▁Abolition	-12.7805
▁interconnected	-12.7808
▁Again	-12.7809
▁Observation	-12.781
▁easy	-12.781
▁Multi	-12.7811
▁Judges	-12.7812
▁abroad	-12.7812
▁fleet	-12.7813
▁situated	-12.7813
▁shortfalls	-12.7813
▁Increase	-12.7814
▁overfishing	-12.7817
▁Inform	-12.7819
▁liquidation	-12.782
▁rooms	-12.7821
▁Manufacture	-12.7823
▁video	-12.7824
▁gathered	-12.7824
▁arisen	-12.7825
▁Risk	-12.7825
▁rational	-12.7828
▁victimization	-12.7829
▁consulta	-12.783
▁couple	-12.7833
Chairmen	-12.7837
▁deadlines	-12.784
rowth	-12.7841
▁Assignment	-12.7849
▁Documentation	-12.785
▁accidents	-12.7851
nila	-12.7856
▁principally	-12.7858
▁ra	-12.7858
▁suspended	-12.7858
▁Au	-12.7864
rogate	-12.7866
▁initially	-12.7866
▁entitlement	-12.7875
▁articulate	-12.7875
▁Observ	-12.7876
▁want	-12.7878
tr	-12.7901
▁Goods	-12.7901
▁Fisher	-12.7905
▁courage	-12.7909
▁troops	-12.7919
▁withdrawn	-12.792
stitution	-12.7921
▁recording	-12.7927
▁damag	-12.7936
▁Donors	-12.7937
▁indication	-12.7937
facet	-12.7938
eparable	-12.794
▁completely	-12.7943
▁adapted	-12.7949
appointment	-12.7954
liberation	-12.7955
▁intensif	-12.7961
▁revers	-12.7961
▁Web	-12.7963
▁venues	-12.7965
▁Projects	-12.7966
ho	-12.7966
erial	-12.798
▁Route	-12.7981
rofound	-12.7983
nable	-12.799
▁relieve	-12.8001
Fin	-12.8005
aggregate	-12.8005
technology	-12.8015
nhancement	-12.8018
os	-12.8027
▁killed	-12.8028
ncluding	-12.8037
▁Full	-12.8042
▁Pen	-12.8043
▁deprive	-12.8071
▁intent	-12.8074
Discrimination	-12.808
ns	-12.8088
Further	-12.8091
riendly	-12.8097
interrelatedness	-12.8109
▁Agree	-12.8114
▁presentations	-12.8124
kin	-12.8127
▁controll	-12.814
▁interactions	-12.8144
▁capab	-12.8146
▁sur	-12.8153
dependency	-12.8162
Partnership	-12.8163
ecords	-12.8172
▁deplete	-12.8177
ced	-12.8183
committee	-12.8196
neighbour	-12.8203
stopp	-12.8211
ration	-12.8214
Fourth	-12.8214
cost	-12.8217
▁spr	-12.8219
Fi	-12.8222
▁Lis	-12.8227
remen	-12.8231
sumed	-12.8234
cards	-12.8249
▁educate	-12.8252
reserved	-12.8254
raditional	-12.8269
stimates	-12.8273
Statute	-12.8282
fication	-12.8288
▁ties	-12.8289
traditional	-12.8289
ism	-12.8291
▁bu	-12.8294
ages	-12.8294
mplementarities	-12.8302
balanced	-12.8308
Relationship	-12.8324
▁liberat	-12.8331
cycle	-12.8342
RI	-12.8344
▁measur	-12.835
part	-12.835
forces	-12.8351
Preventing	-12.8352
ected	-12.8354
urvival	-12.8356
▁deterr	-12.8356
▁invitations	-12.8363
▁finances	-12.8363
hazard	-12.8368
▁disclose	-12.8369
▁defe	-12.8375
▁Market	-12.8389
owed	-12.8396
▁Case	-12.8405
▁ge	-12.8421
▁constituen	-12.8422
ddressing	-12.8423
▁Rac	-12.8442
▁constitu	-12.8445
▁stabiliz	-12.8461
▁Abu	-12.8465
ntiret	-12.8466
owned	-12.8477
cious	-12.8482
art	-12.8483
▁recepti	-12.8483
▁perpetrat	-12.8491
olving	-12.8505
▁ages	-12.8512
▁Consult	-12.8545
uba	-12.8551
▁Je	-12.856
brid	-12.8563
▁Ce	-12.8565
▁moderniz	-12.8597
trial	-12.8606
▁votes	-12.8607
tural	-12.8608
system	-12.8625
ilation	-12.866
▁Or	-12.8662
▁tendenc	-12.8665
▁nutritio	-12.8666
▁Recognize	-12.8667
atch	-12.8667
represented	-12.8672
▁Resolv	-12.8673
ya	-12.8694
▁geos	-12.8699
la	-12.8714
co	-12.8722
▁instrumental	-12.8727
na	-12.8728
▁advocate	-12.8757
▁nomination	-12.876
▁setback	-12.876
▁guideline	-12.876
▁benchmark	-12.8761
▁expense	-12.8761
▁student	-12.8761
▁Volunteer	-12.8762
▁medicine	-12.8762
▁manual	-12.8763
▁output	-12.8763
▁Effect	-12.8767
▁loan	-12.877
▁restriction	-12.877
▁adviser	-12.8773
▁practise	-12.8782
▁locate	-12.8784
▁simultaneous	-12.8788
▁unconditional	-12.8789
▁manager	-12.8789
▁archiv	-12.8791
reating	-12.8792
▁appear	-12.8793
▁stigma	-12.8795
Ghneim	-12.8795
▁Beirut	-12.8795
▁Dimension	-12.8795
▁Kampuchea	-12.8795
▁Kanak	-12.8795
▁Kivu	-12.8795
▁Recruitment	-12.8795
▁Registry	-12.8795
▁Sarajevo	-12.8795
▁Shanghai	-12.8795
▁academia	-12.8795
▁elsewhere	-12.8795
▁imprisoned	-12.8795
▁inextricabl	-12.8795
▁slick	-12.8795
▁unpunished	-12.8795
▁behind	-12.8795
▁Luanda	-12.8795
▁ballot	-12.8795
▁defray	-12.8795
▁municipal	-12.8795
▁denied	-12.8795
▁fauna	-12.8795
▁unlikely	-12.8795
▁Islamophobia	-12.8795
▁Accident	-12.8795
▁servitude	-12.8795
▁reveal	-12.8795
▁Evian	-12.8795
▁flora	-12.8796
▁university	-12.8796
▁athletes	-12.8796
▁Rehabilitation	-12.8796
SEA	-12.8796
▁Turkmen	-12.8797
irls	-12.8797
▁compound	-12.8797
▁Ensure	-12.8797
▁scientists	-12.8797
▁securities	-12.8797
▁Restitution	-12.8798
▁reconcil	-12.8798
▁simple	-12.8798
▁variability	-12.8798
▁monuments	-12.8801
▁contractors	-12.8801
▁Audit	-12.8802
▁helpful	-12.8802
▁medication	-12.8803
▁hence	-12.8806
▁Slums	-12.8808
▁hospitals	-12.8812
▁phrase	-12.8816
▁Nat	-12.8817
reclassification	-12.8818
▁match	-12.8819
▁refused	-12.8821
▁Reparation	-12.8824
▁certified	-12.8825
▁omissions	-12.8827
▁seats	-12.8828
▁profiling	-12.8829
▁scarc	-12.8833
urveillance	-12.8833
decentralization	-12.8835
▁block	-12.8835
▁abus	-12.8836
▁concession	-12.884
▁revive	-12.8852
Fragment	-12.8853
▁meant	-12.8858
itt	-12.886
▁Conven	-12.8864
▁hubs	-12.8867
▁navigational	-12.8867
desirable	-12.887
▁virtual	-12.8871
anthrop	-12.8872
▁announcements	-12.8872
▁symposiums	-12.8875
▁freeze	-12.8877
ka	-12.8881
▁Ko	-12.8884
mproving	-12.8885
▁similarly	-12.8886
▁insecticides	-12.8893
▁compiling	-12.8895
▁unfair	-12.8896
▁Pala	-12.89
cep	-12.8901
peal	-12.8901
▁Advanc	-12.8904
▁exit	-12.8905
▁Mitch	-12.8905
ses	-12.8906
▁sensitiv	-12.8913
▁revitalized	-12.8915
▁verbale	-12.8915
▁Revision	-12.8919
▁neutral	-12.8921
▁meaning	-12.8922
nfrastructure	-12.8923
▁Responses	-12.893
▁Areas	-12.8933
▁bul	-12.8934
▁vice	-12.8939
▁slums	-12.8941
pt	-12.8943
▁finalized	-12.895
▁definitions	-12.8951
risis	-12.896
▁tsunamis	-12.8968
▁unacceptabl	-12.897
▁postpone	-12.8972
▁Te	-12.8981
▁Advance	-12.8984
tribution	-12.8987
▁highl	-12.8989
▁discret	-12.9002
▁fla	-12.9011
▁valuation	-12.9027
▁adjudicat	-12.9028
upon	-12.9034
▁stay	-12.9036
▁ActivitiesA	-12.905
ntegration	-12.9053
solution	-12.9059
▁reorganization	-12.9062
odernization	-12.9073
Peace	-12.9088
▁subregions	-12.9124
▁se	-12.9127
▁permits	-12.9129
pecialized	-12.9137
▁tri	-12.9151
▁collected	-12.916
stic	-12.9165
▁Procedure	-12.9176
▁reappoint	-12.9177
alization	-12.9182
ncome	-12.9184
farm	-12.9185
▁easi	-12.9196
▁verifi	-12.9203
▁depend	-12.9214
vil	-12.9215
sponsors	-12.9229
▁Regions	-12.9269
▁Sr	-12.927
▁Caledonian	-12.928
equitable	-12.9281
▁Surviv	-12.929
rican	-12.9301
▁ProtocolI	-12.9307
corruption	-12.9307
omponents	-12.9312
ways	-12.9323
Presidents	-12.9329
▁influenc	-12.9332
▁wid	-12.9348
service	-12.9348
▁versa	-12.936
ception	-12.9362
erated	-12.9382
ents	-12.9387
regula	-12.9392
▁Sustain	-12.9396
establishing	-12.94
▁Age	-12.9403
warning	-12.9405
Hyogo	-12.9409
▁Statutes	-12.9411
▁loo	-12.9429
Bonn	-12.9432
▁necessar	-12.9444
collectively	-12.9448
▁Revise	-12.9448
▁characterize	-12.945
ied	-12.9455
combatants	-12.9456
LEG	-12.9457
▁Consul	-12.9459
detection	-12.9462
Code	-12.9471
▁accrue	-12.9474
▁Mobiliz	-12.9484
owing	-12.9501
▁Restricti	-12.9501
▁formed	-12.9503
od	-12.9505
Nations	-12.9508
work	-12.9517
respect	-12.952
old	-12.9549
bon	-12.955
ue	-12.9552
ated	-12.9556
ones	-12.9558
▁humane	-12.9561
tained	-12.9565
ends	-12.9589
▁predica	-12.9592
trad	-12.9606
itorial	-12.9609
ta	-12.9616
▁Stateless	-12.964
portation	-12.9643
▁wars	-12.9648
oor	-12.9658
▁pos	-12.9683
▁sponsors	-12.969
▁handle	-12.9699
▁Memor	-12.9717
seek	-12.9735
reme	-12.9739
▁fin	-12.974
▁ca	-12.9748
rs	-12.9748
▁st	-12.9749
ps	-12.9755
ys	-12.9767
efore	-12.9782
▁balanc	-12.9805
▁try	-12.9829
▁complexit	-12.9834
▁destabilize	-12.9836
curring	-12.9855
tification	-12.9864
▁Direct	-12.9864
▁idea	-12.9865
▁animal	-12.9867
far	-12.9867
▁trustee	-12.9868
▁roster	-12.987
▁Amendment	-12.9871
▁sanction	-12.9871
▁massacre	-12.9872
▁barrier	-12.9872
▁installation	-12.9872
▁rapporteur	-12.9872
▁Chamber	-12.9872
▁demonstration	-12.9874
▁formula	-12.9883
▁recover	-12.9889
▁apprise	-12.9892
▁stockpile	-12.9893
▁bond	-12.9894
▁commemorati	-12.9897
▁machiner	-12.9897
erformance	-12.9899
▁eleven	-12.99
oping	-12.9901
▁te	-12.9901
▁unjust	-12.9902
▁Slave	-12.9905
▁Biodiversity	-12.9906
▁Solemn	-12.9906
▁intelligence	-12.9906
▁interrogation	-12.9906
▁lifestyles	-12.9906
▁routine	-12.9906
▁sulphide	-12.9906
▁tobacco	-12.9906
▁Compensation	-12.9906
▁chief	-12.9906
▁extremism	-12.9906
Introduction	-12.9906
▁Descent	-12.9906
▁Kamp	-12.9906
▁gift	-12.9906
▁therapy	-12.9906
▁bulletin	-12.9906
▁identifiable	-12.9906
▁contemplated	-12.9906
▁Jews	-12.9906
▁Sanitation	-12.9906
▁deficiencies	-12.9906
▁foreseeable	-12.9906
▁unfold	-12.9906
▁diagnostic	-12.9906
▁distant	-12.9906
▁unmet	-12.9906
▁distress	-12.9906
▁policymakers	-12.9907
Merida	-12.9907
▁converge	-12.9907
▁modify	-12.9907
▁Long	-12.9907
▁Disability	-12.9907
▁Detention	-12.9907
▁room	-12.9907
▁whomever	-12.9907
▁choosing	-12.9907
▁periodicals	-12.9907
▁Mobility	-12.9907
▁concealment	-12.9907
▁obey	-12.9907
▁holiday	-12.9908
▁truce	-12.9908
▁accomplice	-12.9908
▁corners	-12.9909
▁fluctuations	-12.9909
▁infrastructural	-12.9909
▁scheduling	-12.9909
▁gases	-12.991
▁passion	-12.991
▁shores	-12.9911
▁extorti	-12.9912
▁reconfirmed	-12.9912
▁Organize	-12.9912
▁narratives	-12.9913
▁envoys	-12.9913
▁terminated	-12.9914
▁equipped	-12.9915
▁Sixteen	-12.9915
ju	-12.9916
▁perpetrate	-12.9916
▁trees	-12.9916
▁childcare	-12.9917
▁presumed	-12.9918
▁definitive	-12.9918
▁Two	-12.9921
▁Sol	-12.9922
▁facilitator	-12.9922
▁crossings	-12.9922
▁Cooperatives	-12.9925
▁consumers	-12.9925
▁undert	-12.9925
fault	-12.993
MS	-12.9933
summaries	-12.9933
▁Safeguards	-12.9933
▁south	-12.9934
▁compact	-12.9935
▁Agricultur	-12.9939
ories	-12.9943
▁Pattern	-12.9943
▁manuals	-12.9945
▁omission	-12.9951
▁Overall	-12.9951
▁preclud	-12.9952
▁baseline	-12.9953
▁interven	-12.9959
▁preferences	-12.9963
raps	-12.9965
▁preceded	-12.9965
▁catastrophes	-12.9966
Declaration	-12.9966
▁deferred	-12.9969
company	-12.9971
if	-12.9986
alizing	-12.999
hallenges	-13
rgently	-13
CO	-13.0006
omplementarities	-13.0007
▁Identifying	-13.0009
▁Border	-13.0019
▁guard	-13.0022
▁efficienc	-13.0024
▁elder	-13.0033
▁gas	-13.0042
▁safeguarded	-13.0051
controll	-13.0069
▁increment	-13.0071
Information	-13.0072
▁closures	-13.0075
oratorium	-13.0075
▁Terroris	-13.0079
▁prioritiz	-13.0087
▁bal	-13.0089
▁referendums	-13.0093
nvinced	-13.0099
▁incur	-13.0118
aneous	-13.0118
▁parent	-13.013
▁commenced	-13.0135
cessa	-13.0136
▁pa	-13.0137
IN	-13.0137
▁possibl	-13.0143
ollution	-13.015
▁ascertained	-13.0155
▁juveniles	-13.016
▁locations	-13.0181
▁demobiliz	-13.0185
llowing	-13.0206
mete	-13.0225
▁Five	-13.0227
▁narcotics	-13.0229
▁reimburs	-13.0235
▁operates	-13.0241
▁enjoyed	-13.0256
▁lega	-13.0268
▁bru	-13.027
▁Belie	-13.0271
▁path	-13.0275
▁exercises	-13.0299
▁g	-13.0303
sens	-13.0304
▁discharged	-13.0308
stabilize	-13.0319
▁Increasing	-13.033
ticipated	-13.0332
arms	-13.0338
▁contexts	-13.0344
herein	-13.0368
licit	-13.0372
▁pur	-13.0388
▁Consulta	-13.0399
▁disclos	-13.0404
▁reproducti	-13.0407
▁aids	-13.0415
Protection	-13.0417
larmed	-13.0422
▁n	-13.0439
ol	-13.044
revision	-13.0446
▁guides	-13.045
shed	-13.0458
sure	-13.0468
ttle	-13.0469
military	-13.0481
monitoring	-13.0483
▁originat	-13.049
▁Pan	-13.049
ake	-13.0491
wards	-13.0498
Conclusion	-13.0505
▁Min	-13.0506
▁hu	-13.0508
unam	-13.052
▁appraise	-13.0535
▁Hy	-13.0536
▁START	-13.0538
coordinated	-13.0538
Enhanc	-13.0566
▁pave	-13.0594
▁error	-13.0596
▁bienniums	-13.0597
Doha	-13.0625
▁cau	-13.0628
party	-13.0632
▁cru	-13.0652
Specific	-13.0655
Guidelines	-13.0657
▁assisted	-13.0657
industry	-13.0659
election	-13.0665
Mediterranean	-13.067
ating	-13.0683
Role	-13.0683
HIPC	-13.0685
▁depriv	-13.0696
Water	-13.0697
▁Will	-13.0699
producing	-13.0699
Increased	-13.0701
generated	-13.0707
owners	-13.0709
▁Propose	-13.071
dumping	-13.0711
urchase	-13.0738
▁po	-13.0746
▁wor	-13.075
standard	-13.0757
mail	-13.0764
month	-13.0766
targeted	-13.0768
▁cur	-13.0771
▁Constituti	-13.0785
▁des	-13.0785
Reduc	-13.0815
orm	-13.0821
▁rat	-13.0827
▁geo	-13.0835
▁Easter	-13.0836
▁rename	-13.0839
end	-13.0867
jure	-13.0873
worth	-13.0878
▁demonstra	-13.0884
genous	-13.0886
▁Indicators	-13.0888
pon	-13.0889
implementation	-13.0896
▁pollut	-13.0898
▁assemble	-13.091
Way	-13.0931
▁director	-13.0933
urable	-13.0946
favourabl	-13.0959
▁bio	-13.097
▁ke	-13.0972
▁Specific	-13.0973
▁jeopardiz	-13.0974
cords	-13.098
▁sit	-13.0985
ha	-13.0987
regulate	-13.0988
oug	-13.1
alienable	-13.1004
▁alarm	-13.1015
tter	-13.1021
Eliminati	-13.1034
▁operat	-13.1042
onvinced	-13.1042
▁provinc	-13.1067
▁automat	-13.1072
▁tradition	-13.1084
▁mode	-13.109
chieving	-13.1104
▁bombardment	-13.1112
▁Object	-13.1113
▁prominen	-13.112
▁expectation	-13.112
▁arrive	-13.1122
▁citizen	-13.1122
▁detainee	-13.1123
ntigu	-13.1123
pplicability	-13.1124
▁restraint	-13.1124
▁Symposi	-13.1127
▁repair	-13.1128
▁council	-13.1131
hat	-13.1132
▁expect	-13.1133
flo	-13.1134
cast	-13.114
▁discipline	-13.114
▁premise	-13.1143
GE	-13.1147
▁surviv	-13.1148
▁quick	-13.1149
▁uncertaint	-13.115
▁inquir	-13.115
▁redeploy	-13.1152
▁reiterate	-13.1152
vasive	-13.1155
▁Bombings	-13.1156
▁Malnutrition	-13.1156
▁Mercenaries	-13.1156
▁Congratulat	-13.1156
▁Dushanbe	-13.1156
▁Friday	-13.1156
▁Hiroshima	-13.1156
▁Jewish	-13.1156
▁Majuro	-13.1156
▁Olympiad	-13.1156
▁apparent	-13.1156
▁archaeological	-13.1156
▁curfews	-13.1156
▁descendants	-13.1156
▁gateway	-13.1156
▁journals	-13.1156
▁mortgage	-13.1156
▁practitioners	-13.1156
▁scrutiny	-13.1156
▁sewage	-13.1156
▁therapies	-13.1156
▁Malabo	-13.1156
▁blood	-13.1156
▁outsourced	-13.1156
▁retriev	-13.1156
reliant	-13.1156
▁Baghdad	-13.1156
▁misconduct	-13.1156
▁Valley	-13.1156
▁afflict	-13.1156
Christianophobia	-13.1156
▁Braz	-13.1156
▁memorial	-13.1157
▁Kurds	-13.1157
▁Prism	-13.1157
▁constant	-13.1157
▁professionalism	-13.1157
▁belts	-13.1157
▁Analysis	-13.1157
▁suspicio	-13.1157
▁Demining	-13.1157
▁Rector	-13.1157
Target	-13.1157
▁Turin	-13.1157
▁deliberative	-13.1157
▁ceremonies	-13.1157
▁Countermeasures	-13.1158
▁remembrance	-13.1158
▁speech	-13.1158
▁Tolerance	-13.1158
▁originator	-13.1158
▁investors	-13.1159
▁undocumented	-13.1159
▁evictions	-13.1159
▁destiny	-13.1159
quil	-13.116
▁assuring	-13.116
▁leaving	-13.116
▁hiring	-13.116
▁endowment	-13.1161
▁implicat	-13.1161
proxim	-13.1162
▁Counsel	-13.1162
Vol	-13.1162
▁slower	-13.1163
▁undersigned	-13.1163
▁symbols	-13.1163
▁rationalizing	-13.1163
▁Proliferation	-13.1163
▁Condemning	-13.1164
▁professions	-13.1164
▁convey	-13.1166
▁exclusively	-13.1167
▁Signatures	-13.1168
▁solar	-13.1168
▁inaccurate	-13.1169
▁Representation	-13.117
▁mono	-13.1171
▁intangible	-13.1173
▁teachers	-13.1173
▁swaps	-13.1173
▁practised	-13.1175
▁customers	-13.1175
▁injustices	-13.1177
▁directives	-13.1178
▁addressee	-13.1182
▁shortages	-13.1183
arsh	-13.1184
▁homeland	-13.1184
▁strategically	-13.1185
▁computation	-13.1186
▁Designate	-13.1187
inki	-13.1188
▁Tribunals	-13.1188
isions	-13.1189
▁fishers	-13.1192
▁restraints	-13.1192
▁alarming	-13.1192
▁Benefit	-13.1193
▁Origin	-13.1195
▁unjustifi	-13.1195
▁Equally	-13.1196
▁Amendments	-13.1197
▁Tashkent	-13.1197
▁Holocaust	-13.1197
▁tolerated	-13.1199
▁Guaranteeing	-13.1201
▁sexuality	-13.1204
▁penalized	-13.1204
▁planet	-13.1206
Art	-13.1207
▁Commemoration	-13.1208
▁provinces	-13.1211
▁advocat	-13.1212
▁prob	-13.1212
▁complainant	-13.1217
▁speak	-13.1218
▁Du	-13.1218
▁reputation	-13.1219
▁resorting	-13.122
▁Reconfirm	-13.1228
▁prove	-13.1234
▁classification	-13.1242
▁revok	-13.1246
▁Missi	-13.1257
▁aqua	-13.1259
▁actor	-13.1259
▁inject	-13.126
uent	-13.1261
▁certificates	-13.1279
forestation	-13.128
▁marking	-13.1285
▁ahead	-13.1288
▁participates	-13.1288
▁discontinue	-13.1291
▁permanently	-13.1297
▁ensured	-13.1302
sts	-13.1302
▁Command	-13.1312
▁Spe	-13.1317
ranch	-13.1321
▁town	-13.1322
TRA	-13.1327
▁manag	-13.1329
IT	-13.1333
▁contravene	-13.1335
religious	-13.1336
▁pronounce	-13.1349
▁lev	-13.1364
za	-13.1378
nsolvency	-13.1385
▁Ge	-13.1389
uv	-13.1409
▁quarters	-13.1409
▁panels	-13.1412
technical	-13.1416
doping	-13.1419
ested	-13.142
west	-13.1423
▁fairly	-13.143
imf	-13.1439
▁interrupt	-13.1441
other	-13.1445
▁Officials	-13.1446
▁Har	-13.1447
Observ	-13.1448
▁alternat	-13.1462
equality	-13.1468
▁Concern	-13.147
break	-13.1471
▁notifications	-13.1471
inquenni	-13.149
Fas	-13.1496
▁underrepresent	-13.1506
▁audits	-13.1512
▁nex	-13.154
▁chart	-13.1543
▁Bo	-13.1549
tation	-13.156
▁admitt	-13.1569
stories	-13.1571
▁Bre	-13.1573
▁arra	-13.1579
ants	-13.1587
xi	-13.1594
distort	-13.1606
child	-13.1617
priority	-13.1624
govern	-13.1627
▁recurr	-13.1632
proved	-13.1635
OC	-13.1653
▁Not	-13.1656
cul	-13.1664
▁Examin	-13.1665
▁Bli	-13.1714
lly	-13.1722
▁tens	-13.1732
para	-13.1736
NES	-13.1759
Suggest	-13.176
▁authoriz	-13.1768
▁Preparation	-13.1768
session	-13.1779
ontracting	-13.1786
▁Sup	-13.1787
▁illustrate	-13.179
▁Da	-13.1794
▁Informa	-13.1817
Ad	-13.1822
institutionalize	-13.1829
direction	-13.1837
▁Swi	-13.1839
▁minim	-13.1846
▁repress	-13.1856
ela	-13.1857
lo	-13.1858
▁arbitra	-13.1862
▁communicat	-13.1863
performance	-13.1865
▁secured	-13.1872
icide	-13.1872
▁Participat	-13.188
▁Objective	-13.1891
riendship	-13.1897
living	-13.1897
▁bill	-13.191
tude	-13.1915
▁resistan	-13.1928
Region	-13.1937
formation	-13.1947
lanes	-13.1966
pie	-13.1976
▁Ha	-13.1984
▁Form	-13.1995
▁treatments	-13.1995
▁ST	-13.1995
▁expend	-13.2017
)";	-13.203
▁wind	-13.2042
repatriation	-13.2055
fg	-13.2062
Support	-13.2065
informed	-13.2068
▁sha	-13.2072
▁ones	-13.209
renew	-13.2097
Responsibility	-13.2119
▁dwellers	-13.212
launching	-13.2122
directed	-13.2123
harvest	-13.2124
▁aff	-13.2126
▁deplet	-13.2127
Special	-13.2143
▁urbaniz	-13.2151
tends	-13.2163
uardian	-13.2167
gen	-13.2174
tial	-13.2178
location	-13.218
pts	-13.2184
impede	-13.219
▁enlarg	-13.2211
▁imposi	-13.2221
processing	-13.2239
▁chapters	-13.2242
▁promulgate	-13.2255
▁Jos	-13.2265
▁avoided	-13.2267
▁positioning	-13.227
▁expel	-13.2282
▁seem	-13.2288
▁intrare	-13.2305
came	-13.2313
▁illustrat	-13.2314
Approach	-13.2327
▁lie	-13.2329
▁divert	-13.2361
▁decreas	-13.2374
▁sens	-13.2396
eacekeeping	-13.2405
▁governs	-13.2407
▁Summ	-13.2421
▁Arme	-13.2431
ID	-13.2437
text	-13.2438
▁Signator	-13.2457
▁beca	-13.2465
▁coordinates	-13.2477
ell	-13.248
settled	-13.2484
▁Request	-13.2495
▁gather	-13.2501
▁die	-13.2506
▁compromis	-13.2517
▁describ	-13.2522
training	-13.2526
rends	-13.253
▁perception	-13.2543
▁amputation	-13.2548
▁eva	-13.2549
▁Safeguard	-13.2549
▁figure	-13.255
▁vaccine	-13.2551
▁overfish	-13.2552
▁Goal	-13.2552
▁incentive	-13.2552
▁deliberation	-13.2554
▁Matter	-13.2555
annex	-13.2556
hr	-13.2561
▁Agr	-13.2563
▁equitabl	-13.2564
▁mother	-13.2568
▁disadvantage	-13.2571
umping	-13.2573
hereby	-13.2574
▁politic	-13.2574
▁legislat	-13.258
raft	-13.2581
▁Negotiat	-13.2582
▁exempt	-13.2583
▁constru	-13.2583
DP	-13.2583
▁operator	-13.2584
▁entrepreneurs	-13.2584
Circ	-13.2585
robust	-13.2585
▁Actuary	-13.2585
▁Andijan	-13.2585
▁Debris	-13.2585
▁Industry	-13.2585
▁Interpretation	-13.2585
▁Kanazawa	-13.2585
▁Kinshasa	-13.2585
▁amnest	-13.2585
▁clarity	-13.2585
▁collapse	-13.2585
▁currencies	-13.2585
▁garage	-13.2585
▁hindrance	-13.2585
▁mosquito	-13.2585
▁reassurance	-13.2585
▁sympath	-13.2585
▁telemedicine	-13.2585
▁uranium	-13.2585
▁henceforth	-13.2585
▁enclosure	-13.2585
▁sentiment	-13.2585
▁ceiling	-13.2585
▁geothermal	-13.2585
▁nurtur	-13.2585
▁laboratories	-13.2585
▁strife	-13.2585
thodo	-13.2585
▁Reservations	-13.2585
▁maltreatment	-13.2585
▁electric	-13.2585
▁ideological	-13.2585
▁unreasonabl	-13.2585
▁comparison	-13.2585
▁midpoint	-13.2585
▁mistreatment	-13.2585
▁privatization	-13.2585
unod	-13.2585
▁infant	-13.2585
▁boundaries	-13.2585
▁boost	-13.2585
▁profitability	-13.2585
▁summer	-13.2586
▁classifi	-13.2586
▁satisfied	-13.2586
▁Denunciation	-13.2586
▁remoteness	-13.2586
▁concurrently	-13.2586
▁nationwide	-13.2587
phy	-13.2587
▁administrator	-13.2587
▁unwa	-13.2587
▁usher	-13.2587
▁shelling	-13.2588
▁readers	-13.2588
▁exemplifie	-13.2589
▁concur	-13.259
▁Contributing	-13.259
▁Accountability	-13.259
▁indices	-13.2591
▁exporters	-13.2591
▁peaks	-13.2591
▁Ball	-13.2592
reciprocity	-13.2592
▁urbanization	-13.2592
▁pests	-13.2592
▁courageous	-13.2593
▁Alps	-13.2593
riteria	-13.2593
▁abductee	-13.2594
▁standardization	-13.2597
thnic	-13.2598
▁Money	-13.2599
▁retirees	-13.2599
▁indicted	-13.26
▁chamber	-13.26
awa	-13.2601
▁scholars	-13.2601
▁immigrant	-13.2601
▁display	-13.2602
▁condemnable	-13.2603
▁Institution	-13.2603
▁command	-13.2603
▁diversifi	-13.2606
▁disturbance	-13.2606
▁editions	-13.261
▁turtles	-13.261
dden	-13.261
▁specialists	-13.2611
▁redesignate	-13.2611
▁albatrosses	-13.2613
▁councils	-13.2615
▁abducted	-13.2615
▁certainty	-13.2616
▁repositor	-13.2617
▁poll	-13.2622
▁therefor	-13.2622
Proceeds	-13.2623
▁constructed	-13.2627
▁spar	-13.263
▁spending	-13.2631
▁Abkhazia	-13.2632
▁Three	-13.2632
▁qu	-13.2634
▁handling	-13.2636
▁setbacks	-13.2637
osition	-13.2638
▁executed	-13.2639
gro	-13.2641
▁volcano	-13.2647
▁assumptions	-13.2648
▁exemptions	-13.2649
▁seizures	-13.2649
mous	-13.265
▁assert	-13.265
▁induce	-13.2652
tions	-13.2653
ium	-13.2654
▁soil	-13.2654
▁correspondent	-13.2658
▁village	-13.2665
Rol	-13.2667
▁optimizing	-13.2668
segregat	-13.267
▁isolat	-13.2678
▁obstruction	-13.2681
▁Bak	-13.2683
▁Judge	-13.2686
▁Sale	-13.269
ud	-13.2692
igning	-13.2697
▁ha	-13.2698
Rs	-13.2699
aya	-13.27
High	-13.27
▁though	-13.2706
▁exceptions	-13.2711
eabirds	-13.2712
upul	-13.2713
ega	-13.2718
O	-13.2719
poverty	-13.2722
▁Pr	-13.2736
elevision	-13.2737
▁River	-13.2737
etrels	-13.2743
▁studying	-13.2747
▁tours	-13.275
▁sum	-13.2751
▁manifested	-13.2751
▁furnished	-13.2752
▁influenced	-13.2757
verifi	-13.2759
▁stereotyp	-13.2781
ac	-13.2782
opted	-13.2783
▁computeriz	-13.2788
▁normaliz	-13.2792
▁gathering	-13.2812
GO	-13.2813
▁Fo	-13.2814
▁lea	-13.2814
TB	-13.282
mbur	-13.2823
▁cycl	-13.2827
ians	-13.283
▁Interi	-13.2841
▁Pu	-13.2849
▁pervasive	-13.2849
▁profess	-13.285
▁mount	-13.287
igorous	-13.2875
▁Sp	-13.2884
▁knowing	-13.2888
▁Reinv	-13.29
tending	-13.2911
▁hy	-13.2917
vian	-13.2939
▁toleran	-13.2946
▁exhibition	-13.295
▁accepts	-13.2955
▁Seven	-13.2992
objection	-13.2997
▁Maj	-13.3001
▁li	-13.3004
▁partial	-13.3004
▁explored	-13.3006
▁Consula	-13.3017
▁differentia	-13.3021
established	-13.3032
▁failures	-13.3032
▁appendi	-13.3041
va	-13.3058
▁mal	-13.3061
▁IN	-13.3065
aching	-13.3069
▁exacerbat	-13.3074
▁await	-13.3086
AI	-13.3096
nlarge	-13.3104
iennial	-13.3104
Austria	-13.3132
sect	-13.3133
onal	-13.3139
scription	-13.3171
impact	-13.3172
▁lease	-13.3177
▁codifi	-13.3177
▁diplomats	-13.3179
▁Less	-13.3184
ovis	-13.3192
August	-13.3196
▁LEG	-13.3204
construction	-13.3213
):	-13.3217
road	-13.3242
▁strain	-13.3281
▁dismantl	-13.3299
tically	-13.33
Ka	-13.3325
items	-13.3338
inguistic	-13.3347
▁Way	-13.3364
MO	-13.3365
nous	-13.3369
Protecting	-13.3395
▁sponsoring	-13.3402
▁saving	-13.3404
eadership	-13.3425
nlawful	-13.3436
▁Ar	-13.3438
▁King	-13.3446
Sp	-13.3449
▁certifie	-13.345
sist	-13.3479
Prohibition	-13.3491
▁coerce	-13.3496
JA	-13.3515
▁faces	-13.3548
ware	-13.3555
▁ba	-13.3556
mental	-13.3562
MD	-13.3584
aire	-13.3586
rust	-13.3587
tories	-13.3588
family	-13.3594
fish	-13.3594
▁rel	-13.3595
nhuman	-13.3596
▁monitors	-13.3604
functioning	-13.3606
tting	-13.3614
tical	-13.3625
rural	-13.3627
▁intoler	-13.3633
nil	-13.364
▁expedit	-13.3647
▁department	-13.3652
ompulsor	-13.3655
Consideration	-13.3656
usa	-13.366
▁restricted	-13.3663
▁compensat	-13.367
▁visibl	-13.3673
enting	-13.3678
League	-13.3689
▁prov	-13.3693
utreach	-13.3697
▁Incident	-13.3707
money	-13.371
emphasizing	-13.3711
accessible	-13.3725
▁recommit	-13.3726
kop	-13.3735
Personnel	-13.3738
First	-13.3743
defence	-13.375
La	-13.3754
functional	-13.376
ves	-13.3762
fore	-13.3763
▁promis	-13.3773
regulation	-13.3775
uring	-13.3779
▁dia	-13.3779
rification	-13.3781
profile	-13.3782
borne	-13.3784
Debt	-13.3788
repetition	-13.3788
Palermo	-13.3788
intensive	-13.3793
infected	-13.3794
funded	-13.3808
bank	-13.3813
▁punishments	-13.3816
Sport	-13.3838
▁arti	-13.3855
▁quantifi	-13.3858
oison	-13.3859
▁compara	-13.3864
tracking	-13.3883
earmark	-13.3885
go	-13.3888
▁Actions	-13.3888
tellectual	-13.3905
▁Real	-13.3906
utilization	-13.3912
Ball	-13.3927
support	-13.3929
Prog	-13.3932
▁Top	-13.3939
protection	-13.3942
▁litera	-13.3958
On	-13.3962
▁lat	-13.3975
▁unacceptab	-13.398
ine	-13.3983
▁reunit	-13.3991
tim	-13.4002
▁strength	-13.4009
▁intern	-13.401
em	-13.4016
▁Elaborati	-13.4021
res	-13.4022
▁Cre	-13.4023
Y	-13.4025
▁unab	-13.4028
▁lot	-13.4034
signing	-13.4039
▁Nationals	-13.4044
mmercial	-13.4057
▁plur	-13.4073
ledging	-13.4077
▁gu	-13.4077
▁suit	-13.409
ola	-13.4097
▁committ	-13.4098
▁verbal	-13.4104
▁Dec	-13.4115
children	-13.4116
▁interview	-13.4116
Conven	-13.4117
▁carrie	-13.4121
▁philosophi	-13.4133
eturnees	-13.4165
▁perpetuati	-13.4167
ards	-13.4171
▁oblig	-13.4176
vering	-13.4191
▁Ven	-13.4199
▁go	-13.4201
nniversary	-13.4203
sembl	-13.4207
▁Definition	-13.4212
▁circumstance	-13.4213
▁donation	-13.4216
▁shortfall	-13.4216
▁shortage	-13.4216
▁Astronaut	-13.4217
▁Rule	-13.4217
▁doctrine	-13.4217
▁thousand	-13.4217
▁remittance	-13.4217
▁consensu	-13.4218
▁employee	-13.4219
▁scholarship	-13.422
▁Indicator	-13.4221
▁repe	-13.4224
▁catastroph	-13.4225
▁ment	-13.423
▁bombing	-13.4231
▁judic	-13.4234
▁wage	-13.4235
▁adolescen	-13.4239
▁reconven	-13.424
vol	-13.424
▁astronom	-13.4241
▁seize	-13.4242
hood	-13.4242
colonization	-13.4247
Vi	-13.4248
▁verba	-13.4248
▁geograph	-13.4248
fforts	-13.4249
▁intimidat	-13.4249
▁Collection	-13.4251
▁Danube	-13.4251
▁Kananaskis	-13.4251
▁Kyrgyz	-13.4251
▁Medellin	-13.4251
▁Phenomenon	-13.4251
▁Tajik	-13.4251
▁UNCITRAL	-13.4251
▁Vancouver	-13.4251
▁Vehicles	-13.4251
▁acquiesce	-13.4251
▁advertis	-13.4251
▁aircraft	-13.4251
▁empha	-13.4251
▁energies	-13.4251
▁football	-13.4251
▁inspectors	-13.4251
▁intervals	-13.4251
▁monotherapies	-13.4251
▁vigour	-13.4251
▁Applaud	-13.4251
▁DDT	-13.4251
▁newspapers	-13.4251
▁random	-13.4251
▁biosafety	-13.4251
▁peacekeepers	-13.4251
▁politicians	-13.4251
▁quorum	-13.4251
▁influx	-13.4251
modal	-13.4251
▁Karen	-13.4251
▁answer	-13.4251
▁applaud	-13.4251
▁irreparable	-13.4251
HCR	-13.4251
▁drawdown	-13.4251
▁bondage	-13.4251
▁modality	-13.4251
▁licence	-13.4251
▁registries	-13.4251
▁Extrajudicial	-13.4252
▁passenger	-13.4252
▁antimalarial	-13.4252
▁competencies	-13.4252
▁Landmines	-13.4252
▁purview	-13.4252
▁Athens	-13.4252
▁vector	-13.4252
▁disintegration	-13.4252
▁impossible	-13.4252
ineteen	-13.4252
▁fragment	-13.4252
▁Manual	-13.4252
▁congr	-13.4252
▁Consortium	-13.4252
▁Symposium	-13.4252
▁enrol	-13.4252
▁Crises	-13.4252
▁earth	-13.4252
▁Utilization	-13.4252
▁anchor	-13.4253
▁Lima	-13.4253
▁Harmonization	-13.4253
▁pregnancy	-13.4253
▁glo	-13.4253
▁Resettlement	-13.4253
▁capture	-13.4253
▁substantiated	-13.4253
▁conciliate	-13.4254
▁dollarization	-13.4254
▁shareholders	-13.4254
▁provoke	-13.4254
▁fellows	-13.4255
▁Authorities	-13.4255
estine	-13.4255
FIRM	-13.4256
▁Reception	-13.4256
mangan	-13.4256
▁identifies	-13.4256
▁oppression	-13.4256
▁biennialization	-13.4257
▁abusers	-13.4258
akh	-13.4258
▁Georg	-13.4259
▁irr	-13.4259
▁conscription	-13.426
▁compromise	-13.4262
▁Arta	-13.4262
▁mob	-13.4262
▁puni	-13.4262
▁histories	-13.4263
▁outward	-13.4264
management	-13.4265
▁realm	-13.4267
▁construct	-13.4268
▁prioritization	-13.427
▁Basin	-13.4273
▁releas	-13.4274
olen	-13.4274
▁Mada	-13.4275
▁harvesting	-13.4276
▁dow	-13.4278
▁converted	-13.4279
Subsequently	-13.4281
▁milestones	-13.4281
▁organizers	-13.4284
biotic	-13.4285
▁refus	-13.4287
▁bonds	-13.4293
▁appears	-13.4295
▁photograph	-13.4295
▁Criminalization	-13.4296
▁Gulf	-13.4298
▁portal	-13.4299
olence	-13.43
▁streamlined	-13.4301
▁steril	-13.4302
▁devastation	-13.4303
▁underscoring	-13.4304
▁Intranet	-13.4306
▁Learning	-13.4307
▁rosters	-13.4307
▁recovering	-13.431
▁owner	-13.4312
▁Rol	-13.4315
▁Gala	-13.4315
▁characteriz	-13.4323
▁Except	-13.4325
ront	-13.4327
▁advocated	-13.4332
▁separat	-13.4333
▁innocen	-13.4333
umb	-13.4336
▁Integrate	-13.4338
Priority	-13.4339
tering	-13.4344
ppa	-13.4344
▁inadmissible	-13.4346
▁acid	-13.4348
Organization	-13.4357
ss	-13.4358
▁rejected	-13.4359
▁impairment	-13.4365
School	-13.4366
right	-13.4373
▁constrain	-13.4374
▁UNITAID	-13.4391
▁listen	-13.4394
▁equivalenc	-13.44
nline	-13.4407
▁Trac	-13.4408
▁childbearing	-13.4411
edicines	-13.4414
undering	-13.4418
ortality	-13.442
▁hands	-13.4423
appro	-13.4423
▁Assistants	-13.4428
▁Dis	-13.4433
▁memorandums	-13.4441
▁havens	-13.4444
▁dissua	-13.4448
▁reallocate	-13.4451
▁microenterprise	-13.4455
anding	-13.4456
through	-13.4457
fer	-13.4458
ecolonization	-13.4459
▁destroying	-13.446
▁Canc	-13.447
▁perm	-13.4485
ubparagraph	-13.4488
▁toxin	-13.4491
nse	-13.4496
▁strengths	-13.4498
▁Statistic	-13.4501
xin	-13.4505
▁preserved	-13.4505
▁fide	-13.4509
▁workloads	-13.4515
▁Sov	-13.4526
nfectious	-13.4532
security	-13.4532
▁commercializ	-13.4534
cu	-13.4536
▁Resolved	-13.4539
▁famili	-13.455
▁jurisdictions	-13.4551
▁coerced	-13.4552
got	-13.4567
where	-13.4567
▁Po	-13.4581
▁wilful	-13.4583
▁complementarit	-13.4586
▁holi	-13.4591
▁sus	-13.4596
Council	-13.4599
▁Territori	-13.4601
▁trib	-13.4603
▁bureaucra	-13.4604
ribery	-13.4611
▁heal	-13.4613
Afghanistan	-13.4614
▁Pursu	-13.4618
▁encompasse	-13.4619
nforced	-13.4624
je	-13.4634
▁Asset	-13.4634
▁...	-13.464
load	-13.4646
▁assembl	-13.4647
▁credi	-13.4655
▁union	-13.4657
▁Sta	-13.4665
▁indivisibl	-13.4668
laboration	-13.4674
uridical	-13.4675
udicial	-13.4681
cca	-13.4681
rating	-13.469
appearance	-13.4692
ross	-13.4707
▁awards	-13.4734
▁Exchang	-13.4735
▁Palermo	-13.4737
▁repetition	-13.4737
▁escalat	-13.4739
erro	-13.474
field	-13.4741
▁On	-13.4747
▁Indias	-13.4748
fle	-13.4749
rongly	-13.4751
iet	-13.4756
undred	-13.4757
▁Mobil	-13.4757
▁works	-13.478
▁imme	-13.4784
▁loya	-13.4785
using	-13.4787
▁recipients	-13.4789
▁outflow	-13.4802
▁haven	-13.4802
▁hop	-13.4806
▁pric	-13.4809
▁notions	-13.481
Whi	-13.4811
▁abduct	-13.4812
inancial	-13.4827
▁resolut	-13.4828
▁valued	-13.4836
nsequences	-13.4836
Ma	-13.4848
▁stereotypic	-13.4852
vicin	-13.4852
▁Indicat	-13.4859
▁breached	-13.4867
▁publishing	-13.4868
ser	-13.4901
xpressing	-13.4902
elevant	-13.4904
ically	-13.4909
▁ir	-13.4929
▁grati	-13.4931
▁Reporting	-13.4937
uate	-13.4938
oalition	-13.4938
▁Tempor	-13.494
▁ple	-13.4944
▁accru	-13.4957
wal	-13.4962
▁quanti	-13.4966
kind	-13.4969
rang	-13.4985
ur	-13.4986
aster	-13.4996
eate	-13.5001
hand	-13.5003
▁Acc	-13.5005
▁app	-13.5006
▁emancipat	-13.5016
Rapporteur	-13.5018
cell	-13.5029
tern	-13.5052
bet	-13.5056
▁uninten	-13.506
widen	-13.506
Russian	-13.506
▁bo	-13.5063
▁erect	-13.5077
▁cond	-13.5082
▁opera	-13.51
hing	-13.5101
▁hydr	-13.5106
▁specialization	-13.5106
▁Hous	-13.5108
▁subscribe	-13.5119
isi	-13.5125
ise	-13.5126
▁br	-13.5127
ality	-13.5148
▁Hu	-13.5162
▁pledg	-13.5164
▁repatriat	-13.5167
rely	-13.5172
ordination	-13.5172
Colombia	-13.5183
ctivity	-13.5186
ug	-13.5194
Affect	-13.5195
rrent	-13.5201
▁reproduc	-13.5208
▁prem	-13.522
▁double	-13.5228
Panama	-13.5239
ors	-13.5253
Mongolia	-13.5254
pical	-13.5271
▁mut	-13.5275
Chairpersons	-13.5282
▁heat	-13.5294
▁twi	-13.5294
cha	-13.5303
itiate	-13.5306
▁Audi	-13.5313
ature	-13.5317
drug	-13.5329
▁Gree	-13.5333
▁Crossing	-13.5335
etting	-13.5373
▁Utiliz	-13.5375
reb	-13.5375
thirdResolution	-13.5385
▁directing	-13.5392
programme	-13.5397
wt	-13.54
nidroit	-13.5403
apture	-13.5406
▁WHA	-13.5409
blem	-13.5433
eligious	-13.5448
ah	-13.5449
Consolidat	-13.5456
Improv	-13.5461
▁Secur	-13.5468
women	-13.5471
cendi	-13.5476
no	-13.548
Gu	-13.548
illegal	-13.5481
eign	-13.5499
local	-13.5512
threat	-13.5514
nize	-13.553
Ro	-13.5536
emergency	-13.5551
amental	-13.556
rab	-13.5572
▁Ka	-13.5576
▁hall	-13.5576
UA	-13.5582
▁accelerati	-13.5593
▁voter	-13.5596
sions	-13.5609
▁Occup	-13.561
▁Organ	-13.5611
▁intra	-13.5611
arfare	-13.5623
did	-13.5636
▁ball	-13.564
rectional	-13.5653
emerg	-13.5653
narcotic	-13.5659
▁flo	-13.5659
▁undergo	-13.5661
▁Wh	-13.5664
▁wa	-13.5671
▁Make	-13.5679
gh	-13.57
ctors	-13.5701
Asian	-13.5707
▁weapon	-13.5708
▁repressi	-13.5709
▁Amend	-13.5709
assess	-13.571
▁Apprais	-13.5731
▁Sub	-13.5738
Diploma	-13.5742
points	-13.5744
Resources	-13.5744
Renew	-13.5748
remunerat	-13.5749
militar	-13.5749
nts	-13.575
ligious	-13.5759
harmony	-13.576
responsive	-13.5763
▁operative	-13.5768
parties	-13.5769
judgment	-13.5775
elect	-13.5789
Scope	-13.579
assigned	-13.5796
wa	-13.5801
▁oppos	-13.581
▁rela	-13.5811
we	-13.5812
▁write	-13.5816
▁Is	-13.5826
▁relocat	-13.5827
▁disrupt	-13.5838
gui	-13.5845
tracting	-13.5849
savings	-13.5855
hirty	-13.5864
▁Exten	-13.5881
qualifi	-13.5883
▁synthesi	-13.5886
▁disguise	-13.5889
▁connections	-13.5891
▁responsibl	-13.5891
▁postpon	-13.5892
erous	-13.5896
▁bis	-13.5912
mark	-13.5922
▁Oo	-13.5922
▁Pa	-13.5924
▁dead	-13.5932
▁fir	-13.5973
sResolution	-13.5974
▁super	-13.5978
inancing	-13.598
ey	-13.5988
▁scales	-13.5991
ave	-13.5993
alert	-13.5997
matic	-13.6008
LD	-13.6011
site	-13.6014
▁theft	-13.6015
▁charg	-13.6016
ather	-13.6017
▁Emerg	-13.6025
▁evidenc	-13.6026
▁renewa	-13.604
▁develops	-13.6045
▁fire	-13.6047
▁gener	-13.6071
Ham	-13.6072
▁inspir	-13.608
hereafter	-13.6111
▁attribut	-13.6127
ma	-13.6133
▁overexploit	-13.6135
nic	-13.6142
▁complie	-13.6146
thern	-13.6167
▁drive	-13.6171
▁decentraliz	-13.6172
PS	-13.6178
OP	-13.6196
▁Franc	-13.6198
lue	-13.6201
easing	-13.6204
cient	-13.6208
▁Nag	-13.6209
▁Regulation	-13.6214
▁reprisal	-13.6214
▁milestone	-13.6215
▁headquarter	-13.6215
▁turtle	-13.6216
▁hospital	-13.6216
▁consumer	-13.6216
▁precondition	-13.6217
▁militia	-13.6217
▁script	-13.6218
▁earthquake	-13.6218
▁difference	-13.6218
▁edition	-13.622
fol	-13.622
▁manifestation	-13.6221
▁Recommendation	-13.6221
▁Republi	-13.6221
▁Cooperative	-13.6221
▁nomad	-13.6227
▁consultant	-13.6229
▁Obligation	-13.6231
▁Ship	-13.6233
print	-13.6241
▁swift	-13.6244
▁recreation	-13.6245
▁weakness	-13.6245
▁ensu	-13.6247
erre	-13.6247
dentification	-13.6248
Bal	-13.6248
▁interdict	-13.625
cholarship	-13.625
refoule	-13.6251
▁superior	-13.6251
▁Speci	-13.6251
▁check	-13.6251
▁intrinsic	-13.6251
Djamena	-13.6251
GNSS	-13.6251
SPIDER	-13.6251
▁Aggression	-13.6251
▁Barcelona	-13.6251
▁Braille	-13.6251
▁Equipment	-13.6251
▁Gaborone	-13.6251
▁Hebron	-13.6251
▁Jirga	-13.6251
▁Karzai	-13.6251
▁Kisangani	-13.6251
▁Nagasaki	-13.6251
▁Purple	-13.6251
▁Registries	-13.6251
▁Salaam	-13.6251
▁Saturday	-13.6251
▁Srpska	-13.6251
▁Thessaloniki	-13.6251
▁Thomas	-13.6251
▁Tuesday	-13.6251
▁anniversaries	-13.6251
▁breastfeeding	-13.6251
▁elucidat	-13.6251
▁indigence	-13.6251
▁leisure	-13.6251
▁litigation	-13.6251
▁recycling	-13.6251
▁redundan	-13.6251
▁rescheduling	-13.6251
▁secrecy	-13.6251
▁simplified	-13.6251
▁smuggled	-13.6251
▁unsatisfactory	-13.6251
▁Carpathians	-13.6251
▁Folklore	-13.6251
▁Keith	-13.6251
▁Shelter	-13.6251
▁absorb	-13.6251
▁footnote	-13.6251
▁ambitious	-13.6251
▁clarification	-13.6251
▁shift	-13.6251
▁District	-13.6251
▁MEPC	-13.6251
▁lump	-13.6251
▁minutes	-13.6251
▁Harmony	-13.6251
▁hardware	-13.6251
▁landslides	-13.6251
bourg	-13.6251
▁mercenarism	-13.6251
▁rededicate	-13.6251
▁Fostering	-13.6251
▁outlets	-13.6251
▁smoking	-13.6251
▁trainees	-13.6251
▁clothing	-13.6251
▁Magistracy	-13.6252
▁intermediary	-13.6252
▁bioethics	-13.6252
▁cybercrime	-13.6252
▁Popula	-13.6252
▁discord	-13.6252
▁mismanagement	-13.6252
▁WHEREOF	-13.6252
stretch	-13.6252
▁inmates	-13.6252
▁statehood	-13.6252
▁panellists	-13.6252
▁zero	-13.6252
▁Ecotourism	-13.6252
▁dispersion	-13.6252
▁exclusivity	-13.6252
▁unresolved	-13.6252
Upgrading	-13.6252
▁shortening	-13.6252
sufficiency	-13.6252
▁Judgment	-13.6252
▁engender	-13.6253
▁Satisfaction	-13.6253
▁Monday	-13.6253
▁Liberaci	-13.6253
▁Speaker	-13.6253
▁driving	-13.6253
▁Serb	-13.6254
▁Dayton	-13.6254
▁divorce	-13.6254
▁clinic	-13.6254
▁forecasting	-13.6255
▁compete	-13.6255
▁Wild	-13.6255
▁disarm	-13.6255
▁moment	-13.6255
stainable	-13.6256
▁Immunization	-13.6256
▁Enactment	-13.6256
▁illiterate	-13.6256
▁upheld	-13.6257
▁IOC	-13.6258
▁interchange	-13.626
vail	-13.626
▁directive	-13.6261
▁suppliers	-13.6263
▁consignments	-13.6264
▁corridors	-13.6264
▁Roma	-13.6264
▁auditors	-13.6265
▁interpreters	-13.6265
▁drop	-13.6266
▁generalized	-13.6266
▁woman	-13.6266
▁resubmit	-13.6266
▁corps	-13.6267
▁specialist	-13.627
▁und	-13.6271
aving	-13.6271
▁assassination	-13.6272
▁exhaustive	-13.6272
Nazis	-13.6273
place	-13.6274
▁connecting	-13.6276
▁shorter	-13.6276
Shar	-13.6277
admissible	-13.6278
▁Transactions	-13.6278
alvage	-13.6279
▁Sunnis	-13.628
▁distortion	-13.6281
▁fail	-13.6285
▁Ulu	-13.6288
▁reprisals	-13.6288
▁impart	-13.6292
isco	-13.6292
unctioning	-13.6294
ddle	-13.6295
▁church	-13.63
▁promulgati	-13.6302
▁Commemorat	-13.6302
▁amputations	-13.6305
▁repairing	-13.6306
▁Dia	-13.6311
ords	-13.6313
▁Tort	-13.6313
movable	-13.6313
▁airline	-13.6318
▁Objectives	-13.6318
Fifteen	-13.6318
▁reap	-13.6319
▁yield	-13.6319
▁Set	-13.6324
▁Wa	-13.6327
▁Pre	-13.633
▁ref	-13.633
▁smoothly	-13.6334
▁euros	-13.6335
▁indications	-13.6339
▁applicants	-13.6341
▁flights	-13.6346
▁Subcommittees	-13.6349
▁im	-13.6351
▁globe	-13.6355
ffen	-13.6356
▁infring	-13.6357
▁Fren	-13.6357
iy	-13.6359
xic	-13.636
▁briefings	-13.6363
▁perpetuat	-13.6363
▁contributor	-13.6368
consider	-13.6374
▁relied	-13.6376
ingle	-13.6376
▁Christian	-13.6382
evitalization	-13.6384
▁Dar	-13.6385
ilia	-13.6393
▁fee	-13.6397
agencies	-13.6407
▁resides	-13.641
▁stag	-13.6411
▁top	-13.6421
bli	-13.6423
add	-13.6423
▁Mala	-13.6424
ston	-13.6425
sea	-13.6434
reported	-13.6434
ropic	-13.6435
▁demoli	-13.6435
▁Monter	-13.6438
▁eradicati	-13.6439
ga	-13.6441
bridge	-13.6442
tun	-13.6453
▁Tru	-13.6454
▁nominat	-13.6458
▁protest	-13.6467
▁Proceeding	-13.6471
▁delegate	-13.6475
dential	-13.6478
▁surrendered	-13.6478
▁disa	-13.6478
▁capa	-13.6479
kets	-13.6485
▁discover	-13.65
▁pharmaceuticals	-13.6505
▁specification	-13.6507
▁retire	-13.6517
▁slowed	-13.6518
▁fi	-13.6523
rum	-13.6532
rights	-13.6535
elest	-13.6536
Res	-13.6537
▁Sha	-13.654
ree	-13.654
▁dies	-13.6549
▁curtai	-13.6555
▁reconstitute	-13.6558
▁plants	-13.6578
▁partially	-13.6578
▁Loca	-13.6579
▁ammunitions	-13.6589
▁Nationality	-13.6591
anctions	-13.6594
▁injustice	-13.6596
ppropriate	-13.6604
▁intellectuals	-13.6615
ntegrated	-13.6625
ging	-13.6631
▁Do	-13.6634
judicial	-13.6634
▁Sciences	-13.6637
tolerance	-13.6638
▁Addi	-13.6648
▁initiat	-13.6652
▁responsib	-13.6656
▁coca	-13.6659
▁humanely	-13.6671
arriage	-13.6672
▁academics	-13.6673
▁articulat	-13.6676
▁rigid	-13.6678
▁catalogue	-13.6688
ollective	-13.6689
▁Communi	-13.6703
▁resp	-13.6708
▁desires	-13.671
front	-13.671
roposals	-13.6715
rime	-13.6732
iative	-13.6738
asks	-13.6741
▁judgment	-13.6751
turnees	-13.6755
▁named	-13.6778
nvoys	-13.6783
Period	-13.6784
▁compell	-13.6789
▁Plu	-13.679
iability	-13.6795
metric	-13.68
oncrete	-13.6811
stant	-13.6821
feit	-13.6826
ubprogramme	-13.6832
▁roll	-13.6834
▁channell	-13.6839
used	-13.6841
▁Safe	-13.6855
egality	-13.6862
und	-13.6867
▁Shi	-13.6871
members	-13.689
▁Envoys	-13.69
▁cl	-13.69
▁Creat	-13.6906
any	-13.6915
▁Str	-13.6917
▁Dub	-13.6919
levant	-13.6924
world	-13.6939
▁hereto	-13.6944
ajor	-13.6946
▁Mechanisms	-13.6951
gie	-13.6953
fa	-13.696
▁num	-13.697
▁upgrade	-13.6974
istance	-13.6984
▁successi	-13.699
▁forc	-13.7023
▁tank	-13.7028
aundering	-13.7046
uitable	-13.7049
onditions	-13.7061
isc	-13.7075
ept	-13.7086
▁col	-13.709
▁Reg	-13.7099
elo	-13.71
insk	-13.7103
▁assignees	-13.711
▁formalize	-13.7126
ollaborative	-13.7126
manitarian	-13.7129
▁Compli	-13.7165
echnological	-13.7169
▁exploitati	-13.7172
awn	-13.7174
▁renam	-13.7182
▁WeaponsA	-13.7199
rez	-13.7202
urring	-13.7203
▁oppose	-13.722
▁prosecutor	-13.7225
alva	-13.7243
▁tr	-13.7249
staff	-13.7249
firms	-13.7268
litary	-13.727
report	-13.7274
rous	-13.7279
eir	-13.7283
▁clearing	-13.7302
▁Appreciati	-13.7304
▁Four	-13.7305
rusteeship	-13.7307
▁lag	-13.7316
▁roads	-13.7318
No	-13.7326
nhancing	-13.7329
▁sensitize	-13.7349
▁reschedule	-13.7354
large	-13.736
▁Equ	-13.7363
▁projection	-13.7385
▁underutiliz	-13.7414
▁expire	-13.7415
▁Sign	-13.742
▁cognizan	-13.7425
subregional	-13.7453
ained	-13.7454
culture	-13.7459
ases	-13.7471
▁apart	-13.7473
structured	-13.7492
▁faction	-13.7493
▁fins	-13.7502
rability	-13.7503
▁imports	-13.7526
structuring	-13.7542
resident	-13.7556
effectively	-13.7558
ulfilment	-13.7573
May	-13.7579
az	-13.758
▁repli	-13.7584
▁intoleran	-13.7588
▁Librar	-13.7621
▁Habitats	-13.7628
vel	-13.7628
Mauritius	-13.7633
their	-13.7637
Rwanda	-13.7648
▁kill	-13.7654
true	-13.7674
▁detain	-13.7674
▁hei	-13.7688
▁Ass	-13.7693
▁quot	-13.7695
▁playe	-13.7702
matter	-13.7705
▁Up	-13.7745
oul	-13.775
dification	-13.7763
Year	-13.7771
mming	-13.7774
▁Man	-13.7786
lateral	-13.7787
").	-13.7789
bi	-13.7791
point	-13.7802
hold	-13.7807
return	-13.7814
▁minist	-13.7819
sert	-13.7832
floo	-13.7848
section	-13.7853
Joint	-13.7872
help	-13.7902
▁reintegrat	-13.7905
benefit	-13.7913
vo	-13.7919
legislative	-13.7921
alities	-13.7924
▁acce	-13.7926
tes	-13.7929
▁Programmes	-13.793
▁chairman	-13.7933
evaluation	-13.7934
▁Com	-13.7949
emen	-13.796
Tokelau	-13.7963
▁serviced	-13.7974
sub	-13.7979
National	-13.799
isms	-13.7992
institutional	-13.7993
nsion	-13.7994
▁spa	-13.7995
observance	-13.8
bel	-13.8007
mending	-13.801
▁unde	-13.8011
xamination	-13.8027
▁reunite	-13.8029
nisterial	-13.803
▁clas	-13.8032
reated	-13.8037
University	-13.8039
▁Give	-13.8063
▁unt	-13.8068
Status	-13.8071
uinquenni	-13.8075
ven	-13.8086
▁Free	-13.8099
inclusive	-13.8101
within	-13.8102
mass	-13.8108
function	-13.8109
▁distincti	-13.8116
▁Nu	-13.8118
tatis	-13.813
▁Even	-13.8131
Hea	-13.816
pr	-13.8165
▁guardians	-13.8176
▁atten	-13.8177
oral	-13.818
Olympic	-13.8183
articles	-13.8186
regulatory	-13.8192
December	-13.8193
▁Fail	-13.8196
conditional	-13.8197
▁Met	-13.8201
uality	-13.8209
Modalities	-13.821
evolving	-13.8217
cover	-13.8223
evaluate	-13.8238
Earth	-13.8253
adjusted	-13.8263
sensitiv	-13.8266
volunteer	-13.8267
neous	-13.8273
justify	-13.8274
millennium	-13.8274
Commodities	-13.828
bottom	-13.8281
pervasive	-13.8282
generating	-13.8285
index	-13.8287
school	-13.8291
publishing	-13.8296
civilization	-13.8301
users	-13.8304
Governments	-13.8309
Atlantic	-13.8317
munitions	-13.834
ogether	-13.8341
communica	-13.8344
▁store	-13.8347
aged	-13.8365
▁Wid	-13.8369
series	-13.837
Detect	-13.8375
azardous	-13.8376
gnizan	-13.84
countries	-13.8401
uster	-13.8402
▁Develop	-13.842
yclone	-13.8427
▁misc	-13.843
▁em	-13.8435
vice	-13.8445
severe	-13.8452
▁bon	-13.846
▁Kuwaiti	-13.8468
▁Ref	-13.847
wed	-13.8472
placement	-13.8474
▁entitle	-13.8475
▁Disciplin	-13.8478
subsidize	-13.8484
▁delegat	-13.8493
educat	-13.8494
media	-13.8496
▁Organizations	-13.8499
▁holder	-13.8502
▁exp	-13.8514
poly	-13.8515
▁disburs	-13.8516
▁incomes	-13.8519
itional	-13.8521
aut	-13.8526
▁Presiden	-13.856
lessness	-13.8561
▁Stat	-13.8562
laims	-13.8565
vitalization	-13.8583
▁counted	-13.859
reliable	-13.8602
af	-13.8603
▁confer	-13.8604
relevant	-13.8613
▁remunerat	-13.8614
▁Geo	-13.8616
▁certificat	-13.862
▁restorati	-13.8623
▁reaction	-13.863
▁Opti	-13.8636
positioning	-13.8645
control	-13.8651
mote	-13.8658
station	-13.8671
orne	-13.8676
▁mod	-13.8685
▁inaugurat	-13.869
lling	-13.8695
lbatrosses	-13.8699
lleviation	-13.8702
▁Lo	-13.8702
▁Tas	-13.8705
▁curriculum	-13.8708
▁defendant	-13.8708
gne	-13.8709
dicts	-13.8709
▁convert	-13.8709
▁Cyber	-13.871
una	-13.8713
▁Sunni	-13.8715
▁reactor	-13.8715
▁Arrangement	-13.8715
▁domain	-13.8716
▁swap	-13.8716
▁clause	-13.8717
▁subcommission	-13.8717
▁teacher	-13.8717
▁discard	-13.8718
▁allegation	-13.8718
lla	-13.8719
chievements	-13.872
▁scholar	-13.8722
▁Slum	-13.8722
▁Refuge	-13.8724
▁institut	-13.8732
ggest	-13.8733
pha	-13.8733
▁maim	-13.8737
▁conscripti	-13.874
▁terminate	-13.874
uca	-13.8741
dissolu	-13.8742
▁Ga	-13.8742
▁exempl	-13.8743
▁Helen	-13.8745
▁exodus	-13.8746
habilitation	-13.8747
lympic	-13.8749
▁cultivat	-13.8749
▁hub	-13.875
lection	-13.875
irculation	-13.875
▁excellen	-13.875
▁resilien	-13.875
Civilization	-13.875
itnesses	-13.8751
horiz	-13.8751
▁Acquisitions	-13.8751
▁antagonis	-13.8751
▁humiliat	-13.8751
CODE	-13.8751
CyberSchoolBus	-13.8751
▁Annapolis	-13.8751
▁Arusha	-13.8751
▁Complaints	-13.8751
▁Confederation	-13.8751
▁Curitiba	-13.8751
▁Depositary	-13.8751
▁Eldoret	-13.8751
▁Fistula	-13.8751
▁Murahaleen	-13.8751
▁clerics	-13.8751
▁confinement	-13.8751
▁convertibility	-13.8751
▁drylands	-13.8751
▁entrench	-13.8751
▁incarcerated	-13.8751
▁indictees	-13.8751
▁magistrates	-13.8751
▁majeure	-13.8751
▁pathogen	-13.8751
▁retaliation	-13.8751
▁stewardship	-13.8751
▁strenuous	-13.8751
▁subcontractors	-13.8751
▁commentaries	-13.8751
▁falsification	-13.8751
▁harbour	-13.8751
▁pleadings	-13.8751
▁Census	-13.8751
▁Moham	-13.8751
▁assimilat	-13.8751
▁dissenters	-13.8751
▁emotional	-13.8751
▁discourse	-13.8751
▁inhabit	-13.8751
symmetri	-13.8751
▁acidification	-13.8751
▁immovable	-13.8751
▁remarkabl	-13.8751
▁Apia	-13.8752
ubsidi	-13.8752
▁phil	-13.8752
uick	-13.8752
▁reinvigorate	-13.8752
▁addenda	-13.8752
▁Prisoners	-13.8752
▁Senate	-13.8752
unci	-13.8752
▁carriers	-13.8752
CMP	-13.8752
passer	-13.8752
▁commutation	-13.8752
▁Annan	-13.8752
▁screening	-13.8752
▁culminat	-13.8752
▁orphanages	-13.8752
▁restart	-13.8752
▁optical	-13.8752
▁timeline	-13.8752
▁fronts	-13.8752
▁reformists	-13.8752
cipa	-13.8752
▁compulsion	-13.8752
▁Revolution	-13.8752
▁unsafe	-13.8752
▁Sediments	-13.8753
▁Donorship	-13.8753
▁disconnect	-13.8753
▁brides	-13.8753
▁Conversion	-13.8753
▁Outlook	-13.8753
▁resettled	-13.8753
▁jail	-13.8753
▁diminution	-13.8753
▁repayment	-13.8753
cate	-13.8754
▁Facilitation	-13.8754
malarial	-13.8754
▁illness	-13.8754
▁hours	-13.8754
incide	-13.8755
▁denucleariz	-13.8755
▁trainers	-13.8755
▁John	-13.8755
▁autism	-13.8755
▁Prize	-13.8755
corporeal	-13.8755
▁correctional	-13.8756
▁Peacekeepers	-13.8756
▁afterwards	-13.8756
▁tourists	-13.8757
▁goodwill	-13.8757
▁seabed	-13.8757
▁drivers	-13.8757
▁Animals	-13.8758
atalogu	-13.8758
gali	-13.8758
▁liberaliz	-13.8758
iracy	-13.8759
▁adjustable	-13.8759
WG	-13.8759
▁flooding	-13.8759
▁Wise	-13.876
▁swiftly	-13.8761
▁coastline	-13.8762
▁disorder	-13.8762
▁bidding	-13.8762
▁thereunder	-13.8763
▁careful	-13.8763
▁timelines	-13.8763
▁hired	-13.8764
▁shape	-13.8765
▁reclassify	-13.8765
▁deficit	-13.8765
▁deaf	-13.8766
xpulsion	-13.8766
▁astronomy	-13.8767
▁aviation	-13.8768
▁prediction	-13.8768
▁flexibilit	-13.8768
▁contradict	-13.8771
▁Liberty	-13.8772
▁equipp	-13.8774
WC	-13.8776
ndi	-13.8779
▁pretext	-13.8779
njoy	-13.8779
▁anomal	-13.878
orrespondent	-13.878
patory	-13.8782
▁aspiration	-13.8784
▁nomads	-13.8785
▁maimed	-13.8786
▁interface	-13.8788
▁domains	-13.879
▁Constitut	-13.8796
▁Lawyer	-13.8796
▁Shall	-13.8796
ubmit	-13.8797
▁seeds	-13.8797
▁reactors	-13.8798
▁rul	-13.8805
▁electorate	-13.8806
domin	-13.8806
▁refinement	-13.8809
SOL	-13.8811
▁Cooperating	-13.8812
mbi	-13.8813
▁operators	-13.8813
sence	-13.8813
▁append	-13.8813
▁collaborat	-13.8813
▁filed	-13.8821
▁convenience	-13.8821
▁invalid	-13.8824
▁aggravate	-13.8825
▁stigmatization	-13.8826
▁infringement	-13.8826
▁think	-13.8827
▁spe	-13.883
▁Gua	-13.8831
▁customer	-13.8831
▁expectations	-13.8834
payin	-13.8838
▁desert	-13.884
▁chains	-13.8847
▁nominations	-13.8852
▁Incorporati	-13.8852
▁sam	-13.8853
Am	-13.8856
▁combined	-13.8856
ceived	-13.8858
▁class	-13.886
▁bar	-13.886
gara	-13.8862
▁originated	-13.8867
▁spi	-13.8874
▁canton	-13.8876
▁lodg	-13.8876
EM	-13.8878
ontext	-13.8881
enin	-13.8882
EF	-13.8887
▁Payment	-13.8888
▁priori	-13.8889
▁Need	-13.8896
▁jobs	-13.8896
▁Dig	-13.8898
▁def	-13.89
▁aliens	-13.8903
▁restrain	-13.891
▁resourcing	-13.891
▁fast	-13.8919
ples	-13.8921
▁Than	-13.8931
▁automatic	-13.8938
▁Religions	-13.8943
rms	-13.8946
▁tender	-13.8956
▁connectivity	-13.8957
tatelessness	-13.8957
▁proactive	-13.8958
▁Sal	-13.8958
loser	-13.8962
Assist	-13.8965
▁Colo	-13.8968
ules	-13.8969
▁bullying	-13.8978
▁Hostage	-13.8978
▁engineering	-13.8981
▁traumati	-13.8984
vailability	-13.8986
ccordingly	-13.899
▁inapplicable	-13.899
theless	-13.8991
Committee	-13.8993
▁forged	-13.8995
▁corpor	-13.8996
mali	-13.9001
ersistent	-13.9008
sident	-13.9009
▁beating	-13.9018
▁Rec	-13.902
footprints	-13.9023
▁relocations	-13.9024
resentation	-13.9027
▁u	-13.9029
▁Intensif	-13.9034
▁computers	-13.9035
▁dispossessi	-13.9036
organizations	-13.9048
▁arose	-13.9048
▁wreck	-13.9049
▁expired	-13.905
▁outrage	-13.905
bia	-13.9051
▁Rice	-13.906
sual	-13.9062
nfluence	-13.9067
nunciation	-13.9075
iles	-13.9077
ppon	-13.908
▁declined	-13.9098
▁evade	-13.91
▁poly	-13.9105
▁Tha	-13.9105
▁pi	-13.9108
▁Poly	-13.9111
foul	-13.9111
sensitiz	-13.913
▁old	-13.9139
vided	-13.915
iness	-13.9155
▁Invest	-13.9163
▁farm	-13.9179
tably	-13.918
▁Pla	-13.9189
mes	-13.919
▁thank	-13.9191
Security	-13.9195
Signatory	-13.9201
cord	-13.9217
▁enriche	-13.9219
agre	-13.9224
purchase	-13.9233
▁incit	-13.9236
▁disguis	-13.9236
▁embrac	-13.9245
eceivables	-13.9246
people	-13.9248
▁Tokelauan	-13.9265
▁eas	-13.9272
▁evaluated	-13.9293
▁Sing	-13.9297
▁com	-13.9303
▁regionalization	-13.9311
erged	-13.9313
▁ma	-13.9316
▁necessitat	-13.9318
stigate	-13.9337
▁retained	-13.9338
▁prevails	-13.9345
orms	-13.9367
▁Media	-13.937
odel	-13.9373
▁islands	-13.938
▁Clin	-13.9381
▁subm	-13.9384
gaining	-13.9392
▁delivers	-13.9399
▁united	-13.9406
armful	-13.9407
▁Gui	-13.9407
▁cor	-13.9412
obilization	-13.9412
leash	-13.9439
ai	-13.9445
▁Manag	-13.9445
isplaced	-13.9446
▁si	-13.9461
▁Facilitat	-13.9466
cerning	-13.9469
ummary	-13.9495
literate	-13.9498
▁Comm	-13.9499
ates	-13.951
▁organi	-13.9512
rm	-13.9514
ef	-13.9523
▁SeaI	-13.9525
scal	-13.9529
ontinuing	-13.9531
▁Funds	-13.9532
mediate	-13.9539
norm	-13.9548
▁disma	-13.9549
▁tak	-13.9554
▁mitigated	-13.9559
appor	-13.9563
ought	-13.9564
▁peni	-13.9565
▁restrictive	-13.9571
▁Ex	-13.9574
▁tempor	-13.9575
plication	-13.9577
▁Grand	-13.9577
▁undi	-13.9579
▁harvest	-13.962
▁crossing	-13.963
CT	-13.9631
▁Integrati	-13.9643
cupied	-13.9659
▁impl	-13.9665
eal	-13.9681
auses	-13.9682
cture	-13.9715
▁pursuits	-13.9724
dium	-13.9725
▁incorporates	-13.9726
▁institutionaliz	-13.9752
July	-13.9765
ries	-13.9767
life	-13.9782
▁deficien	-13.9793
▁Remov	-13.9794
croeconomic	-13.9799
▁Oc	-13.9802
▁stric	-13.9806
operatives	-13.9819
lays	-13.9824
▁celebrat	-13.984
▁opportuni	-13.9841
anifest	-13.9852
▁sup	-13.9871
▁inherit	-13.9877
sumption	-13.9882
ens	-13.9886
▁Dur	-13.9889
strengthening	-13.9902
Department	-13.9912
indful	-13.9913
exist	-13.9914
own	-13.9918
rig	-13.9931
oodwill	-13.9934
▁marshal	-13.9954
▁quo	-13.9975
▁Sah	-13.9976
assist	-13.9989
downs	-13.9992
ssibility	-13.9992
▁ta	-13.9994
▁exo	-14.0007
▁seat	-14.0008
enters	-14.0014
mi	-14.0025
dicate	-14.0029
▁replac	-14.003
▁confrontation	-14.0035
plans	-14.0044
▁utili	-14.0045
Member	-14.0074
▁Declare	-14.0076
tini	-14.0079
▁Cup	-14.0101
seas	-14.0104
▁tre	-14.0111
mitte	-14.0112
▁jur	-14.013
▁alleg	-14.014
viola	-14.0143
also	-14.0165
Crime	-14.0169
fulness	-14.0169
▁End	-14.0181
omplex	-14.0188
▁Locat	-14.0208
hematic	-14.0217
▁Practic	-14.0233
Bas	-14.0234
▁negotia	-14.0236
▁stri	-14.0238
▁contribut	-14.0256
arketplace	-14.0256
▁negati	-14.0265
servation	-14.0277
▁mining	-14.0306
Assembly	-14.0307
▁clo	-14.0337
▁Cor	-14.0338
▁shipment	-14.034
holding	-14.0343
orty	-14.0347
▁belongs	-14.0358
iews	-14.0367
▁mediate	-14.0372
rge	-14.0379
▁poo	-14.0389
organizational	-14.039
▁origins	-14.04
▁Mari	-14.0405
Disarmament	-14.0406
▁augmentati	-14.0408
uniqu	-14.0414
dication	-14.0418
▁Nor	-14.0425
tenti	-14.0454
selling	-14.0462
drawing	-14.0466
▁k	-14.0467
eville	-14.0468
talli	-14.0478
Nigeria	-14.0481
libr	-14.053
isse	-14.0538
Republic	-14.0571
itting	-14.0571
under	-14.0581
▁respondent	-14.0593
▁emancipate	-14.0596
ea	-14.0597
ille	-14.0598
rock	-14.0598
▁ceremon	-14.06
▁evolv	-14.0604
▁Lu	-14.0608
▁Credit	-14.0614
▁fal	-14.0617
power	-14.0625
Kazakhstan	-14.0636
criminal	-14.0658
ep	-14.0661
▁endo	-14.0668
▁cop	-14.067
space	-14.068
MC	-14.0685
sting	-14.0688
▁attest	-14.0695
TR	-14.0712
eke	-14.0712
Europe	-14.0718
Marin	-14.0721
lan	-14.0724
role	-14.074
▁envis	-14.0768
exploitation	-14.0769
iam	-14.08
bre	-14.0813
▁BW	-14.0839
Meeting	-14.0843
op	-14.0852
sets	-14.0857
Bur	-14.0858
▁int	-14.0858
sides	-14.0859
▁purchas	-14.0862
▁abused	-14.0869
▁evolve	-14.0881
regular	-14.0888
▁Her	-14.0902
racism	-14.0903
plan	-14.0913
▁inflow	-14.0918
▁overa	-14.0925
take	-14.0926
emembrance	-14.0926
EC	-14.0934
eges	-14.0937
▁Fu	-14.0977
▁regula	-14.1006
ova	-14.1013
Vienna	-14.1017
▁Propos	-14.1028
elfare	-14.103
eor	-14.1033
▁Reason	-14.1038
Management	-14.1066
lic	-14.1067
rain	-14.1108
▁ratio	-14.1125
amation	-14.1127
wo	-14.1133
isting	-14.114
▁declar	-14.1146
trea	-14.115
▁Cultures	-14.1156
Sahar	-14.1156
▁lo	-14.1157
Civil	-14.1167
erson	-14.1178
functions	-14.1179
convention	-14.1202
practice	-14.1203
cial	-14.1209
▁deduct	-14.121
Goals	-14.1211
▁exc	-14.1233
▁semi	-14.1242
rts	-14.1257
language	-14.1278
Financi	-14.128
tenance	-14.1309
▁surr	-14.1315
identified	-14.1315
transit	-14.132
▁ar	-14.1325
ledged	-14.133
▁laps	-14.1334
erms	-14.1338
eta	-14.1339
ensi	-14.1342
▁inc	-14.1342
finance	-14.1342
▁Ver	-14.1348
▁appreciati	-14.1357
Corruption	-14.1359
value	-14.1374
Provision	-14.1381
Powers	-14.1383
OA	-14.139
designed	-14.1392
mandated	-14.1402
▁subsid	-14.1406
▁vi	-14.1427
defined	-14.1433
Chief	-14.1435
Trafficking	-14.1444
release	-14.1445
We	-14.1445
perform	-14.1458
Network	-14.146
▁Initiati	-14.1464
rack	-14.1467
▁Mil	-14.1473
verge	-14.1473
mount	-14.1477
▁unite	-14.148
Effects	-14.148
▁predic	-14.1481
resence	-14.1484
▁misappropriati	-14.1486
duplication	-14.1488
▁ri	-14.1495
Yearbook	-14.1502
Under	-14.1505
biological	-14.1513
Nazi	-14.1523
▁Produc	-14.1527
elong	-14.1528
▁edit	-14.1535
register	-14.1541
venues	-14.1542
▁Medi	-14.1546
Promoting	-14.1548
victim	-14.1549
draft	-14.1549
▁Are	-14.1553
Pursu	-14.1554
▁satisfie	-14.1557
learning	-14.1557
sive	-14.1558
venting	-14.1568
ommending	-14.1574
located	-14.1574
Donor	-14.1575
Mountain	-14.1578
petroleum	-14.1579
Nationality	-14.1583
grow	-14.1585
Private	-14.1585
utilized	-14.1591
Measure	-14.1597
Return	-14.16
survey	-14.16
Common	-14.1601
UNCTAD	-14.1602
Table	-14.1605
books	-14.1608
gathering	-14.1613
rsh	-14.1613
creditor	-14.1618
▁fram	-14.1621
RESOLUTION	-14.1623
neutral	-14.1623
enter	-14.1623
commerce	-14.1625
ceivables	-14.1635
uation	-14.1676
Mitch	-14.1682
sponsoring	-14.1697
hu	-14.1697
flags	-14.17
flows	-14.1711
▁Reference	-14.1712
founded	-14.1715
interrupt	-14.1719
▁Guatemalan	-14.1722
hit	-14.1748
▁Reaffirm	-14.1756
ako	-14.176
held	-14.176
Ten	-14.1766
▁corpora	-14.1774
▁rev	-14.1776
lving	-14.1781
full	-14.1792
ay	-14.1795
themes	-14.1796
▁Pol	-14.1805
ontact	-14.1813
del	-14.182
▁JusticeA	-14.1842
esident	-14.1843
iving	-14.1862
▁moder	-14.1864
bilization	-14.1865
Conference	-14.187
pressed	-14.1874
▁compl	-14.1916
reviewed	-14.1925
▁instil	-14.1943
▁Appli	-14.1943
roll	-14.1952
uggle	-14.197
nant	-14.1978
▁photo	-14.199
peace	-14.199
eographic	-14.1998
▁Char	-14.201
▁flee	-14.2014
▁Sh	-14.2015
mphetamine	-14.2017
verage	-14.2021
consulta	-14.2021
▁Hear	-14.2025
▁absorpti	-14.2028
shops	-14.203
▁Emphasize	-14.2033
assisted	-14.2034
▁aut	-14.2035
uthentic	-14.2035
▁worse	-14.2037
▁technique	-14.2049
▁Signature	-14.2049
IP	-14.205
▁seabird	-14.205
▁dependant	-14.205
▁habitat	-14.205
▁audience	-14.2051
▁perpetrator	-14.2054
▁Resource	-14.2055
▁vendor	-14.2056
▁attitud	-14.2058
seeker	-14.2058
▁Mexic	-14.206
▁bomb	-14.206
▁spac	-14.206
pruden	-14.206
diction	-14.2062
▁Election	-14.2063
▁hemispher	-14.2064
Legal	-14.2069
▁suggestion	-14.207
▁Invit	-14.2073
ingly	-14.2074
▁Relation	-14.2076
▁reclassifi	-14.2077
▁sharp	-14.2078
▁destin	-14.2078
rupt	-14.2079
mprisonment	-14.2081
▁Economi	-14.2081
ignificant	-14.2082
sequence	-14.2082
▁reconstruct	-14.2082
pirit	-14.2082
ubstantial	-14.2082
▁diffus	-14.2083
▁climat	-14.2083
obbery	-14.2083
▁reinstate	-14.2084
▁arrang	-14.2084
gov	-14.2084
▁Spokes	-14.2085
Caucasus	-14.2085
Ghazal	-14.2085
Helm	-14.2085
ephedrine	-14.2085
rancophon	-14.2085
▁Asylum	-14.2085
▁Biotechnology	-14.2085
▁Constraints	-14.2085
▁ECLAC	-14.2085
▁ElBaradei	-14.2085
▁Entebbe	-14.2085
▁GUUAM	-14.2085
▁Gudauta	-14.2085
▁Juris	-14.2085
▁Marrakech	-14.2085
▁Moncton	-14.2085
▁Potato	-14.2085
▁Priorities	-14.2085
▁Province	-14.2085
▁Wednesday	-14.2085
▁Windhoek	-14.2085
▁anonymous	-14.2085
▁approximate	-14.2085
▁deputy	-14.2085
▁efficacy	-14.2085
▁expectancy	-14.2085
▁frontier	-14.2085
▁grandchildren	-14.2085
▁incarceration	-14.2085
▁landscape	-14.2085
▁negligible	-14.2085
▁petition	-14.2085
▁pseudoephedrine	-14.2085
▁rubble	-14.2085
▁sophisticat	-14.2085
▁subdivision	-14.2085
▁tournament	-14.2085
▁tranquillity	-14.2085
▁turbulence	-14.2085
▁vandalism	-14.2085
▁watercraft	-14.2085
▁jirga	-14.2085
▁portray	-14.2085
Confiscation	-14.2085
▁Banjul	-14.2085
▁delinquen	-14.2085
▁homogen	-14.2085
▁Clothing	-14.2085
▁Identity	-14.2085
▁Mostar	-14.2085
▁resigns	-14.2085
▁Prison	-14.2085
▁dismiss	-14.2085
▁oilfields	-14.2085
▁window	-14.2085
fascism	-14.2085
▁Rabat	-14.2085
▁accentuat	-14.2085
▁pioneer	-14.2085
▁candidature	-14.2085
▁pregnancies	-14.2085
▁buyout	-14.2085
▁Kosovar	-14.2085
▁hopelessness	-14.2085
▁subcommittees	-14.2085
▁unknown	-14.2085
▁Pollutants	-14.2085
▁embezzlement	-14.2085
▁contamination	-14.2085
▁morbidit	-14.2085
▁Plains	-14.2085
▁Corridor	-14.2085
▁phyto	-14.2085
▁vita	-14.2085
▁Busan	-14.2085
▁unregistered	-14.2085
▁complications	-14.2085
▁literature	-14.2085
▁exhum	-14.2085
▁Wildlife	-14.2085
▁leverage	-14.2085
▁heroin	-14.2085
tinguish	-14.2086
▁district	-14.2086
▁morbidities	-14.2086
Voice	-14.2086
▁reinstatement	-14.2086
worthy	-14.2086
▁unfounded	-14.2086
nium	-14.2086
▁syndicate	-14.2086
▁Cabinet	-14.2086
▁cleansing	-14.2086
▁mediators	-14.2087
Freezing	-14.2087
▁rotation	-14.2087
traj	-14.2087
▁honesty	-14.2087
xpansion	-14.2087
disqualification	-14.2087
▁unreserved	-14.2088
▁opiate	-14.2088
ntrepreneurship	-14.2088
▁reunify	-14.2089
▁authenticity	-14.209
▁Astronomy	-14.2091
▁arts	-14.2091
▁crew	-14.2091
▁fell	-14.2091
▁aspir	-14.2091
▁Ideal	-14.2092
▁Sensing	-14.2092
▁disast	-14.2092
▁unrest	-14.2093
▁Consent	-14.2093
▁Info	-14.2093
▁overruns	-14.2094
▁craft	-14.2094
▁governors	-14.2094
▁spill	-14.2094
▁tankers	-14.2094
▁nodes	-14.2095
▁overrid	-14.2095
▁weaknesses	-14.2096
▁shield	-14.2099
▁foregoing	-14.2099
yewitness	-14.2099
ccasion	-14.21
ceans	-14.21
ssenger	-14.21
iya	-14.2101
▁donorship	-14.2101
▁minerals	-14.2102
ssil	-14.2102
▁landings	-14.2102
▁timber	-14.2105
▁Create	-14.2105
yberspace	-14.2106
orship	-14.2107
▁",	-14.2108
▁submarines	-14.2109
▁vaccinations	-14.2109
▁aquifers	-14.2109
▁handbooks	-14.2109
▁equi	-14.2112
Survivors	-14.2114
▁legalize	-14.2114
ASS	-14.2116
▁permission	-14.2118
antly	-14.212
quare	-14.212
▁Conve	-14.2121
gram	-14.2121
▁install	-14.2122
▁databank	-14.2122
▁Friends	-14.2122
▁seniority	-14.2123
▁settler	-14.2123
▁abid	-14.2126
▁producer	-14.213
▁relocate	-14.2133
▁Jam	-14.2135
▁compen	-14.2136
uest	-14.2137
slo	-14.2137
▁Nile	-14.214
bl	-14.2141
▁absorption	-14.2142
▁inequity	-14.2143
▁arrival	-14.2144
▁channelled	-14.2146
▁doubt	-14.2147
▁Cartograph	-14.2151
▁Exc	-14.2152
▁commander	-14.2152
▁Decision	-14.2153
ournal	-14.2154
▁attendant	-14.2154
▁prescribing	-14.2155
▁Energies	-14.2156
▁originate	-14.2156
▁sym	-14.2157
▁differ	-14.2161
▁Who	-14.2165
earned	-14.2171
▁Definitions	-14.2172
fficiency	-14.2174
▁Princip	-14.2175
ighth	-14.2175
▁identi	-14.2176
cko	-14.2176
▁stagnati	-14.2176
▁Disseminate	-14.2184
▁Channel	-14.2184
▁leader	-14.2185
▁actuary	-14.2186
activ	-14.2187
▁pl	-14.2188
ore	-14.2192
xtradition	-14.2193
fil	-14.2195
▁ignor	-14.2195
▁nurse	-14.2198
▁RelationsS	-14.2199
ert	-14.22
ists	-14.2203
▁inspire	-14.2205
sanita	-14.2208
▁presumpti	-14.2212
▁ECA	-14.2214
dgetary	-14.2215
▁sacr	-14.2218
▁Better	-14.2219
▁animals	-14.2219
▁circulat	-14.2227
volution	-14.2229
▁surpluses	-14.223
vena	-14.2233
▁titl	-14.2236
connection	-14.2239
timulants	-14.2239
▁Bla	-14.2252
toral	-14.2253
▁You	-14.2256
▁Cycle	-14.2271
roductive	-14.2272
▁like	-14.2281
▁Si	-14.2283
▁Salut	-14.2286
▁teach	-14.2288
ailure	-14.229
▁quest	-14.2291
▁winter	-14.2292
ata	-14.2294
othermal	-14.2295
▁resourced	-14.2311
recursors	-14.2313
spiration	-14.2315
adopted	-14.2322
▁Purposes	-14.2325
▁Pyon	-14.2331
▁houses	-14.2334
▁Admissi	-14.2334
tration	-14.2335
▁specifications	-14.2336
▁supplie	-14.2338
pers	-14.234
nleash	-14.2341
▁packages	-14.2348
▁hydrologic	-14.2348
▁nullify	-14.2348
triennialization	-14.235
serve	-14.2362
▁miss	-14.2371
▁Data	-14.2379
▁agr	-14.2386
▁aggressi	-14.24
▁fled	-14.2402
▁traged	-14.2403
xtreme	-14.2405
liquidat	-14.2408
utism	-14.2409
▁disburse	-14.2409
▁fertilization	-14.2411
▁execut	-14.2412
roclamation	-14.2412
verse	-14.2414
▁searches	-14.2415
▁spot	-14.2416
enant	-14.2424
actors	-14.2437
vision	-14.2437
ide	-14.2437
▁Papers	-14.2438
▁Celebrati	-14.2454
mpower	-14.2461
nder	-14.2462
▁He	-14.2473
▁cancell	-14.2477
uvenile	-14.2478
proportionate	-14.248
▁demonstrat	-14.2489
▁redoubl	-14.2495
eju	-14.2496
measures	-14.2497
▁rotati	-14.2502
▁Tuna	-14.2503
etectable	-14.2514
▁Yo	-14.2515
overexploitation	-14.2523
relationships	-14.2525
▁surveying	-14.2527
ppreciates	-14.2532
▁Arti	-14.2544
male	-14.2548
tative	-14.2554
▁equa	-14.2555
▁Ongoing	-14.2571
▁transformations	-14.2583
▁Individual	-14.2594
communications	-14.2597
▁Mid	-14.2602
▁negligen	-14.2603
▁petroleum	-14.2618
▁Organi	-14.2626
try	-14.2627
▁cu	-14.2638
progress	-14.2639
pati	-14.2643
▁intensi	-14.2643
▁Ital	-14.2646
▁cred	-14.265
dom	-14.2651
▁halted	-14.2663
▁appr	-14.2666
▁objection	-14.2673
azar	-14.2674
UNAIDS	-14.2681
▁Perform	-14.2681
▁Bar	-14.2691
bec	-14.2708
apping	-14.2718
▁warr	-14.2721
▁withheld	-14.2721
▁campaigning	-14.2741
assistance	-14.2743
mplementing	-14.2748
▁Respecting	-14.2749
elling	-14.2774
IU	-14.2817
▁Initia	-14.2822
▁cut	-14.2829
aga	-14.2836
▁disrupti	-14.2849
▁min	-14.2855
▁IM	-14.2862
▁misrepresent	-14.2863
▁writ	-14.2868
▁tradi	-14.287
sec	-14.2881
viation	-14.2906
▁reliev	-14.2911
ail	-14.2914
▁registra	-14.2933
ppraisal	-14.2941
▁guardian	-14.2946
unic	-14.2946
▁Hazard	-14.2952
▁Lie	-14.2979
▁IC	-14.2984
▁Kor	-14.2995
esumption	-14.3003
ontinuous	-14.3005
ilometres	-14.3006
▁rai	-14.3017
▁compare	-14.3047
▁misappropriat	-14.3048
elective	-14.3056
word	-14.307
vinced	-14.3087
▁Vil	-14.3089
nia	-14.3092
▁sav	-14.3096
eh	-14.3113
aying	-14.3141
▁Mach	-14.3141
nked	-14.3147
oyal	-14.315
ify	-14.315
▁challenged	-14.3173
▁contemp	-14.3184
▁restructur	-14.319
▁disproportiona	-14.3217
▁repea	-14.3221
▁fault	-14.3221
signation	-14.3221
▁Threats	-14.3224
▁Boards	-14.3248
raise	-14.3261
▁interconnect	-14.3285
force	-14.3286
ught	-14.3288
cluding	-14.3296
▁motion	-14.3298
▁prima	-14.3299
disarmament	-14.3302
phase	-14.3303
▁reserv	-14.3313
▁discriminat	-14.3328
▁ProtocolS	-14.3331
▁originals	-14.3363
▁negotiati	-14.3364
ner	-14.3375
▁Inte	-14.3387
membrance	-14.3388
als	-14.3395
▁avia	-14.3415
▁Secretari	-14.3417
▁Transa	-14.342
umber	-14.3425
▁af	-14.3425
▁deposits	-14.3437
▁Clear	-14.3441
ays	-14.3442
▁occup	-14.3443
ple	-14.3446
▁jurist	-14.3448
▁Neg	-14.3462
gender	-14.3474
developing	-14.3486
▁norma	-14.3486
terim	-14.3492
▁occupie	-14.35
committed	-14.3501
▁Net	-14.3503
▁prejudic	-14.3508
▁soc	-14.3518
▁explosives	-14.3536
phere	-14.3542
▁Rei	-14.3551
sists	-14.3556
aken	-14.3557
▁dispers	-14.3567
▁smallholder	-14.357
▁Authorization	-14.3572
sci	-14.358
▁Rais	-14.3588
new	-14.3589
▁tested	-14.3592
▁Include	-14.3592
▁Monts	-14.3599
size	-14.3603
cer	-14.3614
▁HIPC	-14.3627
ope	-14.3636
ntentional	-14.3642
trition	-14.3645
centage	-14.3649
eff	-14.3666
Dig	-14.3668
nka	-14.3676
▁stronge	-14.3682
access	-14.3683
embe	-14.3684
▁reallocation	-14.3685
au	-14.3699
reports	-14.3727
);"	-14.3727
du	-14.3733
rate	-14.3747
▁founded	-14.3774
traumatiz	-14.3787
og	-14.3796
society	-14.3809
ides	-14.3814
ctur	-14.3817
▁homeless	-14.3819
novation	-14.383
spec	-14.384
▁fatal	-14.3842
range	-14.3843
▁ga	-14.3848
whe	-14.3853
▁divers	-14.3854
uccession	-14.3862
ncludes	-14.3873
rbitral	-14.3876
▁residents	-14.3887
▁circula	-14.3892
lose	-14.3907
llation	-14.3915
pin	-14.3917
view	-14.3936
▁endure	-14.3938
budget	-14.3971
▁Per	-14.3979
ensure	-14.3979
ke	-14.3984
further	-14.3995
position	-14.3997
▁adheren	-14.4044
ans	-14.4046
firm	-14.4052
rated	-14.4056
kits	-14.4057
▁commits	-14.4083
high	-14.4108
▁unve	-14.4109
rim	-14.4111
▁foreigner	-14.4123
pa	-14.4137
ible	-14.4138
NS	-14.4153
▁appraisals	-14.4153
lements	-14.4159
▁certifi	-14.4162
aused	-14.4182
▁envisag	-14.4205
▁firms	-14.4209
enc	-14.4214
meeting	-14.4215
gues	-14.4222
prevention	-14.4244
▁doubl	-14.425
names	-14.4252
oncerning	-14.4263
▁refr	-14.4264
ollaboration	-14.4274
▁Bra	-14.4275
number	-14.4286
hether	-14.4299
unt	-14.4299
ditional	-14.4302
veil	-14.4311
Estimate	-14.4326
▁Maintain	-14.4341
▁Nation	-14.4349
tality	-14.4349
olu	-14.4361
ensing	-14.4371
▁appropriat	-14.4374
▁Ba	-14.438
more	-14.4381
sum	-14.4384
reservation	-14.4386
bert	-14.4387
▁repatriate	-14.4389
inding	-14.4391
agreed	-14.4402
▁voluntar	-14.4406
orial	-14.4408
has	-14.4411
▁Undertak	-14.4413
air	-14.4418
hall	-14.4435
natural	-14.4438
▁securi	-14.4443
▁prim	-14.4448
egi	-14.4452
rid	-14.4471
▁ste	-14.4481
Canada	-14.4484
▁Ju	-14.4495
Non	-14.4504
Plan	-14.4506
from	-14.4515
▁spur	-14.4524
debt	-14.4561
▁Libr	-14.4567
▁dep	-14.4579
hes	-14.4586
ews	-14.4592
ering	-14.4597
capacity	-14.4597
ommodity	-14.4615
▁endur	-14.4616
organization	-14.4617
uses	-14.4631
▁collections	-14.4659
med	-14.4663
▁contagio	-14.4668
frie	-14.4672
developed	-14.4679
commitment	-14.468
ention	-14.4682
available	-14.4683
funds	-14.4703
▁Remed	-14.4709
logical	-14.4709
which	-14.4743
iver	-14.4776
integration	-14.4777
Inter	-14.4795
ria	-14.4816
ow	-14.4825
graphic	-14.4828
economics	-14.483
cides	-14.4834
Criminal	-14.4839
rp	-14.4855
tall	-14.4857
grant	-14.4858
have	-14.486
mponents	-14.4862
elete	-14.4863
rning	-14.4868
ap	-14.4869
ildlife	-14.4869
Public	-14.4875
official	-14.4892
live	-14.4925
uties	-14.4953
greed	-14.4974
▁pol	-14.5005
▁formaliz	-14.5017
▁Corpora	-14.5029
▁mer	-14.5042
▁disperse	-14.5055
▁tend	-14.5058
dded	-14.5067
ndering	-14.5075
raw	-14.5082
▁interdependenc	-14.509
nputs	-14.5109
efforts	-14.5124
runs	-14.5131
trac	-14.5139
dis	-14.5152
▁plurali	-14.5154
rearms	-14.5157
down	-14.5171
may	-14.5175
Justice	-14.5201
imely	-14.5205
ck	-14.5207
rocedures	-14.5222
manage	-14.5231
▁PC	-14.5239
uge	-14.5243
rt	-14.5249
response	-14.5254
peacekeeping	-14.5254
Party	-14.5269
ivileges	-14.5276
relationship	-14.5278
▁sc	-14.528
▁prec	-14.5292
▁devastati	-14.5293
ran	-14.5302
▁subj	-14.5305
▁advisor	-14.5316
disasters	-14.5338
▁Rein	-14.534
cooperation	-14.5348
rative	-14.5355
▁Id	-14.5357
since	-14.5378
utbreak	-14.5387
annual	-14.5393
▁gradua	-14.5404
▁harmon	-14.5434
▁deteriorate	-14.5437
▁Structure	-14.5447
ceased	-14.545
▁Immuni	-14.5451
Pub	-14.5468
Refugees	-14.5483
Place	-14.5485
▁strateg	-14.5486
▁Opportunit	-14.5494
poses	-14.5495
▁reiterati	-14.5495
democracy	-14.5505
rmanent	-14.5511
▁escalate	-14.5516
ari	-14.5536
mus	-14.5537
Forum	-14.5566
orkers	-14.5577
▁reimburse	-14.5581
otwithstanding	-14.5587
signed	-14.56
Political	-14.5603
nesia	-14.5608
admissi	-14.5627
tin	-14.5653
governance	-14.5659
strategy	-14.566
fi	-14.5663
migration	-14.5674
ev	-14.5682
cella	-14.5688
ember	-14.5692
entry	-14.5711
▁Humanit	-14.5715
illion	-14.5725
study	-14.5726
tric	-14.5748
Child	-14.5749
donor	-14.5749
riennial	-14.5751
▁chairperson	-14.5755
some	-14.5756
▁adjudicati	-14.5763
▁Gran	-14.5766
spe	-14.5769
edicate	-14.5769
nded	-14.5769
ither	-14.5813
akin	-14.5828
▁intolera	-14.5837
Universal	-14.5842
▁Fis	-14.5847
▁distribut	-14.5848
lution	-14.5854
Monterrey	-14.5855
positive	-14.5866
Ocean	-14.5872
trans	-14.5877
ened	-14.588
frastructure	-14.5882
▁victimiz	-14.5897
cratic	-14.5901
▁demo	-14.5903
Adopt	-14.5903
European	-14.591
▁catalogu	-14.5912
Reduction	-14.5923
▁Pay	-14.5927
elines	-14.5937
▁ag	-14.5938
ison	-14.5939
fulfilment	-14.5957
ailed	-14.5958
particular	-14.5972
external	-14.5976
list	-14.5988
▁season	-14.5995
science	-14.5996
▁hi	-14.6005
AS	-14.6019
rial	-14.603
arily	-14.6032
▁Institutes	-14.6033
flow	-14.6042
▁embrace	-14.6045
Focus	-14.6064
▁diet	-14.6072
Congress	-14.6073
transport	-14.608
appraisal	-14.6086
thirty	-14.6092
mitted	-14.6095
ontinues	-14.6099
rac	-14.6106
asse	-14.6119
ermination	-14.6129
Control	-14.6131
speci	-14.614
iterating	-14.6143
Regulations	-14.6145
▁Cons	-14.6154
burden	-14.6186
solidarity	-14.6192
race	-14.6192
ovi	-14.6194
assessed	-14.6213
▁att	-14.6218
ersuade	-14.6222
ank	-14.6223
democratic	-14.6234
▁achiev	-14.6234
preparedness	-14.624
involving	-14.6241
office	-14.6249
▁incre	-14.6252
gin	-14.6266
creating	-14.6266
▁criminals	-14.6276
▁star	-14.6279
▁regulariz	-14.6279
supply	-14.6284
itary	-14.6285
▁Shari	-14.6288
amb	-14.6291
mend	-14.6297
export	-14.6303
ull	-14.6306
▁char	-14.6307
availability	-14.6317
form	-14.6322
examination	-14.6323
association	-14.6327
▁deadl	-14.634
strial	-14.6347
tate	-14.6352
Baie	-14.6359
Property	-14.6359
ually	-14.6361
accountable	-14.6362
▁teleco	-14.6366
arrangement	-14.6369
itable	-14.6371
Poverty	-14.6375
enunciation	-14.6383
laws	-14.6386
▁explor	-14.6388
Bangkok	-14.6404
launched	-14.6409
met	-14.6413
duce	-14.6419
bb	-14.6424
will	-14.6427
DA	-14.643
▁mor	-14.643
forest	-14.6435
extrabudgetar	-14.6445
emphasized	-14.6459
racist	-14.6462
▁opt	-14.6469
resolved	-14.6472
stereotypic	-14.6479
▁faci	-14.6485
nsolidation	-14.6488
▁footprint	-14.6493
Effective	-14.6497
▁insur	-14.6502
hosting	-14.6509
Country	-14.6511
programming	-14.6512
Science	-14.6516
Phase	-14.6519
ip	-14.6519
profit	-14.6519
Translation	-14.652
planned	-14.6529
hydro	-14.653
obstruct	-14.6531
back	-14.6533
▁combin	-14.6534
feasibility	-14.6536
competitive	-14.6536
testing	-14.6541
Data	-14.6542
disclosure	-14.6553
margin	-14.6557
Communication	-14.6564
flexibility	-14.6566
recurrent	-14.657
Assessment	-14.6571
▁biennializ	-14.6572
Stockholm	-14.6573
piracy	-14.6573
fertilization	-14.6574
makers	-14.6578
volume	-14.6589
bullying	-14.659
reciprocal	-14.659
Bethlehem	-14.6591
iance	-14.6597
Kathmandu	-14.6598
rop	-14.6598
Border	-14.6598
insurance	-14.6599
geographic	-14.66
importing	-14.66
congress	-14.6602
UNITAID	-14.6602
earnings	-14.6603
Muslim	-14.6604
frames	-14.6606
seizure	-14.6607
orecasts	-14.6608
voting	-14.661
Access	-14.661
orrected	-14.6612
Christian	-14.6613
amphetamine	-14.6615
village	-14.6616
engineering	-14.6626
upgrading	-14.6632
▁Techn	-14.6637
connectivity	-14.6646
solutions	-14.6649
cted	-14.6657
wreck	-14.6667
Compact	-14.6679
fuel	-14.6684
▁park	-14.6687
clear	-14.6688
Annex	-14.6692
ficient	-14.6694
hubs	-14.6707
sp	-14.671
▁discourag	-14.671
code	-14.6711
lab	-14.6717
gricultural	-14.672
eng	-14.6723
mple	-14.6725
▁Innovati	-14.6731
▁oblige	-14.6736
▁Monte	-14.6743
▁polic	-14.6744
continue	-14.6768
valuations	-14.6778
▁appre	-14.68
this	-14.6804
nfidence	-14.6805
sustain	-14.6811
▁derogate	-14.6822
▁Mem	-14.6822
▁cooperat	-14.6824
ode	-14.6831
fined	-14.6845
▁subsidize	-14.6847
graduate	-14.6849
hosted	-14.6849
▁mobil	-14.6859
Princip	-14.6865
budgeting	-14.6865
facts	-14.6866
▁involuntar	-14.6872
▁interacti	-14.6877
▁borrow	-14.6881
specting	-14.6891
ravel	-14.69
oting	-14.6902
days	-14.6924
▁stockpil	-14.6926
program	-14.6927
▁connect	-14.6931
video	-14.6936
▁Welcome	-14.6938
▁confident	-14.6947
invali	-14.6947
▁annu	-14.6949
organiz	-14.695
bservance	-14.6952
room	-14.6955
▁underscor	-14.6959
cycl	-14.6962
ms	-14.6966
▁Stress	-14.6968
Action	-14.6971
sity	-14.6987
definit	-14.699
duction	-14.699
▁resist	-14.6992
▁Decades	-14.6997
▁Subsequent	-14.7001
LVI	-14.7005
ormulating	-14.7006
▁book	-14.7009
▁celebr	-14.7018
shing	-14.7019
▁Executi	-14.7025
mmunity	-14.7028
isposition	-14.703
▁uncover	-14.7032
bsolute	-14.7037
ftermath	-14.7038
avo	-14.7042
▁Simplif	-14.7043
▁disaggregat	-14.7044
▁prolong	-14.7044
▁handbook	-14.7045
▁aquifer	-14.7045
▁vaccination	-14.7046
▁implication	-14.7046
▁corridor	-14.7048
▁Victim	-14.7049
▁consignment	-14.7049
Origin	-14.7049
▁narrative	-14.7049
▁inhalant	-14.705
▁Balkan	-14.705
▁interlinkage	-14.705
▁explosion	-14.705
▁envoy	-14.705
▁submarine	-14.705
▁symbol	-14.7051
▁Build	-14.7051
▁monument	-14.7051
▁journalist	-14.7052
▁Contribution	-14.7054
▁servant	-14.7056
▁supplier	-14.7056
frica	-14.7056
illage	-14.7057
Econom	-14.7058
lleged	-14.7058
omali	-14.7059
ubs	-14.706
ange	-14.706
▁peak	-14.7061
▁dispos	-14.7062
▁Mal	-14.7063
▁Park	-14.7063
ngineering	-14.7065
▁minor	-14.7068
▁Transaction	-14.7068
▁Borde	-14.7072
▁justic	-14.7073
▁hierarch	-14.7073
▁German	-14.7073
nutri	-14.7074
▁Mitigati	-14.7074
▁Astronom	-14.7075
nquiry	-14.7075
▁corp	-14.7075
▁Bermud	-14.7075
▁epidemi	-14.7077
friendl	-14.7077
▁evicti	-14.7078
▁Twent	-14.7078
▁merit	-14.7079
▁Clea	-14.708
▁interpreter	-14.708
rvation	-14.7082
imilar	-14.7082
invigorating	-14.7083
arthquake	-14.7083
▁environ	-14.7083
ircumstances	-14.7083
ophobia	-14.7083
screen	-14.7083
HEREOF	-14.7084
▁replenish	-14.7084
▁diagnos	-14.7084
▁harass	-14.7084
▁moratori	-14.7084
eedback	-14.7084
▁Profess	-14.7084
ritten	-14.7084
▁athlet	-14.7085
evertheless	-14.7085
▁fasci	-14.7085
▁Christ	-14.7085
ART	-14.7085
▁syllabus	-14.7085
Biotech	-14.7085
GRID	-14.7085
NEPAD	-14.7085
uotas	-14.7085
▁Apparatuses	-14.7085
▁Catastrophes	-14.7085
▁Disposal	-14.7085
▁Embezzlement	-14.7085
▁Entitlement	-14.7085
▁Gleneagles	-14.7085
▁Influenza	-14.7085
▁Khatami	-14.7085
▁Kisumu	-14.7085
▁MERCOSUR	-14.7085
▁Pennsylvania	-14.7085
▁Petersburg	-14.7085
▁ReliefWeb	-14.7085
▁Supervision	-14.7085
▁UNICEF	-14.7085
▁Uzbek	-14.7085
▁autumn	-14.7085
▁auxiliar	-14.7085
▁bribes	-14.7085
▁irrevocable	-14.7085
▁mangroves	-14.7085
▁mercury	-14.7085
▁museums	-14.7085
▁obsolete	-14.7085
▁parentheses	-14.7085
▁rejuvenation	-14.7085
▁simplicity	-14.7085
▁nominees	-14.7085
bumba	-14.7085
▁bednets	-14.7085
▁lawsuits	-14.7085
Cambridge	-14.7085
▁Fibres	-14.7085
▁Talks	-14.7085
▁clarified	-14.7085
▁condoms	-14.7085
▁groundwaters	-14.7085
▁Flora	-14.7085
rprise	-14.7085
▁Facilitators	-14.7085
▁elusive	-14.7085
▁grievances	-14.7085
▁radioecology	-14.7085
▁rethink	-14.7085
arpathian	-14.7085
▁predominant	-14.7085
▁furni	-14.7085
▁forgiveness	-14.7085
▁invoices	-14.7085
▁slowdown	-14.7085
ithdrawal	-14.7085
▁Proportion	-14.7085
▁apology	-14.7085
▁Signals	-14.7085
▁Accessibility	-14.7085
▁cadre	-14.7085
▁demonstrators	-14.7085
▁compassion	-14.7085
IMAS	-14.7085
Goma	-14.7085
▁bleak	-14.7085
▁indemnity	-14.7085
▁Confidential	-14.7085
▁Oubang	-14.7085
▁fresh	-14.7085
cogni	-14.7085
▁Standpoint	-14.7085
▁symp	-14.7085
▁abandonment	-14.7085
▁configurations	-14.7085
▁recosted	-14.7085
▁investigators	-14.7085
▁plateau	-14.7085
▁honorar	-14.7085
▁thinkers	-14.7085
▁regulators	-14.7085
▁Naples	-14.7085
▁criticism	-14.7086
▁bombers	-14.7086
▁remarriage	-14.7086
▁trustworthy	-14.7086
pdf	-14.7086
▁Kimia	-14.7086
▁Links	-14.7086
▁remanded	-14.7086
▁Churches	-14.7086
▁duress	-14.7086
▁unlimited	-14.7086
ssau	-14.7086
utilation	-14.7086
▁victory	-14.7086
▁quadri	-14.7086
▁secession	-14.7086
▁Distress	-14.7086
▁revictimization	-14.7086
▁equities	-14.7086
▁Gyi	-14.7086
▁Medical	-14.7087
▁reinvigorating	-14.7087
retroactiv	-14.7087
omestic	-14.7087
▁pastoral	-14.7087
utonom	-14.7087
carbon	-14.7087
▁mentoring	-14.7087
▁birthday	-14.7087
ON	-14.7087
▁satisfactor	-14.7088
▁dictat	-14.7088
▁essence	-14.7088
▁franc	-14.7088
▁Complainants	-14.7089
Language	-14.7089
▁instruct	-14.7089
▁desperation	-14.7089
otential	-14.7089
▁criterion	-14.709
▁apprehend	-14.709
Most	-14.709
▁Spokesperson	-14.709
angk	-14.709
▁struc	-14.709
▁wreak	-14.709
▁Integrity	-14.7091
▁volatil	-14.7091
iSeek	-14.7091
▁intermediation	-14.7091
▁resupply	-14.7092
▁Indices	-14.7092
saka	-14.7092
▁Execution	-14.7093
▁rehabilitati	-14.7094
▁competency	-14.7094
burg	-14.7095
▁hierarchy	-14.7096
▁wis	-14.7096
UNDP	-14.7097
▁Longer	-14.7098
tinction	-14.7099
▁philosophy	-14.71
reprioritization	-14.7101
▁pastoralists	-14.7101
▁subcontracting	-14.7101
▁expos	-14.7101
▁contested	-14.7101
aux	-14.7101
▁warships	-14.7102
▁conceptual	-14.7102
▁Basel	-14.7102
voy	-14.7103
existent	-14.7104
emale	-14.7104
▁Sool	-14.7104
▁requisition	-14.7105
bu	-14.7106
▁headings	-14.7106
▁Croat	-14.7107
urop	-14.7109
▁Toba	-14.711
aries	-14.7112
▁Statehood	-14.7113
impu	-14.7113
sou	-14.7113
▁uncertain	-14.7114
ppines	-14.7117
▁father	-14.7119
▁detectable	-14.7121
▁Contribut	-14.7122
DR	-14.7123
ummaries	-14.7123
▁underfunded	-14.7124
Fou	-14.7124
implification	-14.7124
▁Executions	-14.7124
▁deliveries	-14.7124
▁mini	-14.7124
consum	-14.7125
▁Azer	-14.7126
▁geoscien	-14.7126
ishment	-14.7126
▁plagu	-14.7128
▁prot	-14.7129
ifying	-14.7131
▁designee	-14.7132
justifiable	-14.7133
▁Gab	-14.7137
▁Peter	-14.7137
elmets	-14.7139
▁mineral	-14.7139
▁evil	-14.7139
▁procur	-14.7142
toms	-14.7143
bila	-14.7143
▁uncovered	-14.7144
▁UND	-14.7145
▁flu	-14.7147
▁Gaz	-14.7148
▁equivalence	-14.7149
▁manif	-14.7152
nactment	-14.7153
▁Debtor	-14.7153
▁tenders	-14.7153
▁Iris	-14.7154
▁describe	-14.7156
▁Elections	-14.7157
vivo	-14.7159
▁anywhere	-14.716
cism	-14.716
▁Kale	-14.7162
▁concurrent	-14.7164
▁retiree	-14.7167
▁strike	-14.7168
reason	-14.7168
ticul	-14.7169
eafarers	-14.717
taneous	-14.7172
▁remember	-14.7172
ndustrialization	-14.7176
ntly	-14.7176
▁remarri	-14.7177
shk	-14.718
egre	-14.718
▁dispar	-14.718
atabase	-14.7181
HC	-14.7181
▁conscien	-14.7182
essage	-14.7184
▁vitality	-14.7184
Modern	-14.7184
▁curriculums	-14.7185
▁defendants	-14.7185
▁improper	-14.7185
urrent	-14.7187
▁glaci	-14.7188
▁reapprais	-14.719
▁colon	-14.7193
NI	-14.7199
ulf	-14.7199
▁reli	-14.7201
▁Hon	-14.7202
▁wild	-14.7202
nik	-14.7204
maras	-14.7209
,"	-14.721
ossible	-14.7212
RB	-14.7212
▁See	-14.7222
igation	-14.7227
Practic	-14.7228
oactive	-14.7229
PA	-14.7231
ecessary	-14.7231
ponsor	-14.724
stem	-14.724
▁Publi	-14.7243
▁hydrography	-14.7244
▁borrower	-14.7246
▁auditor	-14.7247
Establish	-14.7248
ocated	-14.7249
▁prudent	-14.7249
holds	-14.725
▁donations	-14.725
formulation	-14.7252
redecessor	-14.7254
▁pruden	-14.7258
▁archi	-14.726
▁Hano	-14.7261
rcing	-14.7263
cotourism	-14.7266
teps	-14.7267
▁perceptions	-14.727
style	-14.7272
▁Dro	-14.7275
▁degrad	-14.7275
ssively	-14.7281
lles	-14.7284
▁prospecti	-14.7286
▁marit	-14.7291
▁bombardments	-14.7299
▁stigmatiz	-14.7301
lled	-14.7302
rw	-14.7307
▁Interpol	-14.7311
▁horr	-14.7313
ME	-14.7315
cles	-14.7316
fall	-14.7318
▁accumulat	-14.7322
▁Establishes	-14.7324
▁Compu	-14.7324
▁Cru	-14.7328
▁Commun	-14.7328
▁summarize	-14.7329
▁Expressions	-14.7335
cco	-14.7338
rctic	-14.735
▁leasing	-14.7356
▁naturalization	-14.7356
utes	-14.7356
Gree	-14.7359
▁weekend	-14.736
▁spon	-14.7365
uous	-14.7371
ket	-14.7376
utsourcing	-14.7381
▁Presid	-14.7381
spirat	-14.7388
▁Iranians	-14.7392
▁Cler	-14.7393
MI	-14.7395
nti	-14.7397
trust	-14.7399
▁contractor	-14.7405
Village	-14.7412
▁publishes	-14.7416
creasing	-14.7421
bod	-14.744
▁depart	-14.7452
▁predetermine	-14.7458
▁fel	-14.7465
▁notices	-14.7466
▁Expenditure	-14.7473
nin	-14.7473
▁deleted	-14.7496
izes	-14.75
▁peril	-14.7502
▁Di	-14.7502
ecology	-14.7511
▁meth	-14.7519
imination	-14.7541
logg	-14.7542
▁sanita	-14.7544
ideoconferencing	-14.7548
imeliness	-14.7552
▁disagreement	-14.7561
▁Dee	-14.7565
▁insid	-14.7567
▁files	-14.7573
ressing	-14.7576
▁Savi	-14.7582
tors	-14.7585
▁specifi	-14.7588
lle	-14.7597
jects	-14.7599
▁radical	-14.7608
isengagement	-14.761
▁nav	-14.7613
alta	-14.7614
▁cens	-14.7622
▁visitor	-14.7622
▁spoke	-14.7629
reparations	-14.7637
recipi	-14.7638
non	-14.7641
enda	-14.7654
▁satisf	-14.7662
▁agent	-14.7663
▁Asse	-14.7668
continent	-14.7683
▁Phase	-14.7683
▁Translation	-14.7685
▁ins	-14.7685
▁volumes	-14.7686
ca	-14.7697
▁sh	-14.77
mid	-14.7702
har	-14.7707
stigator	-14.7719
ls	-14.7722
ncidental	-14.773
mad	-14.7733
▁Point	-14.774
mon	-14.7751
achinery	-14.7754
direct	-14.7756
sm	-14.7768
intentional	-14.7768
rida	-14.7769
▁amicabl	-14.7773
veral	-14.778
▁witnessed	-14.7787
GR	-14.7799
rmative	-14.7811
iture	-14.7823
▁intermediat	-14.7846
zations	-14.7858
▁satellites	-14.7862
▁Baie	-14.7869
am	-14.7875
▁dat	-14.7883
ib	-14.7885
▁Suc	-14.7886
eabed	-14.7897
ci	-14.7902
Kin	-14.7905
▁combinations	-14.7906
▁es	-14.7907
pension	-14.791
▁har	-14.7916
sponsor	-14.7922
relation	-14.7923
▁TR	-14.7952
▁Marc	-14.7954
▁predecessors	-14.7954
▁observa	-14.7959
Recalling	-14.7964
▁Ch	-14.7968
once	-14.7978
▁Appointment	-14.7985
▁Exp	-14.7998
[...]
